{
  "version": "1.0",
  "truncation": null,
  "padding": null,
  "added_tokens": [
    {
      "id": 0,
      "content": "[PAD]",
      "single_word": false,
      "lstrip": false,
      "rstrip": false,
      "normalized": false,
      "special": true
    },
    {
      "id": 1,
      "content": "[UNK]",
      "single_word": false,
      "lstrip": false,
      "rstrip": false,
      "normalized": false,
      "special": true
    },
    {
      "id": 2,
      "content": "[CLS]",
      "single_word": false,
      "lstrip": false,
      "rstrip": false,
      "normalized": false,
      "special": true
    },
    {
      "id": 3,
      "content": "[SEP]",
      "single_word": false,
      "lstrip": false,
      "rstrip": false,
      "normalized": false,
      "special": true
    },
    {
      "id": 4,
      "content": "[MASK]",
      "single_word": false,
      "lstrip": false,
      "rstrip": false,
      "normalized": false,
      "special": true
    }
  ],
  "normalizer": {
    "type": "BertNormalizer",
    "clean_text": true,
    "handle_chinese_chars": true,
    "strip_accents": null,
    "lowercase": false
  },
  "pre_tokenizer": {
    "type": "BertPreTokenizer"
  },
  "post_processor": {
    "type": "TemplateProcessing",
    "single": [
      {
        "SpecialToken": {
          "id": "[CLS]",
          "type_id": 0
        }
      },
      {
        "Sequence": {
          "id": "A",
          "type_id": 0
        }
      },
      {
        "SpecialToken": {
          "id": "[SEP]",
          "type_id": 0
        }
      }
    ],
    "pair": [
      {
        "SpecialToken": {
          "id": "[CLS]",
          "type_id": 0
        }
      },
      {
        "Sequence": {
          "id": "A",
          "type_id": 0
        }
      },
      {
        "SpecialToken": {
          "id": "[SEP]",
          "type_id": 0
        }
      },
      {
        "Sequence": {
          "id": "B",
          "type_id": 1
        }
      },
      {
        "SpecialToken": {
          "id": "[SEP]",
          "type_id": 1
        }
      }
    ],
    "special_tokens": {
      "[CLS]": {
        "id": "[CLS]",
        "ids": [
          2
        ],
        "tokens": [
          "[CLS]"
        ]
      },
      "[SEP]": {
        "id": "[SEP]",
        "ids": [
          3
        ],
        "tokens": [
          "[SEP]"
        ]
      }
    }
  },
  "decoder": {
    "type": "WordPiece",
    "prefix": "##",
    "cleanup": true
  },
  "model": {
    "type": "WordPiece",
    "unk_token": "[UNK]",
    "continuing_subword_prefix": "##",
    "max_input_chars_per_word": 100,
    "vocab": {
      "[PAD]": 0,
      "[UNK]": 1,
      "[CLS]": 2,
      "[SEP]": 3,
      "[MASK]": 4,
      "!": 5,
      "\"": 6,
      "#": 7,
      "$": 8,
      "%": 9,
      "&": 10,
      "'": 11,
      "(": 12,
      ")": 13,
      "*": 14,
      "+": 15,
      ",": 16,
      "-": 17,
      ".": 18,
      "/": 19,
      "0": 20,
      "1": 21,
      "2": 22,
      "3": 23,
      "4": 24,
      "5": 25,
      "6": 26,
      "7": 27,
      "8": 28,
      "9": 29,
      ":": 30,
      ";": 31,
      "<": 32,
      "=": 33,
      ">": 34,
      "?": 35,
      "@": 36,
      "A": 37,
      "B": 38,
      "C": 39,
      "D": 40,
      "E": 41,
      "F": 42,
      "G": 43,
      "H": 44,
      "I": 45,
      "J": 46,
      "K": 47,
      "L": 48,
      "M": 49,
      "N": 50,
      "O": 51,
      "P": 52,
      "Q": 53,
      "R": 54,
      "S": 55,
      "T": 56,
      "U": 57,
      "V": 58,
      "W": 59,
      "X": 60,
      "Y": 61,
      "Z": 62,
      "[": 63,
      "\\": 64,
      "]": 65,
      "^": 66,
      "_": 67,
      "`": 68,
      "a": 69,
      "b": 70,
      "c": 71,
      "d": 72,
      "e": 73,
      "f": 74,
      "g": 75,
      "h": 76,
      "i": 77,
      "j": 78,
      "k": 79,
      "l": 80,
      "m": 81,
      "n": 82,
      "o": 83,
      "p": 84,
      "q": 85,
      "r": 86,
      "s": 87,
      "t": 88,
      "u": 89,
      "v": 90,
      "w": 91,
      "x": 92,
      "y": 93,
      "z": 94,
      "|": 95,
      "}": 96,
      "~": 97,
      "¡": 98,
      "¢": 99,
      "£": 100,
      "¥": 101,
      "§": 102,
      "°": 103,
      "±": 104,
      "²": 105,
      "³": 106,
      "´": 107,
      "µ": 108,
      "·": 109,
      "º": 110,
      "½": 111,
      "¿": 112,
      "Á": 113,
      "Ä": 114,
      "Å": 115,
      "Æ": 116,
      "Ç": 117,
      "É": 118,
      "Í": 119,
      "Î": 120,
      "Ñ": 121,
      "Ó": 122,
      "Ö": 123,
      "×": 124,
      "Ø": 125,
      "Ú": 126,
      "Ü": 127,
      "Þ": 128,
      "ß": 129,
      "à": 130,
      "á": 131,
      "â": 132,
      "ã": 133,
      "ä": 134,
      "å": 135,
      "æ": 136,
      "ç": 137,
      "è": 138,
      "é": 139,
      "ê": 140,
      "ë": 141,
      "ì": 142,
      "í": 143,
      "î": 144,
      "ï": 145,
      "ð": 146,
      "ñ": 147,
      "ò": 148,
      "ó": 149,
      "ô": 150,
      "ö": 151,
      "ø": 152,
      "ù": 153,
      "ú": 154,
      "û": 155,
      "ü": 156,
      "ý": 157,
      "þ": 158,
      "Ā": 159,
      "ā": 160,
      "ă": 161,
      "ą": 162,
      "ć": 163,
      "Č": 164,
      "č": 165,
      "Đ": 166,
      "đ": 167,
      "Ē": 168,
      "ē": 169,
      "Ĕ": 170,
      "ĕ": 171,
      "ė": 172,
      "ę": 173,
      "ğ": 174,
      "ħ": 175,
      "ī": 176,
      "İ": 177,
      "ı": 178,
      "Ľ": 179,
      "Ł": 180,
      "ł": 181,
      "ń": 182,
      "Ō": 183,
      "ō": 184,
      "œ": 185,
      "ř": 186,
      "Ś": 187,
      "ś": 188,
      "Ş": 189,
      "ş": 190,
      "Š": 191,
      "š": 192,
      "ţ": 193,
      "ũ": 194,
      "ū": 195,
      "ů": 196,
      "ų": 197,
      "ź": 198,
      "Ż": 199,
      "ż": 200,
      "Ž": 201,
      "ž": 202,
      "ơ": 203,
      "ư": 204,
      "ǎ": 205,
      "ǔ": 206,
      "Ș": 207,
      "ș": 208,
      "ț": 209,
      "ȯ": 210,
      "ɐ": 211,
      "ɑ": 212,
      "ɒ": 213,
      "ɔ": 214,
      "ə": 215,
      "ɛ": 216,
      "ɜ": 217,
      "ɡ": 218,
      "ɢ": 219,
      "ɪ": 220,
      "ɫ": 221,
      "ɳ": 222,
      "ɽ": 223,
      "ɾ": 224,
      "ʁ": 225,
      "ʃ": 226,
      "ʊ": 227,
      "ʋ": 228,
      "ʒ": 229,
      "ʔ": 230,
      "ʕ": 231,
      "ʲ": 232,
      "ʻ": 233,
      "ʼ": 234,
      "ʾ": 235,
      "ʿ": 236,
      "ˈ": 237,
      "ˌ": 238,
      "ː": 239,
      "́": 240,
      "̃": 241,
      "̍": 242,
      "̥": 243,
      "̯": 244,
      "͍": 245,
      "Α": 246,
      "Δ": 247,
      "Κ": 248,
      "Ν": 249,
      "Π": 250,
      "Τ": 251,
      "Φ": 252,
      "Χ": 253,
      "Ω": 254,
      "ά": 255,
      "έ": 256,
      "ή": 257,
      "ί": 258,
      "α": 259,
      "β": 260,
      "γ": 261,
      "δ": 262,
      "ε": 263,
      "η": 264,
      "θ": 265,
      "ι": 266,
      "κ": 267,
      "λ": 268,
      "μ": 269,
      "ν": 270,
      "ξ": 271,
      "ο": 272,
      "π": 273,
      "ρ": 274,
      "ς": 275,
      "σ": 276,
      "τ": 277,
      "υ": 278,
      "χ": 279,
      "ψ": 280,
      "ω": 281,
      "ό": 282,
      "ύ": 283,
      "ώ": 284,
      "А": 285,
      "Б": 286,
      "В": 287,
      "Г": 288,
      "К": 289,
      "П": 290,
      "Р": 291,
      "С": 292,
      "У": 293,
      "Х": 294,
      "Я": 295,
      "а": 296,
      "в": 297,
      "г": 298,
      "д": 299,
      "е": 300,
      "ж": 301,
      "з": 302,
      "и": 303,
      "й": 304,
      "к": 305,
      "л": 306,
      "м": 307,
      "н": 308,
      "о": 309,
      "п": 310,
      "р": 311,
      "с": 312,
      "т": 313,
      "у": 314,
      "х": 315,
      "ц": 316,
      "ш": 317,
      "ъ": 318,
      "ы": 319,
      "ь": 320,
      "ю": 321,
      "я": 322,
      "є": 323,
      "ֵ": 324,
      "ֶ": 325,
      "ָ": 326,
      "ֹ": 327,
      "ּ": 328,
      "א": 329,
      "ב": 330,
      "ג": 331,
      "ה": 332,
      "ו": 333,
      "ז": 334,
      "ח": 335,
      "י": 336,
      "ל": 337,
      "ם": 338,
      "מ": 339,
      "ן": 340,
      "נ": 341,
      "ס": 342,
      "ף": 343,
      "פ": 344,
      "צ": 345,
      "ר": 346,
      "ש": 347,
      "ת": 348,
      "ء": 349,
      "أ": 350,
      "إ": 351,
      "ا": 352,
      "ب": 353,
      "ة": 354,
      "ت": 355,
      "ث": 356,
      "ج": 357,
      "ح": 358,
      "خ": 359,
      "د": 360,
      "ذ": 361,
      "ر": 362,
      "س": 363,
      "ش": 364,
      "ص": 365,
      "ع": 366,
      "ف": 367,
      "ق": 368,
      "ك": 369,
      "ل": 370,
      "م": 371,
      "ن": 372,
      "ه": 373,
      "و": 374,
      "ي": 375,
      "ܐ": 376,
      "ܕ": 377,
      "ܗ": 378,
      "ܝ": 379,
      "ܠ": 380,
      "ܢ": 381,
      "ܬ": 382,
      "ܲ": 383,
      "ܵ": 384,
      "ं": 385,
      "अ": 386,
      "ई": 387,
      "क": 388,
      "ग": 389,
      "ण": 390,
      "त": 391,
      "द": 392,
      "न": 393,
      "प": 394,
      "ब": 395,
      "म": 396,
      "य": 397,
      "र": 398,
      "ल": 399,
      "व": 400,
      "स": 401,
      "ह": 402,
      "ा": 403,
      "ि": 404,
      "ु": 405,
      "ू": 406,
      "े": 407,
      "ै": 408,
      "्": 409,
      "আ": 410,
      "ল": 411,
      "হ": 412,
      "া": 413,
      "্": 414,
      "ਅ": 415,
      "ਲ": 416,
      "ਹ": 417,
      "ਾ": 418,
      "ੁ": 419,
      "ੱ": 420,
      "അ": 421,
      "ള": 422,
      "ഹ": 423,
      "ാ": 424,
      "്": 425,
      "ก": 426,
      "ค": 427,
      "ง": 428,
      "ช": 429,
      "ซ": 430,
      "ญ": 431,
      "ฐ": 432,
      "ณ": 433,
      "ด": 434,
      "ต": 435,
      "น": 436,
      "บ": 437,
      "ป": 438,
      "พ": 439,
      "ภ": 440,
      "ม": 441,
      "ย": 442,
      "ร": 443,
      "ล": 444,
      "ว": 445,
      "ศ": 446,
      "ษ": 447,
      "ส": 448,
      "ห": 449,
      "อ": 450,
      "ฮ": 451,
      "ะ": 452,
      "ั": 453,
      "า": 454,
      "ิ": 455,
      "ี": 456,
      "ึ": 457,
      "เ": 458,
      "แ": 459,
      "ไ": 460,
      "็": 461,
      "่": 462,
      "้": 463,
      "๊": 464,
      "์": 465,
      "Ⴀ": 466,
      "Ⴂ": 467,
      "Ⴃ": 468,
      "Ⴈ": 469,
      "Ⴌ": 470,
      "Ⴕ": 471,
      "Ⴟ": 472,
      "ა": 473,
      "ბ": 474,
      "გ": 475,
      "დ": 476,
      "ე": 477,
      "ვ": 478,
      "ზ": 479,
      "თ": 480,
      "ი": 481,
      "კ": 482,
      "ლ": 483,
      "მ": 484,
      "ნ": 485,
      "ო": 486,
      "პ": 487,
      "ჟ": 488,
      "რ": 489,
      "ს": 490,
      "ტ": 491,
      "უ": 492,
      "ფ": 493,
      "ქ": 494,
      "ღ": 495,
      "ყ": 496,
      "შ": 497,
      "ჩ": 498,
      "ც": 499,
      "ძ": 500,
      "წ": 501,
      "ჭ": 502,
      "ხ": 503,
      "ჯ": 504,
      "ჰ": 505,
      "ჱ": 506,
      "ჲ": 507,
      "ჳ": 508,
      "ჴ": 509,
      "ჵ": 510,
      "ჶ": 511,
      "ჷ": 512,
      "ჸ": 513,
      "ჹ": 514,
      "ჺ": 515,
      "჻": 516,
      "ᵻ": 517,
      "ḍ": 518,
      "ḏ": 519,
      "Ḥ": 520,
      "ḥ": 521,
      "ḷ": 522,
      "ṃ": 523,
      "ṅ": 524,
      "ṇ": 525,
      "ṛ": 526,
      "ṣ": 527,
      "ṭ": 528,
      "ṯ": 529,
      "ạ": 530,
      "ả": 531,
      "ấ": 532,
      "ầ": 533,
      "ậ": 534,
      "ắ": 535,
      "ễ": 536,
      "ệ": 537,
      "ị": 538,
      "ọ": 539,
      "ỏ": 540,
      "ỗ": 541,
      "ộ": 542,
      "ớ": 543,
      "ứ": 544,
      "ử": 545,
      "ữ": 546,
      "ỳ": 547,
      "ỹ": 548,
      "ἀ": 549,
      "ἰ": 550,
      "ὀ": 551,
      "ὁ": 552,
      "ὑ": 553,
      "‐": 554,
      "‑": 555,
      "–": 556,
      "—": 557,
      "―": 558,
      "‘": 559,
      "’": 560,
      "“": 561,
      "”": 562,
      "„": 563,
      "†": 564,
      "‡": 565,
      "•": 566,
      "…": 567,
      "′": 568,
      "″": 569,
      "⁄": 570,
      "₣": 571,
      "₤": 572,
      "€": 573,
      "₹": 574,
      "⅓": 575,
      "⅔": 576,
      "→": 577,
      "−": 578,
      "≡": 579,
      "≤": 580,
      "①": 581,
      "☉": 582,
      "☫": 583,
      "♀": 584,
      "♭": 585,
      "♯": 586,
      "⚳": 587,
      "〈": 588,
      "〉": 589,
      "〜": 590,
      "あ": 591,
      "い": 592,
      "う": 593,
      "お": 594,
      "か": 595,
      "が": 596,
      "き": 597,
      "ぎ": 598,
      "く": 599,
      "ぐ": 600,
      "け": 601,
      "こ": 602,
      "ご": 603,
      "さ": 604,
      "し": 605,
      "す": 606,
      "ず": 607,
      "ぜ": 608,
      "た": 609,
      "だ": 610,
      "ち": 611,
      "っ": 612,
      "つ": 613,
      "と": 614,
      "な": 615,
      "に": 616,
      "の": 617,
      "は": 618,
      "ば": 619,
      "ひ": 620,
      "ふ": 621,
      "ほ": 622,
      "ま": 623,
      "み": 624,
      "め": 625,
      "も": 626,
      "ゃ": 627,
      "ゆ": 628,
      "ょ": 629,
      "ら": 630,
      "り": 631,
      "る": 632,
      "れ": 633,
      "わ": 634,
      "を": 635,
      "ん": 636,
      "ァ": 637,
      "ア": 638,
      "ィ": 639,
      "イ": 640,
      "ゥ": 641,
      "ェ": 642,
      "エ": 643,
      "ォ": 644,
      "オ": 645,
      "カ": 646,
      "ガ": 647,
      "キ": 648,
      "ク": 649,
      "グ": 650,
      "ゲ": 651,
      "コ": 652,
      "サ": 653,
      "シ": 654,
      "ジ": 655,
      "ス": 656,
      "ズ": 657,
      "セ": 658,
      "タ": 659,
      "ダ": 660,
      "チ": 661,
      "ッ": 662,
      "ツ": 663,
      "テ": 664,
      "デ": 665,
      "ト": 666,
      "ド": 667,
      "ナ": 668,
      "ニ": 669,
      "ネ": 670,
      "ノ": 671,
      "ハ": 672,
      "バ": 673,
      "パ": 674,
      "フ": 675,
      "ブ": 676,
      "プ": 677,
      "ヘ": 678,
      "ベ": 679,
      "マ": 680,
      "ミ": 681,
      "ム": 682,
      "モ": 683,
      "ャ": 684,
      "ュ": 685,
      "ョ": 686,
      "ラ": 687,
      "リ": 688,
      "ル": 689,
      "レ": 690,
      "ロ": 691,
      "ン": 692,
      "ヴ": 693,
      "・": 694,
      "ー": 695,
      "一": 696,
      "七": 697,
      "下": 698,
      "世": 699,
      "丙": 700,
      "中": 701,
      "主": 702,
      "乃": 703,
      "之": 704,
      "乙": 705,
      "九": 706,
      "二": 707,
      "云": 708,
      "人": 709,
      "今": 710,
      "付": 711,
      "作": 712,
      "侗": 713,
      "依": 714,
      "信": 715,
      "傳": 716,
      "儚": 717,
      "充": 718,
      "光": 719,
      "全": 720,
      "兵": 721,
      "其": 722,
      "具": 723,
      "円": 724,
      "再": 725,
      "出": 726,
      "判": 727,
      "前": 728,
      "剛": 729,
      "劇": 730,
      "劉": 731,
      "動": 732,
      "化": 733,
      "北": 734,
      "华": 735,
      "厂": 736,
      "去": 737,
      "古": 738,
      "可": 739,
      "台": 740,
      "史": 741,
      "同": 742,
      "名": 743,
      "君": 744,
      "吳": 745,
      "周": 746,
      "命": 747,
      "和": 748,
      "咲": 749,
      "善": 750,
      "四": 751,
      "國": 752,
      "園": 753,
      "圣": 754,
      "在": 755,
      "坂": 756,
      "堤": 757,
      "場": 758,
      "塘": 759,
      "夕": 760,
      "大": 761,
      "天": 762,
      "夫": 763,
      "女": 764,
      "妙": 765,
      "姚": 766,
      "子": 767,
      "孟": 768,
      "守": 769,
      "安": 770,
      "宋": 771,
      "完": 772,
      "宗": 773,
      "宝": 774,
      "宫": 775,
      "寝": 776,
      "寺": 777,
      "小": 778,
      "少": 779,
      "尾": 780,
      "山": 781,
      "岳": 782,
      "川": 783,
      "州": 784,
      "巳": 785,
      "市": 786,
      "師": 787,
      "平": 788,
      "广": 789,
      "庆": 790,
      "府": 791,
      "座": 792,
      "廬": 793,
      "建": 794,
      "式": 795,
      "張": 796,
      "彌": 797,
      "彩": 798,
      "彼": 799,
      "後": 800,
      "御": 801,
      "德": 802,
      "思": 803,
      "愛": 804,
      "憑": 805,
      "憶": 806,
      "應": 807,
      "懷": 808,
      "战": 809,
      "戦": 810,
      "扈": 811,
      "技": 812,
      "拉": 813,
      "拳": 814,
      "挑": 815,
      "揺": 816,
      "攻": 817,
      "放": 818,
      "政": 819,
      "散": 820,
      "斯": 821,
      "方": 822,
      "日": 823,
      "旦": 824,
      "旭": 825,
      "昌": 826,
      "明": 827,
      "星": 828,
      "春": 829,
      "晋": 830,
      "景": 831,
      "曦": 832,
      "月": 833,
      "望": 834,
      "未": 835,
      "本": 836,
      "李": 837,
      "村": 838,
      "杜": 839,
      "束": 840,
      "来": 841,
      "林": 842,
      "桜": 843,
      "梶": 844,
      "棘": 845,
      "椎": 846,
      "楊": 847,
      "楚": 848,
      "榮": 849,
      "橘": 850,
      "機": 851,
      "正": 852,
      "殻": 853,
      "殿": 854,
      "母": 855,
      "水": 856,
      "汉": 857,
      "沂": 858,
      "沙": 859,
      "河": 860,
      "泗": 861,
      "波": 862,
      "泣": 863,
      "洪": 864,
      "淹": 865,
      "清": 866,
      "湯": 867,
      "漢": 868,
      "澄": 869,
      "澤": 870,
      "火": 871,
      "灯": 872,
      "灵": 873,
      "灼": 874,
      "焼": 875,
      "熱": 876,
      "物": 877,
      "狐": 878,
      "狸": 879,
      "玄": 880,
      "王": 881,
      "玩": 882,
      "珂": 883,
      "珙": 884,
      "球": 885,
      "理": 886,
      "琦": 887,
      "琪": 888,
      "瓊": 889,
      "生": 890,
      "田": 891,
      "畢": 892,
      "番": 893,
      "瘡": 894,
      "白": 895,
      "皮": 896,
      "真": 897,
      "砲": 898,
      "礮": 899,
      "祈": 900,
      "神": 901,
      "祠": 902,
      "秋": 903,
      "空": 904,
      "立": 905,
      "精": 906,
      "約": 907,
      "絵": 908,
      "織": 909,
      "義": 910,
      "翠": 911,
      "者": 912,
      "耕": 913,
      "肖": 914,
      "胡": 915,
      "膀": 916,
      "臂": 917,
      "興": 918,
      "良": 919,
      "花": 920,
      "芳": 921,
      "芽": 922,
      "若": 923,
      "英": 924,
      "藕": 925,
      "藥": 926,
      "蘄": 927,
      "蘇": 928,
      "行": 929,
      "裁": 930,
      "規": 931,
      "覺": 932,
      "观": 933,
      "解": 934,
      "記": 935,
      "誓": 936,
      "誡": 937,
      "誰": 938,
      "謎": 939,
      "许": 940,
      "谭": 941,
      "豪": 942,
      "豫": 943,
      "費": 944,
      "贵": 945,
      "赤": 946,
      "趙": 947,
      "足": 948,
      "跡": 949,
      "転": 950,
      "辛": 951,
      "逆": 952,
      "遇": 953,
      "運": 954,
      "過": 955,
      "遠": 956,
      "選": 957,
      "邦": 958,
      "邱": 959,
      "部": 960,
      "郭": 961,
      "都": 962,
      "酈": 963,
      "里": 964,
      "野": 965,
      "金": 966,
      "銃": 967,
      "鋼": 968,
      "錄": 969,
      "錡": 970,
      "鍵": 971,
      "鐵": 972,
      "钱": 973,
      "铁": 974,
      "關": 975,
      "防": 976,
      "阿": 977,
      "陈": 978,
      "陳": 979,
      "陽": 980,
      "隊": 981,
      "階": 982,
      "集": 983,
      "雪": 984,
      "雲": 985,
      "霖": 986,
      "霹": 987,
      "靂": 988,
      "韓": 989,
      "願": 990,
      "顯": 991,
      "颜": 992,
      "马": 993,
      "高": 994,
      "龍": 995,
      "대": 996,
      "독": 997,
      "라": 998,
      "립": 999,
      "병": 1000,
      "보": 1001,
      "부": 1002,
      "알": 1003,
      "연": 1004,
      "제": 1005,
      "ﷲ": 1006,
      "ﻋ": 1007,
      "／": 1008,
      "３": 1009,
      "～": 1010,
      "##a": 1011,
      "##r": 1012,
      "##d": 1013,
      "##i": 1014,
      "##g": 1015,
      "##m": 1016,
      "##e": 1017,
      "##c": 1018,
      "##h": 1019,
      "##s": 1020,
      "##o": 1021,
      "##l": 1022,
      "##u": 1023,
      "##t": 1024,
      "##n": 1025,
      "##T": 1026,
      "##E": 1027,
      "##P": 1028,
      "##k": 1029,
      "##y": 1030,
      "##v": 1031,
      "##b": 1032,
      "##p": 1033,
      "##f": 1034,
      "##7": 1035,
      "##w": 1036,
      "##x": 1037,
      "##ā": 1038,
      "##H": 1039,
      "##â": 1040,
      "##z": 1041,
      "##R": 1042,
      "##S": 1043,
      "##C": 1044,
      "##8": 1045,
      "##2": 1046,
      "##4": 1047,
      "##9": 1048,
      "##O": 1049,
      "##A": 1050,
      "##j": 1051,
      "##3": 1052,
      "##5": 1053,
      "##M": 1054,
      "##U": 1055,
      "##ˈ": 1056,
      "##ɪ": 1057,
      "##F": 1058,
      "##V": 1059,
      "##N": 1060,
      "##ʻ": 1061,
      "##ჲ": 1062,
      "##1": 1063,
      "##0": 1064,
      "##é": 1065,
      "##B": 1066,
      "##D": 1067,
      "##ォ": 1068,
      "##ル": 1069,
      "##テ": 1070,
      "##q": 1071,
      "##ä": 1072,
      "##W": 1073,
      "##G": 1074,
      "##è": 1075,
      "##6": 1076,
      "##L": 1077,
      "##ō": 1078,
      "##I": 1079,
      "##ø": 1080,
      "##ạ": 1081,
      "##X": 1082,
      "##ল": 1083,
      "##á": 1084,
      "##š": 1085,
      "##Y": 1086,
      "##K": 1087,
      "##J": 1088,
      "##ộ": 1089,
      "##ł": 1090,
      "##í": 1091,
      "##έ": 1092,
      "##ν": 1093,
      "##ο": 1094,
      "##ς": 1095,
      "##ù": 1096,
      "##ა": 1097,
      "##ψ": 1098,
      "##ι": 1099,
      "##ă": 1100,
      "##ş": 1101,
      "##č": 1102,
      "##Q": 1103,
      "##ć": 1104,
      "##ṯ": 1105,
      "##ô": 1106,
      "##ū": 1107,
      "##ú": 1108,
      "##ï": 1109,
      "##უ": 1110,
      "##ც": 1111,
      "##ე": 1112,
      "##ს": 1113,
      "##ი": 1114,
      "##ñ": 1115,
      "##ਲ": 1116,
      "##ਹ": 1117,
      "##ੁ": 1118,
      "##し": 1119,
      "##τ": 1120,
      "##ί": 1121,
      "##μ": 1122,
      "##ό": 1123,
      "##ά": 1124,
      "##δ": 1125,
      "##ą": 1126,
      "##ó": 1127,
      "##ל": 1128,
      "##ה": 1129,
      "##ã": 1130,
      "##ö": 1131,
      "##å": 1132,
      "##ト": 1133,
      "##ゥ": 1134,
      "##ナ": 1135,
      "##œ": 1136,
      "##ल": 1137,
      "##ा": 1138,
      "##ई": 1139,
      "##ṇ": 1140,
      "##ɔ": 1141,
      "##γ": 1142,
      "##ρ": 1143,
      "##ن": 1144,
      "##ơ": 1145,
      "##の": 1146,
      "##た": 1147,
      "##ま": 1148,
      "##ü": 1149,
      "##セ": 1150,
      "##リ": 1151,
      "##オ": 1152,
      "##ス": 1153,
      "##ệ": 1154,
      "##ţ": 1155,
      "##Z": 1156,
      "##ș": 1157,
      "##ị": 1158,
      "##ž": 1159,
      "##ل": 1160,
      "##أ": 1161,
      "##ب": 1162,
      "##ḏ": 1163,
      "##ू": 1164,
      "##र": 1165,
      "##ī": 1166,
      "##ʁ": 1167,
      "##đ": 1168,
      "##ṅ": 1169,
      "##ì": 1170,
      "##ē": 1171,
      "##ỗ": 1172,
      "##ɫ": 1173,
      "##ȯ": 1174,
      "##ə": 1175,
      "##ו": 1176,
      "##ּ": 1177,
      "##ิ": 1178,
      "##ภ": 1179,
      "##า": 1180,
      "##ด": 1181,
      "##ع": 1182,
      "##ة": 1183,
      "##à": 1184,
      "##æ": 1185,
      "##ë": 1186,
      "##ʒ": 1187,
      "##ê": 1188,
      "##α": 1189,
      "##ː": 1190,
      "##о": 1191,
      "##в": 1192,
      "##е": 1193,
      "##т": 1194,
      "##с": 1195,
      "##к": 1196,
      "##а": 1197,
      "##я": 1198,
      "##ś": 1199,
      "##א": 1200,
      "##つ": 1201,
      "##を": 1202,
      "##ɑ": 1203,
      "##ੱ": 1204,
      "##ਾ": 1205,
      "##め": 1206,
      "##ğ": 1207,
      "##う": 1208,
      "##き": 1209,
      "##ı": 1210,
      "##ึ": 1211,
      "##س": 1212,
      "##ت": 1213,
      "##ا": 1214,
      "##ั": 1215,
      "##ล": 1216,
      "##อ": 1217,
      "##ฮ": 1218,
      "##ɒ": 1219,
      "##り": 1220,
      "##ė": 1221,
      "##р": 1222,
      "##н": 1223,
      "##ы": 1224,
      "##й": 1225,
      "##ἰ": 1226,
      "##β": 1227,
      "##д": 1228,
      "##ъ": 1229,
      "##ж": 1230,
      "##л": 1231,
      "##ɛ": 1232,
      "##か": 1233,
      "##な": 1234,
      "##わ": 1235,
      "##い": 1236,
      "##υ": 1237,
      "##є": 1238,
      "##λ": 1239,
      "##ỳ": 1240,
      "##ử": 1241,
      "##ç": 1242,
      "##פ": 1243,
      "##ヴ": 1244,
      "##ァ": 1245,
      "##キ": 1246,
      "##ュ": 1247,
      "##ア": 1248,
      "##м": 1249,
      "##ʃ": 1250,
      "##व": 1251,
      "##द": 1252,
      "##Ē": 1253,
      "##χ": 1254,
      "##º": 1255,
      "##ß": 1256,
      "##ầ": 1257,
      "##û": 1258,
      "##ń": 1259,
      "##ʔ": 1260,
      "##რ": 1261,
      "##ტ": 1262,
      "##イ": 1263,
      "##ț": 1264,
      "##ɾ": 1265,
      "##ʲ": 1266,
      "##î": 1267,
      "##ク": 1268,
      "##サ": 1269,
      "##ܕ": 1270,
      "##ܝ": 1271,
      "##ܢ": 1272,
      "##ܬ": 1273,
      "##ق": 1274,
      "##د": 1275,
      "##ḷ": 1276,
      "##ロ": 1277,
      "##부": 1278,
      "##대": 1279,
      "##ण": 1280,
      "##ि": 1281,
      "##ं": 1282,
      "##ग": 1283,
      "##ო": 1284,
      "##მ": 1285,
      "##ლ": 1286,
      "##ラ": 1287,
      "##ッ": 1288,
      "##シ": 1289,
      "##ニ": 1290,
      "##レ": 1291,
      "##チ": 1292,
      "##ð": 1293,
      "##エ": 1294,
      "##タ": 1295,
      "##デ": 1296,
      "##ỏ": 1297,
      "##ャ": 1298,
      "##モ": 1299,
      "##ン": 1300,
      "##ε": 1301,
      "##ξ": 1302,
      "##י": 1303,
      "##ס": 1304,
      "##ネ": 1305,
      "##ョ": 1306,
      "##ֹ": 1307,
      "##ף": 1308,
      "##ǎ": 1309,
      "##ṣ": 1310,
      "##ാ": 1311,
      "##ഹ": 1312,
      "##พ": 1313,
      "##ɡ": 1314,
      "##ᵻ": 1315,
      "##ư": 1316,
      "##ớ": 1317,
      "##ָ": 1318,
      "##ֶ": 1319,
      "##ḥ": 1320,
      "##ʿ": 1321,
      "##ן": 1322,
      "##и": 1323,
      "##თ": 1324,
      "##ვ": 1325,
      "##ث": 1326,
      "##م": 1327,
      "##ف": 1328,
      "##ر": 1329,
      "##เ": 1330,
      "##ป": 1331,
      "##ย": 1332,
      "##ー": 1333,
      "##ذ": 1334,
      "##ي": 1335,
      "##ɜ": 1336,
      "##ズ": 1337,
      "##ブ": 1338,
      "##ò": 1339,
      "##у": 1340,
      "##π": 1341,
      "##ィ": 1342,
      "##グ": 1343,
      "##ダ": 1344,
      "##ム": 1345,
      "##ェ": 1346,
      "##ǔ": 1347,
      "##ه": 1348,
      "##ك": 1349,
      "##ツ": 1350,
      "##ứ": 1351,
      "##ド": 1352,
      "##フ": 1353,
      "##ź": 1354,
      "##ガ": 1355,
      "##ჱ": 1356,
      "##ら": 1357,
      "##θ": 1358,
      "##ш": 1359,
      "##ц": 1360,
      "##ь": 1361,
      "##ば": 1362,
      "##く": 1363,
      "##ん": 1364,
      "##წ": 1365,
      "##ფ": 1366,
      "##も": 1367,
      "##こ": 1368,
      "##と": 1369,
      "##É": 1370,
      "##κ": 1371,
      "##ų": 1372,
      "##з": 1373,
      "##ค": 1374,
      "##ร": 1375,
      "##ว": 1376,
      "##ต": 1377,
      "##ũ": 1378,
      "##れ": 1379,
      "##る": 1380,
      "##ะ": 1381,
      "##ช": 1382,
      "##น": 1383,
      "##ý": 1384,
      "##ณ": 1385,
      "##ม": 1386,
      "##ю": 1387,
      "##ů": 1388,
      "##ก": 1389,
      "##ษ": 1390,
      "##ฐ": 1391,
      "##ぐ": 1392,
      "##ء": 1393,
      "##라": 1394,
      "##ב": 1395,
      "##ת": 1396,
      "##ש": 1397,
      "##מ": 1398,
      "##צ": 1399,
      "##３": 1400,
      "##ゆ": 1401,
      "##ή": 1402,
      "##ấ": 1403,
      "##ר": 1404,
      "##ם": 1405,
      "##ხ": 1406,
      "##ჳ": 1407,
      "##ṭ": 1408,
      "##プ": 1409,
      "##п": 1410,
      "##г": 1411,
      "##ữ": 1412,
      "##न": 1413,
      "##े": 1414,
      "##क": 1415,
      "##ʊ": 1416,
      "##ˌ": 1417,
      "##バ": 1418,
      "##ṃ": 1419,
      "##ნ": 1420,
      "##η": 1421,
      "##っ": 1422,
      "##ỹ": 1423,
      "##დ": 1424,
      "##ḍ": 1425,
      "##お": 1426,
      "##ắ": 1427,
      "##გ": 1428,
      "##ż": 1429,
      "##ω": 1430,
      "##あ": 1431,
      "##х": 1432,
      "##ώ": 1433,
      "##ọ": 1434,
      "##Ĕ": 1435,
      "##ี": 1436,
      "##ノ": 1437,
      "##ֵ": 1438,
      "##ご": 1439,
      "##ょ": 1440,
      "##に": 1441,
      "##ậ": 1442,
      "##ള": 1443,
      "##ص": 1444,
      "##ɐ": 1445,
      "##독": 1446,
      "##립": 1447,
      "##보": 1448,
      "##병": 1449,
      "##연": 1450,
      "##แ": 1451,
      "##ܲ": 1452,
      "##ܠ": 1453,
      "##ܵ": 1454,
      "##ܗ": 1455,
      "##ܐ": 1456,
      "##み": 1457,
      "##が": 1458,
      "##ĕ": 1459,
      "##ش": 1460,
      "##و": 1461,
      "##ह": 1462,
      "##σ": 1463,
      "##ύ": 1464,
      "##خ": 1465,
      "##ɳ": 1466,
      "##す": 1467,
      "##ひ": 1468,
      "##ミ": 1469,
      "##ễ": 1470,
      "##ę": 1471,
      "##ぜ": 1472,
      "##ح": 1473,
      "##נ": 1474,
      "##Ä": 1475,
      "##ै": 1476,
      "##ซ": 1477,
      "##ず": 1478,
      "##マ": 1479,
      "##ả": 1480,
      "##ṛ": 1481,
      "##ɽ": 1482,
      "##ქ": 1483,
      "##া": 1484,
      "##হ": 1485,
      "##स": 1486,
      "##ु": 1487,
      "##ち": 1488,
      "##ゃ": 1489,
      "##إ": 1490,
      "##ř": 1491,
      "##ง": 1492,
      "##ไ": 1493,
      "##he": 1494,
      "the": 1495,
      "##er": 1496,
      "##in": 1497,
      "##ed": 1498,
      "##on": 1499,
      "##nd": 1500,
      "##at": 1501,
      "##or": 1502,
      "##es": 1503,
      "##ar": 1504,
      "##en": 1505,
      "of": 1506,
      "##an": 1507,
      "in": 1508,
      "##al": 1509,
      "##it": 1510,
      "##ing": 1511,
      "##is": 1512,
      "##as": 1513,
      "and": 1514,
      "to": 1515,
      "##ic": 1516,
      "##ou": 1517,
      "##re": 1518,
      "##ion": 1519,
      "##om": 1520,
      "##el": 1521,
      "##il": 1522,
      "th": 1523,
      "##ent": 1524,
      "##ec": 1525,
      "##st": 1526,
      "##am": 1527,
      "##ur": 1528,
      "##et": 1529,
      "##ad": 1530,
      "##ol": 1531,
      "##ac": 1532,
      "was": 1533,
      "##ro": 1534,
      "The": 1535,
      "on": 1536,
      "##ly": 1537,
      "##ir": 1538,
      "##le": 1539,
      "for": 1540,
      "##iv": 1541,
      "##id": 1542,
      "##ter": 1543,
      "##ot": 1544,
      "##ig": 1545,
      "as": 1546,
      "##ow": 1547,
      "##ith": 1548,
      "st": 1549,
      "##ay": 1550,
      "##em": 1551,
      "##im": 1552,
      "##ut": 1553,
      "be": 1554,
      "that": 1555,
      "with": 1556,
      "##ation": 1557,
      "##th": 1558,
      "is": 1559,
      "##ers": 1560,
      "##us": 1561,
      "##ts": 1562,
      "wh": 1563,
      "re": 1564,
      "by": 1565,
      "al": 1566,
      "##ul": 1567,
      "##ch": 1568,
      "con": 1569,
      "##ce": 1570,
      "##ver": 1571,
      "##and": 1572,
      "##os": 1573,
      "at": 1574,
      "##ain": 1575,
      "fr": 1576,
      "19": 1577,
      "##ag": 1578,
      "an": 1579,
      "##her": 1580,
      "##av": 1581,
      "##um": 1582,
      "##est": 1583,
      "##od": 1584,
      "his": 1585,
      "from": 1586,
      "##op": 1587,
      "##ess": 1588,
      "com": 1589,
      "##ri": 1590,
      "##ct": 1591,
      "##un": 1592,
      "he": 1593,
      "##ap": 1594,
      "20": 1595,
      "pro": 1596,
      "##ies": 1597,
      "##ere": 1598,
      "su": 1599,
      "de": 1600,
      "##ear": 1601,
      "##ist": 1602,
      "##ill": 1603,
      "In": 1604,
      "##if": 1605,
      "##ew": 1606,
      "were": 1607,
      "##ong": 1608,
      "##ak": 1609,
      "##ld": 1610,
      "##ort": 1611,
      "##ab": 1612,
      "##all": 1613,
      "##igh": 1614,
      "##ate": 1615,
      "##ard": 1616,
      "##ect": 1617,
      "it": 1618,
      "##ich": 1619,
      "##oc": 1620,
      "se": 1621,
      "or": 1622,
      "ch": 1623,
      "##pp": 1624,
      "##ud": 1625,
      "##ber": 1626,
      "ex": 1627,
      "##gh": 1628,
      "##ated": 1629,
      "##ity": 1630,
      "pl": 1631,
      "##art": 1632,
      "##se": 1633,
      "##ame": 1634,
      "##ive": 1635,
      "are": 1636,
      "sh": 1637,
      "##ant": 1638,
      "##ore": 1639,
      "had": 1640,
      "##ack": 1641,
      "##rou": 1642,
      "which": 1643,
      "##ov": 1644,
      "##our": 1645,
      "sp": 1646,
      "##ian": 1647,
      "##nt": 1648,
      "St": 1649,
      "pr": 1650,
      "##ast": 1651,
      "not": 1652,
      "##ell": 1653,
      "tr": 1654,
      "##ip": 1655,
      "##ally": 1656,
      "##ord": 1657,
      "##ine": 1658,
      "##ge": 1659,
      "##ment": 1660,
      "##ost": 1661,
      "##rit": 1662,
      "##ther": 1663,
      "##ave": 1664,
      "##ish": 1665,
      "##ia": 1666,
      "##ue": 1667,
      "##pt": 1668,
      "Ch": 1669,
      "rec": 1670,
      "##ary": 1671,
      "##ust": 1672,
      "le": 1673,
      "200": 1674,
      "fir": 1675,
      "##ous": 1676,
      "##ight": 1677,
      "inc": 1678,
      "##pl": 1679,
      "##cc": 1680,
      "##og": 1681,
      "##out": 1682,
      "their": 1683,
      "but": 1684,
      "int": 1685,
      "cont": 1686,
      "##ie": 1687,
      "ar": 1688,
      "##ions": 1689,
      "##ra": 1690,
      "##so": 1691,
      "##fter": 1692,
      "first": 1693,
      "##qu": 1694,
      "##ould": 1695,
      "##ial": 1696,
      "its": 1697,
      "##ure": 1698,
      "whe": 1699,
      "##hed": 1700,
      "##oll": 1701,
      "her": 1702,
      "##wo": 1703,
      "##ub": 1704,
      "##ical": 1705,
      "also": 1706,
      "##ok": 1707,
      "cl": 1708,
      "##ff": 1709,
      "##own": 1710,
      "##per": 1711,
      "##ide": 1712,
      "##ome": 1713,
      "##ater": 1714,
      "ab": 1715,
      "ad": 1716,
      "##ass": 1717,
      "##ru": 1718,
      "res": 1719,
      "##ire": 1720,
      "##ork": 1721,
      "rel": 1722,
      "##orm": 1723,
      "##00": 1724,
      "##ign": 1725,
      "##age": 1726,
      "have": 1727,
      "un": 1728,
      "one": 1729,
      "en": 1730,
      "He": 1731,
      "##ence": 1732,
      "has": 1733,
      "##mer": 1734,
      "##ond": 1735,
      "##ough": 1736,
      "##ry": 1737,
      "Th": 1738,
      "been": 1739,
      "##ime": 1740,
      "two": 1741,
      "##ans": 1742,
      "per": 1743,
      "18": 1744,
      "##ree": 1745,
      "##ound": 1746,
      "##uring": 1747,
      "##ile": 1748,
      "sc": 1749,
      "##land": 1750,
      "Al": 1751,
      "##ely": 1752,
      "comp": 1753,
      "##end": 1754,
      "##uc": 1755,
      "this": 1756,
      "dis": 1757,
      "bec": 1758,
      "app": 1759,
      "all": 1760,
      "##iz": 1761,
      "##ition": 1762,
      "##ance": 1763,
      "##ang": 1764,
      "##ey": 1765,
      "##ach": 1766,
      "##ade": 1767,
      "who": 1768,
      "##lud": 1769,
      "play": 1770,
      "##ations": 1771,
      "they": 1772,
      "ag": 1773,
      "year": 1774,
      "des": 1775,
      "##ory": 1776,
      "man": 1777,
      "201": 1778,
      "##ric": 1779,
      "It": 1780,
      "other": 1781,
      "##pr": 1782,
      "after": 1783,
      "ser": 1784,
      "##ib": 1785,
      "over": 1786,
      "##act": 1787,
      "##ite": 1788,
      "off": 1789,
      "##ount": 1790,
      "im": 1791,
      "part": 1792,
      "##ult": 1793,
      "includ": 1794,
      "##ik": 1795,
      "att": 1796,
      "##urn": 1797,
      "us": 1798,
      "##ark": 1799,
      "out": 1800,
      "##wn": 1801,
      "##over": 1802,
      "##ember": 1803,
      "##ace": 1804,
      "##ng": 1805,
      "##ens": 1806,
      "##ice": 1807,
      "##ents": 1808,
      "pre": 1809,
      "up": 1810,
      "##eas": 1811,
      "time": 1812,
      "##ind": 1813,
      "ev": 1814,
      "into": 1815,
      "##nder": 1816,
      "##we": 1817,
      "##ose": 1818,
      "##ail": 1819,
      "##oy": 1820,
      "she": 1821,
      "comm": 1822,
      "would": 1823,
      "##ied": 1824,
      "##oin": 1825,
      "more": 1826,
      "##amp": 1827,
      "On": 1828,
      "##te": 1829,
      "##rough": 1830,
      "##ward": 1831,
      "##man": 1832,
      "##able": 1833,
      "we": 1834,
      "##ever": 1835,
      "##tern": 1836,
      "him": 1837,
      "##ited": 1838,
      "##ings": 1839,
      "##ason": 1840,
      "##rib": 1841,
      "##ors": 1842,
      "cent": 1843,
      "##ood": 1844,
      "Un": 1845,
      "##les": 1846,
      "##ild": 1847,
      "##ix": 1848,
      "##ock": 1849,
      "##ates": 1850,
      "work": 1851,
      "##ious": 1852,
      "##one": 1853,
      "##inal": 1854,
      "##old": 1855,
      "##ces": 1856,
      "##iss": 1857,
      "##port": 1858,
      "##ev": 1859,
      "##ake": 1860,
      "##ath": 1861,
      "##ction": 1862,
      "them": 1863,
      "sec": 1864,
      "##ss": 1865,
      "bet": 1866,
      "when": 1867,
      "rem": 1868,
      "Fr": 1869,
      "song": 1870,
      "##ick": 1871,
      "fe": 1872,
      "##ted": 1873,
      "ear": 1874,
      "##aw": 1875,
      "##fer": 1876,
      "Ar": 1877,
      "##ual": 1878,
      "kn": 1879,
      "##ep": 1880,
      "##gan": 1881,
      "cons": 1882,
      "##round": 1883,
      "##aus": 1884,
      "most": 1885,
      "##ubl": 1886,
      "##form": 1887,
      "fl": 1888,
      "during": 1889,
      "new": 1890,
      "##orth": 1891,
      "only": 1892,
      "dec": 1893,
      "game": 1894,
      "##ons": 1895,
      "##ilm": 1896,
      "##ved": 1897,
      "##ug": 1898,
      "##ook": 1899,
      "##ters": 1900,
      "##oth": 1901,
      "##eld": 1902,
      "##ollow": 1903,
      "##att": 1904,
      "Mar": 1905,
      "can": 1906,
      "##reat": 1907,
      "##ween": 1908,
      "##way": 1909,
      "##ob": 1910,
      "##outh": 1911,
      "##are": 1912,
      "##vel": 1913,
      "about": 1914,
      "te": 1915,
      "char": 1916,
      "again": 1917,
      "199": 1918,
      "three": 1919,
      "under": 1920,
      "than": 1921,
      "##ral": 1922,
      "season": 1923,
      "##ational": 1924,
      "##ular": 1925,
      "##ft": 1926,
      "between": 1927,
      "##ict": 1928,
      "##ered": 1929,
      "##hn": 1930,
      "##hip": 1931,
      "##eg": 1932,
      "record": 1933,
      "through": 1934,
      "##iew": 1935,
      "##ision": 1936,
      "##fore": 1937,
      "Com": 1938,
      "num": 1939,
      "later": 1940,
      "##orn": 1941,
      "end": 1942,
      "pos": 1943,
      "while": 1944,
      "prod": 1945,
      "writ": 1946,
      "##ames": 1947,
      "film": 1948,
      "##ished": 1949,
      "reg": 1950,
      "form": 1951,
      "ass": 1952,
      "##als": 1953,
      "made": 1954,
      "sub": 1955,
      "##ury": 1956,
      "ac": 1957,
      "ret": 1958,
      "where": 1959,
      "acc": 1960,
      "ind": 1961,
      "##olog": 1962,
      "pe": 1963,
      "act": 1964,
      "New": 1965,
      "spec": 1966,
      "mov": 1967,
      "##ener": 1968,
      "##ank": 1969,
      "##ating": 1970,
      "##meric": 1971,
      "##orld": 1972,
      "inter": 1973,
      "some": 1974,
      "Americ": 1975,
      "lar": 1976,
      "##ph": 1977,
      "bas": 1978,
      "def": 1979,
      "##ole": 1980,
      "##bum": 1981,
      "##aid": 1982,
      "releas": 1983,
      "follow": 1984,
      "gr": 1985,
      "bu": 1986,
      "##ived": 1987,
      "mus": 1988,
      "am": 1989,
      "such": 1990,
      "##ont": 1991,
      "##ced": 1992,
      "##ann": 1993,
      "second": 1994,
      "so": 1995,
      "four": 1996,
      "##ike": 1997,
      "At": 1998,
      "used": 1999,
      "##ery": 2000,
      "day": 2001,
      "This": 2002,
      "##hes": 2003,
      "An": 2004,
      "rev": 2005,
      "##ific": 2006,
      "000": 2007,
      "##red": 2008,
      "As": 2009,
      "publ": 2010,
      "call": 2011,
      "##ily": 2012,
      "##hen": 2013,
      "album": 2014,
      "##ex": 2015,
      "Sh": 2016,
      "##any": 2017,
      "before": 2018,
      "me": 2019,
      "do": 2020,
      "being": 2021,
      "##res": 2022,
      "10": 2023,
      "Eng": 2024,
      "##oun": 2025,
      "there": 2026,
      "##ected": 2027,
      "ep": 2028,
      "sy": 2029,
      "supp": 2030,
      "Jo": 2031,
      "##ane": 2032,
      "##ics": 2033,
      "##owever": 2034,
      "mon": 2035,
      "bl": 2036,
      "Br": 2037,
      "found": 2038,
      "no": 2039,
      "high": 2040,
      "set": 2041,
      "years": 2042,
      "co": 2043,
      "##ird": 2044,
      "##ars": 2045,
      "##other": 2046,
      "Se": 2047,
      "##ained": 2048,
      "##ines": 2049,
      "sur": 2050,
      "##ised": 2051,
      "12": 2052,
      "##ek": 2053,
      "series": 2054,
      "number": 2055,
      "##pen": 2056,
      "##aj": 2057,
      "loc": 2058,
      "##io": 2059,
      "##ins": 2060,
      "##ities": 2061,
      "##air": 2062,
      "##ause": 2063,
      "##iver": 2064,
      "##ten": 2065,
      "##ode": 2066,
      "pres": 2067,
      "##rop": 2068,
      "##eb": 2069,
      "sever": 2070,
      "both": 2071,
      "##ier": 2072,
      "##ince": 2073,
      "Sc": 2074,
      "appear": 2075,
      "Car": 2076,
      "##ress": 2077,
      "##ool": 2078,
      "then": 2079,
      "##ower": 2080,
      "16": 2081,
      "##row": 2082,
      "epis": 2083,
      "##ement": 2084,
      "including": 2085,
      "##ron": 2086,
      "##irect": 2087,
      "cap": 2088,
      "well": 2089,
      "##ather": 2090,
      "##ife": 2091,
      "qu": 2092,
      "became": 2093,
      "against": 2094,
      "Brit": 2095,
      "##iet": 2096,
      "##ale": 2097,
      "##ise": 2098,
      "known": 2099,
      "Le": 2100,
      "contr": 2101,
      "add": 2102,
      "##ection": 2103,
      "go": 2104,
      "trans": 2105,
      "charac": 2106,
      "back": 2107,
      "sing": 2108,
      "el": 2109,
      "inv": 2110,
      "em": 2111,
      "##son": 2112,
      "##its": 2113,
      "pop": 2114,
      "##ield": 2115,
      "##ert": 2116,
      "str": 2117,
      "##urch": 2118,
      "##ures": 2119,
      "many": 2120,
      "##ful": 2121,
      "198": 2122,
      "main": 2123,
      "##ern": 2124,
      "desc": 2125,
      "long": 2126,
      "##yl": 2127,
      "##though": 2128,
      "min": 2129,
      "15": 2130,
      "##inn": 2131,
      "stud": 2132,
      "perform": 2133,
      "##up": 2134,
      "##led": 2135,
      "11": 2136,
      "United": 2137,
      "John": 2138,
      "##erm": 2139,
      "orig": 2140,
      "##velop": 2141,
      "met": 2142,
      "rece": 2143,
      "est": 2144,
      "17": 2145,
      "pol": 2146,
      "##ober": 2147,
      "team": 2148,
      "##oot": 2149,
      "##uch": 2150,
      "##ton": 2151,
      "century": 2152,
      "##els": 2153,
      "show": 2154,
      "##ve": 2155,
      "She": 2156,
      "conc": 2157,
      "br": 2158,
      "##elf": 2159,
      "par": 2160,
      "##oad": 2161,
      "##ative": 2162,
      "develop": 2163,
      "##0s": 2164,
      "sm": 2165,
      "##iam": 2166,
      "##az": 2167,
      "After": 2168,
      "##ivers": 2169,
      "194": 2170,
      "lead": 2171,
      "several": 2172,
      "##fl": 2173,
      "##overn": 2174,
      "ob": 2175,
      "##ope": 2176,
      "mill": 2177,
      "##ram": 2178,
      "##ually": 2179,
      "##ley": 2180,
      "began": 2181,
      "dif": 2182,
      "near": 2183,
      "##ah": 2184,
      "contin": 2185,
      "##ized": 2186,
      "sign": 2187,
      "##anc": 2188,
      "ext": 2189,
      "direct": 2190,
      "compl": 2191,
      "air": 2192,
      "##ains": 2193,
      "may": 2194,
      "##ross": 2195,
      "196": 2196,
      "##emb": 2197,
      "##ll": 2198,
      "197": 2199,
      "Wh": 2200,
      "Ind": 2201,
      "##yp": 2202,
      "could": 2203,
      "##ued": 2204,
      "##ase": 2205,
      "art": 2206,
      "did": 2207,
      "##sp": 2208,
      "crit": 2209,
      "bel": 2210,
      "called": 2211,
      "cre": 2212,
      "episode": 2213,
      "##une": 2214,
      "early": 2215,
      "##au": 2216,
      "describ": 2217,
      "bro": 2218,
      "##roup": 2219,
      "##rap": 2220,
      "##imes": 2221,
      "##ntil": 2222,
      "run": 2223,
      "##ople": 2224,
      "##aking": 2225,
      "along": 2226,
      "disc": 2227,
      "##ull": 2228,
      "Is": 2229,
      "car": 2230,
      "##ccess": 2231,
      "said": 2232,
      "May": 2233,
      "inst": 2234,
      "American": 2235,
      "feat": 2236,
      "##ments": 2237,
      "##ink": 2238,
      "these": 2239,
      "mil": 2240,
      "dist": 2241,
      "po": 2242,
      "##itt": 2243,
      "##ium": 2244,
      "Bl": 2245,
      "you": 2246,
      "##der": 2247,
      "##enn": 2248,
      "##amed": 2249,
      "##ured": 2250,
      "though": 2251,
      "Aust": 2252,
      "ship": 2253,
      "down": 2254,
      "until": 2255,
      "prev": 2256,
      "##ets": 2257,
      "oper": 2258,
      "resp": 2259,
      "fin": 2260,
      "hist": 2261,
      "##ange": 2262,
      "##ove": 2263,
      "city": 2264,
      "prov": 2265,
      "British": 2266,
      "col": 2267,
      "gener": 2268,
      "same": 2269,
      "##ially": 2270,
      "##ists": 2271,
      "released": 2272,
      "land": 2273,
      "own": 2274,
      "any": 2275,
      "##ided": 2276,
      "##ruct": 2277,
      "##eng": 2278,
      "war": 2279,
      "cond": 2280,
      "They": 2281,
      "return": 2282,
      "km": 2283,
      "##oman": 2284,
      "sl": 2285,
      "produc": 2286,
      "##ty": 2287,
      "music": 2288,
      "##por": 2289,
      "##osed": 2290,
      "million": 2291,
      "mat": 2292,
      "sim": 2293,
      "because": 2294,
      "design": 2295,
      "##ible": 2296,
      "area": 2297,
      "dep": 2298,
      "13": 2299,
      "Ger": 2300,
      "For": 2301,
      "final": 2302,
      "use": 2303,
      "const": 2304,
      "fam": 2305,
      "occ": 2306,
      "##ently": 2307,
      "like": 2308,
      "open": 2309,
      "exp": 2310,
      "Aug": 2311,
      "##hy": 2312,
      "##ism": 2313,
      "##ession": 2314,
      "August": 2315,
      "Chr": 2316,
      "success": 2317,
      "pass": 2318,
      "##ajor": 2319,
      "##und": 2320,
      "##ouse": 2321,
      "War": 2322,
      "##ony": 2323,
      "##ash": 2324,
      "people": 2325,
      "##ues": 2326,
      "##chool": 2327,
      "##erv": 2328,
      "##oss": 2329,
      "adv": 2330,
      "count": 2331,
      "offic": 2332,
      "eff": 2333,
      "##stem": 2334,
      "##cept": 2335,
      "six": 2336,
      "##uth": 2337,
      "##eal": 2338,
      "##my": 2339,
      "around": 2340,
      "small": 2341,
      "However": 2342,
      "dam": 2343,
      "##gg": 2344,
      "Sept": 2345,
      "##erson": 2346,
      "north": 2347,
      "mod": 2348,
      "head": 2349,
      "group": 2350,
      "Cl": 2351,
      "##ident": 2352,
      "195": 2353,
      "Ju": 2354,
      "poin": 2355,
      "start": 2356,
      "each": 2357,
      "complet": 2358,
      "govern": 2359,
      "consid": 2360,
      "support": 2361,
      "##ales": 2362,
      "September": 2363,
      "Con": 2364,
      "Sp": 2365,
      "character": 2366,
      "following": 2367,
      "ne": 2368,
      "##omin": 2369,
      "Tr": 2370,
      "##aining": 2371,
      "ed": 2372,
      "##ven": 2373,
      "ann": 2374,
      "All": 2375,
      "Ad": 2376,
      "five": 2377,
      "Austral": 2378,
      "var": 2379,
      "##ject": 2380,
      "Pl": 2381,
      "Comm": 2382,
      "will": 2383,
      "Her": 2384,
      "attack": 2385,
      "ever": 2386,
      "gu": 2387,
      "imp": 2388,
      "##wards": 2389,
      "US": 2390,
      "##ording": 2391,
      "large": 2392,
      "193": 2393,
      "World": 2394,
      "book": 2395,
      "##ient": 2396,
      "##lish": 2397,
      "##ution": 2398,
      "##ute": 2399,
      "##ects": 2400,
      "##ired": 2401,
      "Col": 2402,
      "191": 2403,
      "##ural": 2404,
      "##ting": 2405,
      "##aced": 2406,
      "##aving": 2407,
      "North": 2408,
      "##ague": 2409,
      "star": 2410,
      "##ren": 2411,
      "##ox": 2412,
      "##ended": 2413,
      "##hel": 2414,
      "II": 2415,
      "id": 2416,
      "##ored": 2417,
      "tit": 2418,
      "14": 2419,
      "June": 2420,
      "##ilt": 2421,
      "week": 2422,
      "##aur": 2423,
      "##ives": 2424,
      "##ately": 2425,
      "##med": 2426,
      "ent": 2427,
      "since": 2428,
      "arr": 2429,
      "German": 2430,
      "Eur": 2431,
      "##ina": 2432,
      "##ats": 2433,
      "Jan": 2434,
      "major": 2435,
      "dr": 2436,
      "##rote": 2437,
      "States": 2438,
      "received": 2439,
      "south": 2440,
      "name": 2441,
      "##ivision": 2442,
      "Gu": 2443,
      "hel": 2444,
      "partic": 2445,
      "South": 2446,
      "##ble": 2447,
      "coll": 2448,
      "public": 2449,
      "##omet": 2450,
      "Oct": 2451,
      "system": 2452,
      "Pr": 2453,
      "state": 2454,
      "what": 2455,
      "Christ": 2456,
      "##ility": 2457,
      "##ages": 2458,
      "described": 2459,
      "rest": 2460,
      "##uary": 2461,
      "##aged": 2462,
      "King": 2463,
      "Par": 2464,
      "line": 2465,
      "batt": 2466,
      "vers": 2467,
      "##iving": 2468,
      "prot": 2469,
      "October": 2470,
      "played": 2471,
      "det": 2472,
      "red": 2473,
      "##ax": 2474,
      "incre": 2475,
      "mar": 2476,
      "life": 2477,
      "##sc": 2478,
      "now": 2479,
      "took": 2480,
      "##ified": 2481,
      "Nov": 2482,
      "class": 2483,
      "##ody": 2484,
      "build": 2485,
      "##aim": 2486,
      "last": 2487,
      "##ively": 2488,
      "25": 2489,
      "##side": 2490,
      "late": 2491,
      "world": 2492,
      "##by": 2493,
      "Gr": 2494,
      "wrote": 2495,
      "July": 2496,
      "##ae": 2497,
      "##cl": 2498,
      "produ": 2499,
      "York": 2500,
      "won": 2501,
      "##ef": 2502,
      "Dec": 2503,
      "##ech": 2504,
      "##ined": 2505,
      "child": 2506,
      "##ians": 2507,
      "During": 2508,
      "much": 2509,
      "Fl": 2510,
      "larg": 2511,
      "result": 2512,
      "due": 2513,
      "##ology": 2514,
      "allow": 2515,
      "Can": 2516,
      "serv": 2517,
      "differ": 2518,
      "##par": 2519,
      "single": 2520,
      "Apr": 2521,
      "just": 2522,
      "##ropical": 2523,
      "April": 2524,
      "species": 2525,
      "##ret": 2526,
      "##ically": 2527,
      "camp": 2528,
      "##eder": 2529,
      "And": 2530,
      "gun": 2531,
      "another": 2532,
      "included": 2533,
      "##iod": 2534,
      "##ital": 2535,
      "##ission": 2536,
      "poss": 2537,
      "Mc": 2538,
      "death": 2539,
      "##ext": 2540,
      "##ides": 2541,
      "short": 2542,
      "old": 2543,
      "vis": 2544,
      "##ham": 2545,
      "##ling": 2546,
      "storm": 2547,
      "left": 2548,
      "even": 2549,
      "##ideo": 2550,
      "within": 2551,
      "appro": 2552,
      "January": 2553,
      "ele": 2554,
      "report": 2555,
      "##akes": 2556,
      "30": 2557,
      "tri": 2558,
      "England": 2559,
      "named": 2560,
      "based": 2561,
      "estab": 2562,
      "if": 2563,
      "Pro": 2564,
      "although": 2565,
      "prog": 2566,
      "port": 2567,
      "cr": 2568,
      "##ai": 2569,
      "top": 2570,
      "attem": 2571,
      "Be": 2572,
      "very": 2573,
      "ph": 2574,
      "third": 2575,
      "##ched": 2576,
      "##ention": 2577,
      "belie": 2578,
      "water": 2579,
      "##ards": 2580,
      "track": 2581,
      "bre": 2582,
      "##itions": 2583,
      "hum": 2584,
      "March": 2585,
      "games": 2586,
      "##ped": 2587,
      "event": 2588,
      "previous": 2589,
      "power": 2590,
      "##ilar": 2591,
      "##ants": 2592,
      "##ops": 2593,
      "##ead": 2594,
      "school": 2595,
      "way": 2596,
      "November": 2597,
      "beg": 2598,
      "men": 2599,
      "His": 2600,
      "family": 2601,
      "Ge": 2602,
      "fur": 2603,
      "##ulation": 2604,
      "##raft": 2605,
      "review": 2606,
      "##ances": 2607,
      "##ograp": 2608,
      "By": 2609,
      "care": 2610,
      "expl": 2611,
      "period": 2612,
      "home": 2613,
      "##ms": 2614,
      "typ": 2615,
      "Europe": 2616,
      "##que": 2617,
      "##aster": 2618,
      "government": 2619,
      "organ": 2620,
      "best": 2621,
      "turn": 2622,
      "those": 2623,
      "hand": 2624,
      "December": 2625,
      "list": 2626,
      "##ience": 2627,
      "There": 2628,
      "##avy": 2629,
      "##ached": 2630,
      "192": 2631,
      "place": 2632,
      "##get": 2633,
      "story": 2634,
      "##amb": 2635,
      "built": 2636,
      "##hest": 2637,
      "great": 2638,
      "prom": 2639,
      "original": 2640,
      "Mus": 2641,
      "100": 2642,
      "kill": 2643,
      "##iven": 2644,
      "##ested": 2645,
      "When": 2646,
      "month": 2647,
      "conv": 2648,
      "##oci": 2649,
      "##ature": 2650,
      "##ench": 2651,
      "opp": 2652,
      "sent": 2653,
      "make": 2654,
      "##ented": 2655,
      "hal": 2656,
      "##itary": 2657,
      "##elt": 2658,
      "command": 2659,
      "requ": 2660,
      "eng": 2661,
      "City": 2662,
      "##aff": 2663,
      "##iversity": 2664,
      "auth": 2665,
      "##ple": 2666,
      "med": 2667,
      "ant": 2668,
      "National": 2669,
      "dem": 2670,
      "mark": 2671,
      "Ph": 2672,
      "##ences": 2673,
      "##alk": 2674,
      "##ison": 2675,
      "repr": 2676,
      "Or": 2677,
      "del": 2678,
      "person": 2679,
      "##gy": 2680,
      "##uss": 2681,
      "club": 2682,
      "2009": 2683,
      "##inc": 2684,
      "Bro": 2685,
      "##urric": 2686,
      "##ning": 2687,
      "2010": 2688,
      "view": 2689,
      "repl": 2690,
      "my": 2691,
      "##ung": 2692,
      "2008": 2693,
      "##oard": 2694,
      "still": 2695,
      "capt": 2696,
      "River": 2697,
      "moved": 2698,
      "led": 2699,
      "video": 2700,
      "local": 2701,
      "##ival": 2702,
      "##ott": 2703,
      "came": 2704,
      "cour": 2705,
      "##ps": 2706,
      "##aken": 2707,
      "Bar": 2708,
      "dest": 2709,
      "role": 2710,
      "##ke": 2711,
      "##ball": 2712,
      "term": 2713,
      "##line": 2714,
      "stand": 2715,
      "leg": 2716,
      "##ense": 2717,
      "##ness": 2718,
      "iss": 2719,
      "##ories": 2720,
      "##ruction": 2721,
      "often": 2722,
      "common": 2723,
      "addition": 2724,
      "Man": 2725,
      "caus": 2726,
      "##ests": 2727,
      "##idge": 2728,
      "##lear": 2729,
      "few": 2730,
      "##ler": 2731,
      "##atter": 2732,
      "rep": 2733,
      "sugg": 2734,
      "trad": 2735,
      "##ner": 2736,
      "##read": 2737,
      "considered": 2738,
      "next": 2739,
      "##rew": 2740,
      "player": 2741,
      "mid": 2742,
      "deb": 2743,
      "Ab": 2744,
      "##astern": 2745,
      "No": 2746,
      "side": 2747,
      "##ged": 2748,
      "##ister": 2749,
      "similar": 2750,
      "##mp": 2751,
      "##sh": 2752,
      "##int": 2753,
      "##urr": 2754,
      "recorded": 2755,
      "English": 2756,
      "exper": 2757,
      "One": 2758,
      "2007": 2759,
      "French": 2760,
      "init": 2761,
      "##rod": 2762,
      "##ays": 2763,
      "win": 2764,
      "real": 2765,
      "We": 2766,
      "##uted": 2767,
      "##ior": 2768,
      "claim": 2769,
      "company": 2770,
      "import": 2771,
      "sold": 2772,
      "tem": 2773,
      "published": 2774,
      "continued": 2775,
      "increas": 2776,
      "Acc": 2777,
      "sol": 2778,
      "town": 2779,
      "arch": 2780,
      "wind": 2781,
      "different": 2782,
      "without": 2783,
      "Char": 2784,
      "take": 2785,
      "songs": 2786,
      "With": 2787,
      "tot": 2788,
      "Batt": 2789,
      "av": 2790,
      "infl": 2791,
      "El": 2792,
      "held": 2793,
      "tw": 2794,
      "tel": 2795,
      "21": 2796,
      "Am": 2797,
      "former": 2798,
      "##ternational": 2799,
      "among": 2800,
      "Will": 2801,
      "ref": 2802,
      "level": 2803,
      "memb": 2804,
      "polit": 2805,
      "mag": 2806,
      "road": 2807,
      "refer": 2808,
      "field": 2809,
      "You": 2810,
      "##oyal": 2811,
      "written": 2812,
      "##itar": 2813,
      "every": 2814,
      "Per": 2815,
      "##inning": 2816,
      "##ices": 2817,
      "##estern": 2818,
      "half": 2819,
      "Ed": 2820,
      "##roy": 2821,
      "further": 2822,
      "23": 2823,
      "Division": 2824,
      "sk": 2825,
      "prop": 2826,
      "repres": 2827,
      "##bs": 2828,
      "commun": 2829,
      "##urricane": 2830,
      "find": 2831,
      "##ene": 2832,
      "become": 2833,
      "##be": 2834,
      "attempt": 2835,
      "According": 2836,
      "west": 2837,
      "##raw": 2838,
      "Although": 2839,
      "strong": 2840,
      "however": 2841,
      "##enc": 2842,
      "##ried": 2843,
      "church": 2844,
      "##urs": 2845,
      "##ampions": 2846,
      "days": 2847,
      "##ensive": 2848,
      "east": 2849,
      "join": 2850,
      "##augh": 2851,
      "Port": 2852,
      "##ights": 2853,
      "2011": 2854,
      "##iter": 2855,
      "spe": 2856,
      "particular": 2857,
      "Canad": 2858,
      "low": 2859,
      "##yn": 2860,
      "conf": 2861,
      "##ption": 2862,
      "position": 2863,
      "##pite": 2864,
      "compet": 2865,
      "##ize": 2866,
      "Comp": 2867,
      "release": 2868,
      "Af": 2869,
      "Pol": 2870,
      "title": 2871,
      "foot": 2872,
      "##ising": 2873,
      "beh": 2874,
      "State": 2875,
      "2006": 2876,
      "24": 2877,
      "prof": 2878,
      "military": 2879,
      "author": 2880,
      "##app": 2881,
      "##ebru": 2882,
      "##aly": 2883,
      "##oute": 2884,
      "Count": 2885,
      "origin": 2886,
      "history": 2887,
      "26": 2888,
      "##reen": 2889,
      "version": 2890,
      "Roman": 2891,
      "West": 2892,
      "order": 2893,
      "22": 2894,
      "##ches": 2895,
      "##let": 2896,
      "##eter": 2897,
      "Gener": 2898,
      "band": 2899,
      "Church": 2900,
      "##ittle": 2901,
      "times": 2902,
      "##ipp": 2903,
      "##uct": 2904,
      "##yle": 2905,
      "##outher": 2906,
      "##press": 2907,
      "less": 2908,
      "##outhern": 2909,
      "fre": 2910,
      "gave": 2911,
      "defe": 2912,
      "vict": 2913,
      "control": 2914,
      "##ves": 2915,
      "##aces": 2916,
      "##ylan": 2917,
      "reported": 2918,
      "Febru": 2919,
      "February": 2920,
      "Dylan": 2921,
      "nort": 2922,
      "League": 2923,
      "members": 2924,
      "##anes": 2925,
      "chang": 2926,
      "enter": 2927,
      "produced": 2928,
      "Geor": 2929,
      "cover": 2930,
      "##ailed": 2931,
      "total": 2932,
      "##self": 2933,
      "##iment": 2934,
      "##oms": 2935,
      "##ared": 2936,
      "nov": 2937,
      "##evision": 2938,
      "Ass": 2939,
      "fire": 2940,
      "ter": 2941,
      "##hern": 2942,
      "28": 2943,
      "##osp": 2944,
      "Song": 2945,
      "##arm": 2946,
      "##iety": 2947,
      "tropical": 2948,
      "##omen": 2949,
      "Park": 2950,
      "##ape": 2951,
      "inf": 2952,
      "##aying": 2953,
      "2012": 2954,
      "Jap": 2955,
      "Old": 2956,
      "post": 2957,
      "##atic": 2958,
      "point": 2959,
      "career": 2960,
      "children": 2961,
      "include": 2962,
      "histor": 2963,
      "production": 2964,
      "having": 2965,
      "pat": 2966,
      "##ably": 2967,
      "critic": 2968,
      "popular": 2969,
      "invol": 2970,
      "surv": 2971,
      "lost": 2972,
      "##hem": 2973,
      "forces": 2974,
      "Air": 2975,
      "given": 2976,
      "##arr": 2977,
      "Ha": 2978,
      "want": 2979,
      "##ks": 2980,
      "##ford": 2981,
      "##alion": 2982,
      "country": 2983,
      "##aul": 2984,
      "young": 2985,
      "##echn": 2986,
      "obs": 2987,
      "Afric": 2988,
      "Re": 2989,
      "aff": 2990,
      "influ": 2991,
      "##oon": 2992,
      "##ald": 2993,
      "signific": 2994,
      "equ": 2995,
      "##ush": 2996,
      "press": 2997,
      "Dav": 2998,
      "Sim": 2999,
      "##ength": 3000,
      "eight": 3001,
      "##ots": 3002,
      "seen": 3003,
      "##ploy": 3004,
      "manag": 3005,
      "site": 3006,
      "##reet": 3007,
      "##ional": 3008,
      "comb": 3009,
      "sit": 3010,
      "##work": 3011,
      "making": 3012,
      "never": 3013,
      "Miss": 3014,
      "Su": 3015,
      "body": 3016,
      "##ones": 3017,
      "##ither": 3018,
      "stated": 3019,
      "establ": 3020,
      "Ear": 3021,
      "fem": 3022,
      "##ours": 3023,
      "match": 3024,
      "Cent": 3025,
      "gen": 3026,
      "ord": 3027,
      "should": 3028,
      "##uced": 3029,
      "##isc": 3030,
      "read": 3031,
      "2013": 3032,
      "While": 3033,
      "program": 3034,
      "General": 3035,
      "returned": 3036,
      "##aised": 3037,
      "cult": 3038,
      "ft": 3039,
      "##ator": 3040,
      "stat": 3041,
      "##sequ": 3042,
      "Ev": 3043,
      "University": 3044,
      "frie": 3045,
      "50": 3046,
      "how": 3047,
      "sound": 3048,
      "##tain": 3049,
      "gl": 3050,
      "##con": 3051,
      "##ades": 3052,
      "These": 3053,
      "##aun": 3054,
      "earl": 3055,
      "announ": 3056,
      "established": 3057,
      "##rem": 3058,
      "island": 3059,
      "##earch": 3060,
      "ships": 3061,
      "cor": 3062,
      "god": 3063,
      "ground": 3064,
      "soc": 3065,
      "reached": 3066,
      "population": 3067,
      "27": 3068,
      "cat": 3069,
      "noted": 3070,
      "America": 3071,
      "away": 3072,
      "div": 3073,
      "##dom": 3074,
      "struct": 3075,
      "190": 3076,
      "exc": 3077,
      "friend": 3078,
      "Ex": 3079,
      "##ying": 3080,
      "##ream": 3081,
      "Jack": 3082,
      "##omb": 3083,
      "lim": 3084,
      "##ne": 3085,
      "throughout": 3086,
      "developed": 3087,
      "thought": 3088,
      "##ampionship": 3089,
      "##af": 3090,
      "##igade": 3091,
      "##ration": 3092,
      "##ges": 3093,
      "##aint": 3094,
      "Ire": 3095,
      "Lond": 3096,
      "##iec": 3097,
      "seven": 3098,
      "across": 3099,
      "somet": 3100,
      "##orts": 3101,
      "present": 3102,
      "Ireland": 3103,
      "##ering": 3104,
      "right": 3105,
      "introd": 3106,
      "Black": 3107,
      "William": 3108,
      "fact": 3109,
      "good": 3110,
      "rad": 3111,
      "using": 3112,
      "himself": 3113,
      "London": 3114,
      "Reg": 3115,
      "##ination": 3116,
      "##used": 3117,
      "cy": 3118,
      "##ords": 3119,
      "black": 3120,
      "##ki": 3121,
      "##fic": 3122,
      "Mich": 3123,
      "##ket": 3124,
      "destroy": 3125,
      "cast": 3126,
      "hig": 3127,
      "felt": 3128,
      "significant": 3129,
      "##oo": 3130,
      "wat": 3131,
      "plan": 3132,
      "performed": 3133,
      "Cor": 3134,
      "De": 3135,
      "##irc": 3136,
      "trav": 3137,
      "human": 3138,
      "cou": 3139,
      "##iness": 3140,
      "##idence": 3141,
      "important": 3142,
      "##ological": 3143,
      "father": 3144,
      "adm": 3145,
      "Gl": 3146,
      "fun": 3147,
      "##eth": 3148,
      "##ogn": 3149,
      "miles": 3150,
      "##itive": 3151,
      "Australia": 3152,
      "various": 3153,
      "television": 3154,
      "Feder": 3155,
      "Des": 3156,
      "Rich": 3157,
      "##imately": 3158,
      "white": 3159,
      "areas": 3160,
      "development": 3161,
      "full": 3162,
      "Cal": 3163,
      "Pal": 3164,
      "died": 3165,
      "look": 3166,
      "ten": 3167,
      "##ivil": 3168,
      "##ief": 3169,
      "modern": 3170,
      "light": 3171,
      "went": 3172,
      "##ael": 3173,
      "ins": 3174,
      "##osaur": 3175,
      "writing": 3176,
      "bo": 3177,
      "bar": 3178,
      "ball": 3179,
      "##antic": 3180,
      "Atl": 3181,
      "need": 3182,
      "Mag": 3183,
      "##field": 3184,
      "tour": 3185,
      "does": 3186,
      "successful": 3187,
      "Rober": 3188,
      "##ster": 3189,
      "prim": 3190,
      "##most": 3191,
      "##reek": 3192,
      "events": 3193,
      "started": 3194,
      "mm": 3195,
      "Rec": 3196,
      "law": 3197,
      "night": 3198,
      "##craft": 3199,
      "##ective": 3200,
      "decl": 3201,
      "James": 3202,
      "house": 3203,
      "##ned": 3204,
      "suff": 3205,
      "see": 3206,
      "players": 3207,
      "feet": 3208,
      "formed": 3209,
      "##iting": 3210,
      "##ico": 3211,
      "activ": 3212,
      "mix": 3213,
      "##pression": 3214,
      "Cro": 3215,
      "elect": 3216,
      "fac": 3217,
      "range": 3218,
      "##vers": 3219,
      "##ements": 3220,
      "sett": 3221,
      "poem": 3222,
      "put": 3223,
      "vill": 3224,
      "##ana": 3225,
      "too": 3226,
      "caused": 3227,
      "Mount": 3228,
      "building": 3229,
      "techn": 3230,
      "##aves": 3231,
      "##ourn": 3232,
      "relations": 3233,
      "En": 3234,
      "Road": 3235,
      "##aign": 3236,
      "force": 3237,
      "Cr": 3238,
      "##reg": 3239,
      "age": 3240,
      "sw": 3241,
      "##ino": 3242,
      "##abor": 3243,
      "pri": 3244,
      "##na": 3245,
      "##isted": 3246,
      "created": 3247,
      "official": 3248,
      "ke": 3249,
      "##iers": 3250,
      "##elling": 3251,
      "##ization": 3252,
      "County": 3253,
      "novel": 3254,
      "##ument": 3255,
      "Ang": 3256,
      "pit": 3257,
      "##fall": 3258,
      "189": 3259,
      "entire": 3260,
      "Mor": 3261,
      "son": 3262,
      "proc": 3263,
      "able": 3264,
      "To": 3265,
      "##off": 3266,
      "##ara": 3267,
      "relig": 3268,
      "political": 3269,
      "Ol": 3270,
      "##day": 3271,
      "get": 3272,
      "2004": 3273,
      "others": 3274,
      "bird": 3275,
      "##alth": 3276,
      "##epend": 3277,
      "sum": 3278,
      "characters": 3279,
      "Som": 3280,
      "cas": 3281,
      "national": 3282,
      "##lex": 3283,
      "2005": 3284,
      "##uck": 3285,
      "##idd": 3286,
      "style": 3287,
      "pred": 3288,
      "Ham": 3289,
      "##oming": 3290,
      "##ample": 3291,
      "lik": 3292,
      "val": 3293,
      "once": 3294,
      "##ries": 3295,
      "##ficult": 3296,
      "High": 3297,
      "Town": 3298,
      "##ett": 3299,
      "remained": 3300,
      "discover": 3301,
      "Sw": 3302,
      "tro": 3303,
      "##gr": 3304,
      "##mb": 3305,
      "##ille": 3306,
      "##ways": 3307,
      "located": 3308,
      "fig": 3309,
      "cross": 3310,
      "scored": 3311,
      "difficult": 3312,
      "construction": 3313,
      "cert": 3314,
      "rock": 3315,
      "coast": 3316,
      "performance": 3317,
      "promot": 3318,
      "31": 3319,
      "##enth": 3320,
      "meet": 3321,
      "##ounc": 3322,
      "completed": 3323,
      "tradition": 3324,
      "announced": 3325,
      "rank": 3326,
      "##ee": 3327,
      "Australian": 3328,
      "tre": 3329,
      "##ck": 3330,
      "region": 3331,
      "guns": 3332,
      "hold": 3333,
      "##ivid": 3334,
      "enc": 3335,
      "##oid": 3336,
      "stars": 3337,
      "Island": 3338,
      "fav": 3339,
      "grow": 3340,
      "little": 3341,
      "nuc": 3342,
      "##itted": 3343,
      "##omes": 3344,
      "super": 3345,
      "chart": 3346,
      "instead": 3347,
      "help": 3348,
      "Me": 3349,
      "conn": 3350,
      "front": 3351,
      "##rought": 3352,
      "Grand": 3353,
      "Company": 3354,
      "squ": 3355,
      "##enced": 3356,
      "Cup": 3357,
      "##less": 3358,
      "##ublic": 3359,
      "added": 3360,
      "29": 3361,
      "circ": 3362,
      "let": 3363,
      "##ique": 3364,
      "##omm": 3365,
      "least": 3366,
      "followed": 3367,
      "Kingdom": 3368,
      "campaign": 3369,
      "Bill": 3370,
      "##orse": 3371,
      "##leet": 3372,
      "works": 3373,
      "peak": 3374,
      "appeared": 3375,
      "born": 3376,
      "##here": 3377,
      "##omp": 3378,
      "know": 3379,
      "killed": 3380,
      "southern": 3381,
      "months": 3382,
      "Sec": 3383,
      "originally": 3384,
      "wife": 3385,
      "##ani": 3386,
      "stri": 3387,
      "##play": 3388,
      "loss": 3389,
      "##ament": 3390,
      "##emy": 3391,
      "comment": 3392,
      "Army": 3393,
      "David": 3394,
      "mother": 3395,
      "associ": 3396,
      "fif": 3397,
      "mass": 3398,
      "goal": 3399,
      "##mar": 3400,
      "##lement": 3401,
      "ident": 3402,
      "process": 3403,
      "40": 3404,
      "eastern": 3405,
      "##ota": 3406,
      "##umb": 3407,
      "sex": 3408,
      "##antry": 3409,
      "award": 3410,
      "non": 3411,
      "women": 3412,
      "agre": 3413,
      "critics": 3414,
      "broad": 3415,
      "aud": 3416,
      "cell": 3417,
      "##oice": 3418,
      "eventually": 3419,
      "relationship": 3420,
      "hurricane": 3421,
      "##ract": 3422,
      "anim": 3423,
      "185": 3424,
      "Mon": 3425,
      "voc": 3426,
      "##ston": 3427,
      "##angu": 3428,
      "bus": 3429,
      "far": 3430,
      "live": 3431,
      "##ius": 3432,
      "appoin": 3433,
      "fourth": 3434,
      "##hys": 3435,
      "route": 3436,
      "taken": 3437,
      "##iol": 3438,
      "##aper": 3439,
      "project": 3440,
      "estim": 3441,
      "features": 3442,
      "mount": 3443,
      "2003": 3444,
      "served": 3445,
      "Har": 3446,
      "Ir": 3447,
      "##ata": 3448,
      "France": 3449,
      "God": 3450,
      "Ser": 3451,
      "##rated": 3452,
      "##ully": 3453,
      "Sy": 3454,
      "lack": 3455,
      "##pts": 3456,
      "commer": 3457,
      "##istic": 3458,
      "2015": 3459,
      "decided": 3460,
      "damage": 3461,
      "Pres": 3462,
      "Rock": 3463,
      "aver": 3464,
      "##chie": 3465,
      "heavy": 3466,
      "recogn": 3467,
      "Two": 3468,
      "either": 3469,
      "fight": 3470,
      "##cher": 3471,
      "##azine": 3472,
      "represent": 3473,
      "Act": 3474,
      "separ": 3475,
      "##iction": 3476,
      "impro": 3477,
      "##gin": 3478,
      "##liam": 3479,
      "insp": 3480,
      "##ecut": 3481,
      "##ama": 3482,
      "prote": 3483,
      "##illa": 3484,
      "##igned": 3485,
      "##ought": 3486,
      "special": 3487,
      "Ber": 3488,
      "toget": 3489,
      "individ": 3490,
      "believed": 3491,
      "Battalion": 3492,
      "behind": 3493,
      "Robert": 3494,
      "together": 3495,
      "##ring": 3496,
      "##olution": 3497,
      "arg": 3498,
      "Mad": 3499,
      "##utes": 3500,
      "arm": 3501,
      "Flor": 3502,
      "##ency": 3503,
      "clear": 3504,
      "mater": 3505,
      "##oom": 3506,
      "proble": 3507,
      "dev": 3508,
      "##ouncil": 3509,
      "dou": 3510,
      "clos": 3511,
      "##ica": 3512,
      "creat": 3513,
      "round": 3514,
      "##ida": 3515,
      "example": 3516,
      "close": 3517,
      "playing": 3518,
      "Carey": 3519,
      "Royal": 3520,
      "bi": 3521,
      "ve": 3522,
      "vol": 3523,
      "##iation": 3524,
      "##iber": 3525,
      "##arn": 3526,
      "almost": 3527,
      "move": 3528,
      "##liament": 3529,
      "Ant": 3530,
      "Hen": 3531,
      "Some": 3532,
      "##uit": 3533,
      "##ened": 3534,
      "Love": 3535,
      "Red": 3536,
      "##acy": 3537,
      "Mex": 3538,
      "interv": 3539,
      "leading": 3540,
      "generally": 3541,
      "curr": 3542,
      "fall": 3543,
      "saw": 3544,
      "occur": 3545,
      "opened": 3546,
      "battle": 3547,
      "towards": 3548,
      "general": 3549,
      "35": 3550,
      "Du": 3551,
      "Min": 3552,
      "brought": 3553,
      "langu": 3554,
      "sel": 3555,
      "sour": 3556,
      "##aching": 3557,
      "weeks": 3558,
      "draw": 3559,
      "mot": 3560,
      "##gar": 3561,
      "##oring": 3562,
      "##ential": 3563,
      "##ceed": 3564,
      "##odes": 3565,
      "##rict": 3566,
      "quar": 3567,
      "finished": 3568,
      "elements": 3569,
      "My": 3570,
      "laun": 3571,
      "##hing": 3572,
      "##uter": 3573,
      "ste": 3574,
      "##ending": 3575,
      "European": 3576,
      "host": 3577,
      "wall": 3578,
      "regular": 3579,
      "Brigade": 3580,
      "##spec": 3581,
      "featured": 3582,
      "Bra": 3583,
      "Wales": 3584,
      "bur": 3585,
      "188": 3586,
      "aircraft": 3587,
      "White": 3588,
      "service": 3589,
      "Part": 3590,
      "miss": 3591,
      "##cial": 3592,
      "##hic": 3593,
      "##stit": 3594,
      "##ript": 3595,
      "central": 3596,
      "##irl": 3597,
      "Kh": 3598,
      "Rev": 3599,
      "hy": 3600,
      "net": 3601,
      "##board": 3602,
      "##anch": 3603,
      "##ask": 3604,
      "reb": 3605,
      "##ordan": 3606,
      "indust": 3607,
      "Mont": 3608,
      "##ators": 3609,
      "##alt": 3610,
      "study": 3611,
      "directed": 3612,
      "points": 3613,
      "Federer": 3614,
      "Viet": 3615,
      "action": 3616,
      "fund": 3617,
      "mi": 3618,
      "wid": 3619,
      "inform": 3620,
      "accept": 3621,
      "director": 3622,
      "provided": 3623,
      "Follow": 3624,
      "Other": 3625,
      "burn": 3626,
      "cut": 3627,
      "meas": 3628,
      "##ground": 3629,
      "##icated": 3630,
      "##eler": 3631,
      "flood": 3632,
      "individual": 3633,
      "Med": 3634,
      "hon": 3635,
      "upon": 3636,
      "highway": 3637,
      "Jordan": 3638,
      "##eum": 3639,
      "mean": 3640,
      "##ounter": 3641,
      "appearance": 3642,
      "Co": 3643,
      "Im": 3644,
      "yard": 3645,
      "##ellow": 3646,
      "186": 3647,
      "earlier": 3648,
      "Jew": 3649,
      "king": 3650,
      "##ky": 3651,
      "sequ": 3652,
      "##wood": 3653,
      "cost": 3654,
      "rather": 3655,
      "##aps": 3656,
      "Championship": 3657,
      "From": 3658,
      "subsequ": 3659,
      "female": 3660,
      "Ke": 3661,
      "##val": 3662,
      "##atin": 3663,
      "##ores": 3664,
      "troops": 3665,
      "East": 3666,
      "river": 3667,
      "##ania": 3668,
      "##ander": 3669,
      "##anding": 3670,
      "##medi": 3671,
      "largest": 3672,
      "Following": 3673,
      "500": 3674,
      "Gal": 3675,
      "##sel": 3676,
      "stru": 3677,
      "International": 3678,
      "##ishing": 3679,
      "employ": 3680,
      "particularly": 3681,
      "victory": 3682,
      "achie": 3683,
      "ill": 3684,
      "prob": 3685,
      "manager": 3686,
      "Sl": 3687,
      "qual": 3688,
      "##erous": 3689,
      "2014": 3690,
      "opening": 3691,
      "Hero": 3692,
      "George": 3693,
      "wanted": 3694,
      "Cap": 3695,
      "House": 3696,
      "cop": 3697,
      "##ouri": 3698,
      "fort": 3699,
      "##ports": 3700,
      "Christian": 3701,
      "Dr": 3702,
      "Od": 3703,
      "yards": 3704,
      "exist": 3705,
      "Music": 3706,
      "northern": 3707,
      "##anese": 3708,
      "Atlantic": 3709,
      "Mary": 3710,
      "foc": 3711,
      "##thlet": 3712,
      "Rep": 3713,
      "member": 3714,
      "##cent": 3715,
      "##head": 3716,
      "##ita": 3717,
      "19th": 3718,
      "evidence": 3719,
      "operations": 3720,
      "Wal": 3721,
      "saying": 3722,
      "##ington": 3723,
      "Street": 3724,
      "allowed": 3725,
      "Mac": 3726,
      "Most": 3727,
      "pract": 3728,
      "outside": 3729,
      "crew": 3730,
      "possible": 3731,
      "engine": 3732,
      "Hol": 3733,
      "mer": 3734,
      "neg": 3735,
      "past": 3736,
      "##uel": 3737,
      "##west": 3738,
      "reason": 3739,
      "Oliv": 3740,
      "Florida": 3741,
      "Bay": 3742,
      "Em": 3743,
      "Game": 3744,
      "Mo": 3745,
      "hours": 3746,
      "whom": 3747,
      "##iff": 3748,
      "McC": 3749,
      "Paul": 3750,
      "Wil": 3751,
      "viol": 3752,
      "poor": 3753,
      "Phil": 3754,
      "material": 3755,
      "free": 3756,
      "##uk": 3757,
      "##ased": 3758,
      "stage": 3759,
      "##ems": 3760,
      "##ago": 3761,
      "##artment": 3762,
      "worked": 3763,
      "respons": 3764,
      "conduct": 3765,
      "case": 3766,
      "gre": 3767,
      "length": 3768,
      "nec": 3769,
      "##atural": 3770,
      "##igg": 3771,
      "##ills": 3772,
      "regard": 3773,
      "territ": 3774,
      "Missouri": 3775,
      "But": 3776,
      "Mark": 3777,
      "##ude": 3778,
      "working": 3779,
      "mach": 3780,
      "##ih": 3781,
      "##irth": 3782,
      "plann": 3783,
      "quick": 3784,
      "che": 3785,
      "love": 3786,
      "##men": 3787,
      "designed": 3788,
      "Day": 3789,
      "gold": 3790,
      "ly": 3791,
      "##ule": 3792,
      "##vert": 3793,
      "Tor": 3794,
      "Tech": 3795,
      "lear": 3796,
      "mult": 3797,
      "##now": 3798,
      "##for": 3799,
      "##urt": 3800,
      "praised": 3801,
      "2001": 3802,
      "contract": 3803,
      "Play": 3804,
      "##bor": 3805,
      "forced": 3806,
      "##hens": 3807,
      "Indian": 3808,
      "construct": 3809,
      "avail": 3810,
      "Best": 3811,
      "Vir": 3812,
      "esc": 3813,
      "ren": 3814,
      "rul": 3815,
      "##ites": 3816,
      "remains": 3817,
      "Ac": 3818,
      "##tt": 3819,
      "think": 3820,
      "station": 3821,
      "winds": 3822,
      "Bus": 3823,
      "Qu": 3824,
      "Val": 3825,
      "treat": 3826,
      "##onst": 3827,
      "##oles": 3828,
      "goals": 3829,
      "##ography": 3830,
      "increased": 3831,
      "##conom": 3832,
      "Michael": 3833,
      "##heast": 3834,
      "##aries": 3835,
      "diss": 3836,
      "previously": 3837,
      "civil": 3838,
      "above": 3839,
      "187": 3840,
      "soon": 3841,
      "##ronic": 3842,
      "effect": 3843,
      "replaced": 3844,
      "football": 3845,
      "Egy": 3846,
      "Sm": 3847,
      "San": 3848,
      "pers": 3849,
      "##wh": 3850,
      "##ari": 3851,
      "##asion": 3852,
      "compos": 3853,
      "##ributed": 3854,
      "commercial": 3855,
      "Egypt": 3856,
      "must": 3857,
      "##uation": 3858,
      "##vest": 3859,
      "##BC": 3860,
      "##erved": 3861,
      "##urb": 3862,
      "ask": 3863,
      "##ula": 3864,
      "interest": 3865,
      "Squ": 3866,
      "##omas": 3867,
      "Despite": 3868,
      "interview": 3869,
      "Whe": 3870,
      "nomin": 3871,
      "pain": 3872,
      "##ming": 3873,
      "##ving": 3874,
      "##ows": 3875,
      "writer": 3876,
      "Richard": 3877,
      "business": 3878,
      "Fir": 3879,
      "mph": 3880,
      "trib": 3881,
      "##co": 3882,
      "##jects": 3883,
      "##itz": 3884,
      "##ids": 3885,
      "estimated": 3886,
      "Sun": 3887,
      "threat": 3888,
      "##olic": 3889,
      "##aker": 3890,
      "units": 3891,
      "Carol": 3892,
      "Super": 3893,
      "Que": 3894,
      "##ulf": 3895,
      "##ump": 3896,
      "specific": 3897,
      "surf": 3898,
      "Brown": 3899,
      "court": 3900,
      "claimed": 3901,
      "joined": 3902,
      "Canada": 3903,
      "Oldham": 3904,
      "highest": 3905,
      "Henry": 3906,
      "Hel": 3907,
      "pur": 3908,
      "placed": 3909,
      "Japanese": 3910,
      "involved": 3911,
      "pen": 3912,
      "western": 3913,
      "##lege": 3914,
      "##usion": 3915,
      "##ulated": 3916,
      "priv": 3917,
      "unc": 3918,
      "signed": 3919,
      "discuss": 3920,
      "suggested": 3921,
      "##ecutive": 3922,
      "36": 3923,
      "##lt": 3924,
      "##onc": 3925,
      "##atory": 3926,
      "inj": 3927,
      "##ste": 3928,
      "##elled": 3929,
      "parts": 3930,
      "45": 3931,
      "Times": 3932,
      "fly": 3933,
      "##AF": 3934,
      "##ady": 3935,
      "##acing": 3936,
      "##ayed": 3937,
      "##ends": 3938,
      "Mos": 3939,
      "##iding": 3940,
      "intens": 3941,
      "itself": 3942,
      "President": 3943,
      "Olivier": 3944,
      "00": 3945,
      "Hall": 3946,
      "Ne": 3947,
      "Pe": 3948,
      "don": 3949,
      "ey": 3950,
      "hous": 3951,
      "##ault": 3952,
      "##gl": 3953,
      "change": 3954,
      "shot": 3955,
      "ide": 3956,
      "average": 3957,
      "Fe": 3958,
      "hard": 3959,
      "op": 3960,
      "taking": 3961,
      "##cast": 3962,
      "league": 3963,
      "Arab": 3964,
      "##anna": 3965,
      "invest": 3966,
      "profession": 3967,
      "Irish": 3968,
      "available": 3969,
      "Ag": 3970,
      "School": 3971,
      "international": 3972,
      "##ching": 3973,
      "heav": 3974,
      "##ector": 3975,
      "except": 3976,
      "scene": 3977,
      "##ibility": 3978,
      "transfer": 3979,
      "India": 3980,
      "brother": 3981,
      "##ready": 3982,
      "introduced": 3983,
      "quarter": 3984,
      "Cong": 3985,
      "Card": 3986,
      "Gold": 3987,
      "Var": 3988,
      "hit": 3989,
      "##ville": 3990,
      "##band": 3991,
      "whose": 3992,
      "##ume": 3993,
      "emb": 3994,
      "respect": 3995,
      "village": 3996,
      "wood": 3997,
      "##rd": 3998,
      "stop": 3999,
      "183": 4000,
      "travel": 4001,
      "Mexico": 4002,
      "Vietn": 4003,
      "Pac": 4004,
      "phys": 4005,
      "##ximately": 4006,
      "##aph": 4007,
      "express": 4008,
      "grad": 4009,
      "##ze": 4010,
      "##osing": 4011,
      "proper": 4012,
      "Thomas": 4013,
      "break": 4014,
      "cycl": 4015,
      "NY": 4016,
      "nine": 4017,
      "rail": 4018,
      "told": 4019,
      "##pper": 4020,
      "##porary": 4021,
      "damaged": 4022,
      "religious": 4023,
      "App": 4024,
      "piec": 4025,
      "rap": 4026,
      "##arily": 4027,
      "abs": 4028,
      "remov": 4029,
      "capital": 4030,
      "turned": 4031,
      "increasing": 4032,
      "network": 4033,
      "Govern": 4034,
      "cal": 4035,
      "lines": 4036,
      "mem": 4037,
      "race": 4038,
      "##enes": 4039,
      "shows": 4040,
      "social": 4041,
      "Many": 4042,
      "bill": 4043,
      "give": 4044,
      "##achel": 4045,
      "react": 4046,
      "chap": 4047,
      "##hedral": 4048,
      "That": 4049,
      "despite": 4050,
      "prepar": 4051,
      "feel": 4052,
      "nearly": 4053,
      "appointed": 4054,
      "size": 4055,
      "independ": 4056,
      "Scient": 4057,
      "Guitar": 4058,
      "determ": 4059,
      "community": 4060,
      "First": 4061,
      "Zeal": 4062,
      "cru": 4063,
      "date": 4064,
      "names": 4065,
      "##go": 4066,
      "##hib": 4067,
      "##unk": 4068,
      "##quar": 4069,
      "recording": 4070,
      "surround": 4071,
      "passed": 4072,
      "Bo": 4073,
      "Great": 4074,
      "den": 4075,
      "econom": 4076,
      "might": 4077,
      "withd": 4078,
      "##ateg": 4079,
      "184": 4080,
      "immedi": 4081,
      "##inese": 4082,
      "establish": 4083,
      "initially": 4084,
      "certain": 4085,
      "##specially": 4086,
      "ap": 4087,
      "fut": 4088,
      "pot": 4089,
      "winning": 4090,
      "##uction": 4091,
      "already": 4092,
      "##oph": 4093,
      "Union": 4094,
      "assist": 4095,
      "base": 4096,
      "Britain": 4097,
      "going": 4098,
      "educ": 4099,
      "debut": 4100,
      "structure": 4101,
      "Republic": 4102,
      "60": 4103,
      "failed": 4104,
      "rain": 4105,
      "##ha": 4106,
      "tow": 4107,
      "##irt": 4108,
      "states": 4109,
      "##bert": 4110,
      "Chinese": 4111,
      "particip": 4112,
      "Not": 4113,
      "aut": 4114,
      "especially": 4115,
      "##etic": 4116,
      "deal": 4117,
      "disp": 4118,
      "according": 4119,
      "occup": 4120,
      "##osaurus": 4121,
      "probably": 4122,
      "Pacific": 4123,
      "Zealand": 4124,
      "Res": 4125,
      "key": 4126,
      "##gu": 4127,
      "##abit": 4128,
      "minor": 4129,
      "anti": 4130,
      "issue": 4131,
      "archae": 4132,
      "Don": 4133,
      "cel": 4134,
      "doc": 4135,
      "daugh": 4136,
      "##den": 4137,
      "##fect": 4138,
      "##ilities": 4139,
      "##odies": 4140,
      "##rian": 4141,
      "##ability": 4142,
      "training": 4143,
      "studio": 4144,
      "Jin": 4145,
      "food": 4146,
      "##ises": 4147,
      "##ication": 4148,
      "forward": 4149,
      "spent": 4150,
      "includes": 4151,
      "arrived": 4152,
      "ordered": 4153,
      "Wheeler": 4154,
      "Cath": 4155,
      "Ma": 4156,
      "Pri": 4157,
      "dro": 4158,
      "##aval": 4159,
      "army": 4160,
      "enough": 4161,
      "remaining": 4162,
      "##ference": 4163,
      "block": 4164,
      "Angel": 4165,
      "language": 4166,
      "Ever": 4167,
      "Mal": 4168,
      "Sch": 4169,
      "liter": 4170,
      "male": 4171,
      "##ands": 4172,
      "##apt": 4173,
      "transport": 4174,
      "visit": 4175,
      "sometimes": 4176,
      "mixed": 4177,
      "Law": 4178,
      "Peter": 4179,
      "di": 4180,
      "##ties": 4181,
      "##zz": 4182,
      "##oul": 4183,
      "##owl": 4184,
      "come": 4185,
      "2002": 4186,
      "complete": 4187,
      "approximately": 4188,
      "required": 4189,
      "UK": 4190,
      "fail": 4191,
      "lower": 4192,
      "latter": 4193,
      "touch": 4194,
      "##rick": 4195,
      "imm": 4196,
      "center": 4197,
      "III": 4198,
      "personal": 4199,
      "Canadian": 4200,
      "Associ": 4201,
      "##lor": 4202,
      "remain": 4203,
      "beginning": 4204,
      "Navy": 4205,
      "Ter": 4206,
      "##down": 4207,
      "##back": 4208,
      "##ete": 4209,
      "Art": 4210,
      "reveal": 4211,
      "reviews": 4212,
      "Africa": 4213,
      "Later": 4214,
      "sem": 4215,
      "woman": 4216,
      "##aut": 4217,
      "##ios": 4218,
      "##agon": 4219,
      "decision": 4220,
      "limited": 4221,
      "##stant": 4222,
      "Str": 4223,
      "usually": 4224,
      "better": 4225,
      "students": 4226,
      "slow": 4227,
      "additional": 4228,
      "##stein": 4229,
      "Hot": 4230,
      "Sing": 4231,
      "##iest": 4232,
      "##to": 4233,
      "##edy": 4234,
      "dead": 4235,
      "Star": 4236,
      "Stev": 4237,
      "2000": 4238,
      "running": 4239,
      "Regiment": 4240,
      "38": 4241,
      "Creek": 4242,
      "Tel": 4243,
      "journ": 4244,
      "##under": 4245,
      "##inist": 4246,
      "##lymp": 4247,
      "##aby": 4248,
      "##ecting": 4249,
      "ended": 4250,
      "positive": 4251,
      "concern": 4252,
      "larger": 4253,
      "changes": 4254,
      "Virgin": 4255,
      "Je": 4256,
      "Olymp": 4257,
      "mention": 4258,
      "sch": 4259,
      "##ults": 4260,
      "president": 4261,
      "Scott": 4262,
      "quest": 4263,
      "supported": 4264,
      "magazine": 4265,
      "Award": 4266,
      "Nort": 4267,
      "Penn": 4268,
      "Rachel": 4269,
      "wide": 4270,
      "##ney": 4271,
      "##zy": 4272,
      "##erat": 4273,
      "depression": 4274,
      "score": 4275,
      "pressure": 4276,
      "Off": 4277,
      "##oor": 4278,
      "##orial": 4279,
      "Stud": 4280,
      "tex": 4281,
      "##ification": 4282,
      "police": 4283,
      "prior": 4284,
      "birds": 4285,
      "Jer": 4286,
      "TV": 4287,
      "##inct": 4288,
      "##urg": 4289,
      "##adron": 4290,
      "shown": 4291,
      "type": 4292,
      "observ": 4293,
      "Billboard": 4294,
      "Soc": 4295,
      "face": 4296,
      "ur": 4297,
      "##enty": 4298,
      "##rief": 4299,
      "##ections": 4300,
      "notes": 4301,
      "related": 4302,
      "feature": 4303,
      "Charles": 4304,
      "75": 4305,
      "Tom": 4306,
      "birth": 4307,
      "##reak": 4308,
      "provide": 4309,
      "defeated": 4310,
      "future": 4311,
      "Fort": 4312,
      "Sam": 4313,
      "der": 4314,
      "anc": 4315,
      "appl": 4316,
      "Frank": 4317,
      "discovered": 4318,
      "fifth": 4319,
      "Mer": 4320,
      "Under": 4321,
      "sil": 4322,
      "section": 4323,
      "##me": 4324,
      "temper": 4325,
      "Japan": 4326,
      "Hist": 4327,
      "La": 4328,
      "Rose": 4329,
      "cm": 4330,
      "sat": 4331,
      "##bers": 4332,
      "staff": 4333,
      "##uments": 4334,
      "##ifa": 4335,
      "contem": 4336,
      "becoming": 4337,
      "frequ": 4338,
      "Western": 4339,
      "word": 4340,
      "##rate": 4341,
      "##hou": 4342,
      "##uf": 4343,
      "##enon": 4344,
      "confl": 4345,
      "1995": 4346,
      "Bel": 4347,
      "FI": 4348,
      "Hill": 4349,
      "##onse": 4350,
      "##aring": 4351,
      "##unt": 4352,
      "exam": 4353,
      "smaller": 4354,
      "lyric": 4355,
      "Pat": 4356,
      "doll": 4357,
      "##itte": 4358,
      "##leg": 4359,
      "intended": 4360,
      "screen": 4361,
      "indic": 4362,
      "groups": 4363,
      "idea": 4364,
      "Wood": 4365,
      "##gn": 4366,
      "##uing": 4367,
      "##era": 4368,
      "##oke": 4369,
      "percent": 4370,
      "themsel": 4371,
      "mostly": 4372,
      "metres": 4373,
      "conclud": 4374,
      "themselves": 4375,
      "Light": 4376,
      "Russ": 4377,
      "domin": 4378,
      "fleet": 4379,
      "##iforn": 4380,
      "##pped": 4381,
      "##rael": 4382,
      "minutes": 4383,
      "captured": 4384,
      "Haifa": 4385,
      "radio": 4386,
      "likely": 4387,
      "surface": 4388,
      "Scientology": 4389,
      "Since": 4390,
      "Tur": 4391,
      "pair": 4392,
      "##aven": 4393,
      "##iano": 4394,
      "largely": 4395,
      "referred": 4396,
      "Year": 4397,
      "lab": 4398,
      "link": 4399,
      "und": 4400,
      "##anz": 4401,
      "##anies": 4402,
      "##rect": 4403,
      "##cean": 4404,
      "##ples": 4405,
      "##oys": 4406,
      "colon": 4407,
      "summer": 4408,
      "professional": 4409,
      "##quarters": 4410,
      "Association": 4411,
      "makes": 4412,
      "##ror": 4413,
      "##tr": 4414,
      "##anish": 4415,
      "##idents": 4416,
      "##ishop": 4417,
      "moving": 4418,
      "musical": 4419,
      "response": 4420,
      "progress": 4421,
      "entered": 4422,
      "Earth": 4423,
      "Croat": 4424,
      "Awards": 4425,
      "How": 4426,
      "test": 4427,
      "##gen": 4428,
      "##ship": 4429,
      "##asy": 4430,
      "contains": 4431,
      "research": 4432,
      "##orning": 4433,
      "constructed": 4434,
      "Bey": 4435,
      "Nic": 4436,
      "Ver": 4437,
      "##rom": 4438,
      "##jected": 4439,
      "inn": 4440,
      "ens": 4441,
      "account": 4442,
      "Californ": 4443,
      "keep": 4444,
      "problems": 4445,
      "Council": 4446,
      "nature": 4447,
      "self": 4448,
      "voice": 4449,
      "##riage": 4450,
      "sea": 4451,
      "adop": 4452,
      "2016": 4453,
      "office": 4454,
      "money": 4455,
      "guitar": 4456,
      "arrang": 4457,
      "Parliament": 4458,
      "Portug": 4459,
      "celeb": 4460,
      "Camp": 4461,
      "Ott": 4462,
      "Up": 4463,
      "mor": 4464,
      "##eding": 4465,
      "##atively": 4466,
      "##icted": 4467,
      "grant": 4468,
      "Israel": 4469,
      "majority": 4470,
      "ranked": 4471,
      "Jewish": 4472,
      "Film": 4473,
      "Haw": 4474,
      "Ross": 4475,
      "##iser": 4476,
      "stories": 4477,
      "Inf": 4478,
      "consist": 4479,
      "create": 4480,
      "##onym": 4481,
      "listed": 4482,
      "Mil": 4483,
      "coin": 4484,
      "leaving": 4485,
      "meth": 4486,
      "favor": 4487,
      "Galvest": 4488,
      "schol": 4489,
      "Galveston": 4490,
      "80": 4491,
      "Sov": 4492,
      "brief": 4493,
      "##kan": 4494,
      "##isions": 4495,
      "thus": 4496,
      "##iva": 4497,
      "Chic": 4498,
      "controll": 4499,
      "experience": 4500,
      "33": 4501,
      "Oper": 4502,
      "lived": 4503,
      "##ger": 4504,
      "##well": 4505,
      "##het": 4506,
      "##ining": 4507,
      "##oud": 4508,
      "##owler": 4509,
      "always": 4510,
      "deep": 4511,
      "##ously": 4512,
      "underst": 4513,
      "##anks": 4514,
      "Another": 4515,
      "critical": 4516,
      "##hester": 4517,
      "gods": 4518,
      "agreed": 4519,
      "##eratops": 4520,
      "##imate": 4521,
      "##ership": 4522,
      "##change": 4523,
      "##ails": 4524,
      "earth": 4525,
      "##ylv": 4526,
      "object": 4527,
      "runs": 4528,
      "officers": 4529,
      "primary": 4530,
      "launched": 4531,
      "Ben": 4532,
      "Mart": 4533,
      "Over": 4534,
      "Sur": 4535,
      "ded": 4536,
      "##dle": 4537,
      "##esh": 4538,
      "##ros": 4539,
      "##andon": 4540,
      "##illery": 4541,
      "prem": 4542,
      "##teen": 4543,
      "films": 4544,
      "minute": 4545,
      "##ospital": 4546,
      "quickly": 4547,
      "California": 4548,
      "2nd": 4549,
      "fans": 4550,
      "##urity": 4551,
      "##ipal": 4552,
      "##order": 4553,
      "amb": 4554,
      "meant": 4555,
      "##ounts": 4556,
      "episodes": 4557,
      "teams": 4558,
      "proposed": 4559,
      "occurred": 4560,
      "Dev": 4561,
      "If": 4562,
      "Mr": 4563,
      "##awn": 4564,
      "##aches": 4565,
      "##imum": 4566,
      "traff": 4567,
      "whether": 4568,
      "1999": 4569,
      "assigned": 4570,
      "Brad": 4571,
      "location": 4572,
      "increase": 4573,
      "suggest": 4574,
      "32": 4575,
      "400": 4576,
      "hop": 4577,
      "vot": 4578,
      "##uff": 4579,
      "cann": 4580,
      "forms": 4581,
      "appears": 4582,
      "defeat": 4583,
      "changed": 4584,
      "destroyed": 4585,
      "Catholic": 4586,
      "Chicago": 4587,
      "Bec": 4588,
      "Latin": 4589,
      "counter": 4590,
      "dram": 4591,
      "tons": 4592,
      "##iant": 4593,
      "##ma": 4594,
      "##oes": 4595,
      "##nel": 4596,
      "##umn": 4597,
      "##bery": 4598,
      "commission": 4599,
      "access": 4600,
      "longer": 4601,
      "poet": 4602,
      "effects": 4603,
      "meaning": 4604,
      "Nix": 4605,
      "Os": 4606,
      "bound": 4607,
      "##rest": 4608,
      "##oir": 4609,
      "##yc": 4610,
      "##pool": 4611,
      "##anced": 4612,
      "##ortun": 4613,
      "princ": 4614,
      "Ital": 4615,
      "numbers": 4616,
      "##undred": 4617,
      "soldiers": 4618,
      "lyrics": 4619,
      "traffic": 4620,
      "Kr": 4621,
      "Sever": 4622,
      "Te": 4623,
      "cred": 4624,
      "girl": 4625,
      "job": 4626,
      "kil": 4627,
      "mom": 4628,
      "##tained": 4629,
      "##AS": 4630,
      "asp": 4631,
      "##thing": 4632,
      "reach": 4633,
      "trade": 4634,
      "leave": 4635,
      "attract": 4636,
      "newsp": 4637,
      "acqu": 4638,
      "Scot": 4639,
      "carried": 4640,
      "competition": 4641,
      "nucle": 4642,
      "awarded": 4643,
      "Hurricane": 4644,
      "##iqu": 4645,
      "##mas": 4646,
      "analy": 4647,
      "##raf": 4648,
      "##lands": 4649,
      "consider": 4650,
      "Enter": 4651,
      "focus": 4652,
      "conducted": 4653,
      "private": 4654,
      "daughter": 4655,
      "300": 4656,
      "70": 4657,
      "Camb": 4658,
      "Dj": 4659,
      "Del": 4660,
      "Mey": 4661,
      "bomb": 4662,
      "lo": 4663,
      "natural": 4664,
      "##ken": 4665,
      "##rey": 4666,
      "##rown": 4667,
      "##ription": 4668,
      "Inter": 4669,
      "overall": 4670,
      "theme": 4671,
      "concert": 4672,
      "subsequently": 4673,
      "BC": 4674,
      "Saint": 4675,
      "ran": 4676,
      "ult": 4677,
      "##NA": 4678,
      "##ón": 4679,
      "thick": 4680,
      "deg": 4681,
      "env": 4682,
      "Alice": 4683,
      "dism": 4684,
      "fighting": 4685,
      "Northern": 4686,
      "Its": 4687,
      "Jam": 4688,
      "Tex": 4689,
      "cause": 4690,
      "emer": 4691,
      "kind": 4692,
      "sus": 4693,
      "tar": 4694,
      "takes": 4695,
      "##itor": 4696,
      "##itation": 4697,
      "##itual": 4698,
      "whole": 4699,
      "rein": 4700,
      "shoot": 4701,
      "uns": 4702,
      "Alkan": 4703,
      "Central": 4704,
      "commented": 4705,
      "broadcast": 4706,
      "double": 4707,
      "current": 4708,
      "lay": 4709,
      "##anas": 4710,
      "tourn": 4711,
      "##usband": 4712,
      "plans": 4713,
      "serious": 4714,
      "bring": 4715,
      "finally": 4716,
      "industry": 4717,
      "asked": 4718,
      "box": 4719,
      "jud": 4720,
      "log": 4721,
      "upper": 4722,
      "##gian": 4723,
      "##sis": 4724,
      "##lo": 4725,
      "##itude": 4726,
      "##aging": 4727,
      "##alled": 4728,
      "##ells": 4729,
      "centre": 4730,
      "1998": 4731,
      "ending": 4732,
      "media": 4733,
      "Polish": 4734,
      "greater": 4735,
      "method": 4736,
      "Nixon": 4737,
      "Dep": 4738,
      "Minn": 4739,
      "Villa": 4740,
      "done": 4741,
      "purch": 4742,
      "##bar": 4743,
      "unable": 4744,
      "compared": 4745,
      "records": 4746,
      "accomp": 4747,
      "##ologist": 4748,
      "##itting": 4749,
      "married": 4750,
      "##stitute": 4751,
      "##ittee": 4752,
      "1st": 4753,
      "athlet": 4754,
      "our": 4755,
      "tor": 4756,
      "##arch": 4757,
      "##owers": 4758,
      "refl": 4759,
      "flight": 4760,
      "standard": 4761,
      "##aught": 4762,
      "influence": 4763,
      "rapid": 4764,
      "39": 4765,
      "Cour": 4766,
      "Sol": 4767,
      "Tay": 4768,
      "got": 4769,
      "lif": 4770,
      "yet": 4771,
      "##eds": 4772,
      "throw": 4773,
      "party": 4774,
      "##aily": 4775,
      "earned": 4776,
      "buildings": 4777,
      "market": 4778,
      "Mosley": 4779,
      "47": 4780,
      "Liver": 4781,
      "living": 4782,
      "##TV": 4783,
      "##olk": 4784,
      "phot": 4785,
      "issued": 4786,
      "Go": 4787,
      "Rob": 4788,
      "Sal": 4789,
      "dom": 4790,
      "dark": 4791,
      "##inated": 4792,
      "1993": 4793,
      "1996": 4794,
      "positions": 4795,
      "directly": 4796,
      "books": 4797,
      "marked": 4798,
      "Busch": 4799,
      "Texas": 4800,
      "Foot": 4801,
      "Vict": 4802,
      "hair": 4803,
      "mur": 4804,
      "##ees": 4805,
      "##ny": 4806,
      "##umed": 4807,
      "election": 4808,
      "begins": 4809,
      "cathedral": 4810,
      "Somers": 4811,
      "traditional": 4812,
      "Liverpool": 4813,
      "Lake": 4814,
      "Tw": 4815,
      "Tenn": 4816,
      "sal": 4817,
      "##rat": 4818,
      "##ental": 4819,
      "intell": 4820,
      "Three": 4821,
      "slight": 4822,
      "helped": 4823,
      "portr": 4824,
      "terms": 4825,
      "African": 4826,
      "Several": 4827,
      "Bob": 4828,
      "Fowler": 4829,
      "Lady": 4830,
      "Met": 4831,
      "Tre": 4832,
      "batter": 4833,
      "norm": 4834,
      "pil": 4835,
      "##house": 4836,
      "##II": 4837,
      "##aded": 4838,
      "sched": 4839,
      "scenes": 4840,
      "movement": 4841,
      "starting": 4842,
      "Spanish": 4843,
      "Christmas": 4844,
      "experi": 4845,
      "suffered": 4846,
      "inspired": 4847,
      "Somerset": 4848,
      "42": 4849,
      "90": 4850,
      "Nor": 4851,
      "Out": 4852,
      "cur": 4853,
      "giving": 4854,
      "path": 4855,
      "##itch": 4856,
      "##ada": 4857,
      "##cend": 4858,
      "health": 4859,
      "20th": 4860,
      "##eway": 4861,
      "figure": 4862,
      "associated": 4863,
      "source": 4864,
      "information": 4865,
      "planned": 4866,
      "Taylor": 4867,
      "husband": 4868,
      "##lin": 4869,
      "##bury": 4870,
      "##adm": 4871,
      "##anded": 4872,
      "plot": 4873,
      "closed": 4874,
      "abandon": 4875,
      "##ibly": 4876,
      "presented": 4877,
      "prevent": 4878,
      "marriage": 4879,
      "schools": 4880,
      "initial": 4881,
      "status": 4882,
      "Infantry": 4883,
      "Gar": 4884,
      "Just": 4885,
      "Lou": 4886,
      "Tour": 4887,
      "division": 4888,
      "raised": 4889,
      "room": 4890,
      "via": 4891,
      "##odon": 4892,
      "##ria": 4893,
      "##ify": 4894,
      "image": 4895,
      "##athan": 4896,
      "Franc": 4897,
      "presence": 4898,
      "transl": 4899,
      "condoms": 4900,
      "greatest": 4901,
      "machine": 4902,
      "Soviet": 4903,
      "Hum": 4904,
      "fell": 4905,
      "hundred": 4906,
      "pay": 4907,
      "wound": 4908,
      "##rical": 4909,
      "##ien": 4910,
      "##like": 4911,
      "##erve": 4912,
      "##isk": 4913,
      "##ican": 4914,
      "chall": 4915,
      "##pted": 4916,
      "unit": 4917,
      "##anger": 4918,
      "writers": 4919,
      "polic": 4920,
      "nearby": 4921,
      "continue": 4922,
      "annual": 4923,
      "attacks": 4924,
      "culture": 4925,
      "Form": 4926,
      "Jane": 4927,
      "Po": 4928,
      "Serv": 4929,
      "park": 4930,
      "talk": 4931,
      "##iated": 4932,
      "##ils": 4933,
      "##olf": 4934,
      "##essa": 4935,
      "Inn": 4936,
      "complex": 4937,
      "##ease": 4938,
      "Command": 4939,
      "collection": 4940,
      "covered": 4941,
      "cyclone": 4942,
      "Bas": 4943,
      "Che": 4944,
      "Cross": 4945,
      "Route": 4946,
      "Tem": 4947,
      "##ergy": 4948,
      "space": 4949,
      "enj": 4950,
      "composed": 4951,
      "##embly": 4952,
      "Paris": 4953,
      "Battle": 4954,
      "Series": 4955,
      "Party": 4956,
      "Rosebery": 4957,
      "Mill": 4958,
      "Ram": 4959,
      "hot": 4960,
      "##ires": 4961,
      "##imb": 4962,
      "really": 4963,
      "sev": 4964,
      "plat": 4965,
      "weap": 4966,
      "numerous": 4967,
      "##inner": 4968,
      "extended": 4969,
      "producer": 4970,
      "commander": 4971,
      "waters": 4972,
      "territory": 4973,
      "Queen": 4974,
      "##oncé": 4975,
      "Beyoncé": 4976,
      "Long": 4977,
      "##iny": 4978,
      "##atives": 4979,
      "things": 4980,
      "##uries": 4981,
      "##imony": 4982,
      "script": 4983,
      "uses": 4984,
      "Arch": 4985,
      "metal": 4986,
      "Germany": 4987,
      "##ipped": 4988,
      "something": 4989,
      "vocals": 4990,
      "Carolina": 4991,
      "Virginia": 4992,
      "Meyer": 4993,
      "Ill": 4994,
      "##án": 4995,
      "##atre": 4996,
      "##ether": 4997,
      "Their": 4998,
      "subject": 4999,
      "amount": 5000,
      "##iami": 5001,
      "financ": 5002,
      "services": 5003,
      "##mpire": 5004,
      "figures": 5005,
      "proteins": 5006,
      "necess": 5007,
      "Er": 5008,
      "Open": 5009,
      "har": 5010,
      "morning": 5011,
      "pick": 5012,
      "saf": 5013,
      "##ging": 5014,
      "##eign": 5015,
      "##sylv": 5016,
      "##estival": 5017,
      "promin": 5018,
      "incor": 5019,
      "highly": 5020,
      "strength": 5021,
      "operation": 5022,
      "attacked": 5023,
      "Second": 5024,
      "education": 5025,
      "Pennsylv": 5026,
      "text": 5027,
      "44": 5028,
      "Bol": 5029,
      "Games": 5030,
      "Jose": 5031,
      "bodies": 5032,
      "##rid": 5033,
      "prec": 5034,
      "artist": 5035,
      "artillery": 5036,
      "attempts": 5037,
      "archit": 5038,
      "speed": 5039,
      "confir": 5040,
      "investig": 5041,
      "immediately": 5042,
      "Miami": 5043,
      "Nations": 5044,
      "bad": 5045,
      "purs": 5046,
      "piano": 5047,
      "##och": 5048,
      "##pole": 5049,
      "##omer": 5050,
      "stone": 5051,
      "##apo": 5052,
      "##anta": 5053,
      "Through": 5054,
      "companies": 5055,
      "1997": 5056,
      "College": 5057,
      "allowing": 5058,
      "tracks": 5059,
      "powerful": 5060,
      "Somal": 5061,
      "kilomet": 5062,
      "Cer": 5063,
      "Pet": 5064,
      "dig": 5065,
      "kick": 5066,
      "rate": 5067,
      "tax": 5068,
      "##hold": 5069,
      "##lim": 5070,
      "##vement": 5071,
      "inside": 5072,
      "##isher": 5073,
      "spir": 5074,
      "##iple": 5075,
      "##ricket": 5076,
      "offered": 5077,
      "##oint": 5078,
      "secret": 5079,
      "blood": 5080,
      "variety": 5081,
      "Museum": 5082,
      "situation": 5083,
      "friends": 5084,
      "needed": 5085,
      "nuclear": 5086,
      "peaked": 5087,
      "selected": 5088,
      "purp": 5089,
      "removed": 5090,
      "susp": 5091,
      "##admium": 5092,
      "Both": 5093,
      "Dam": 5094,
      "Six": 5095,
      "native": 5096,
      "search": 5097,
      "##adium": 5098,
      "##rovers": 5099,
      "concept": 5100,
      "##aine": 5101,
      "182": 5102,
      "##izing": 5103,
      "means": 5104,
      "symb": 5105,
      "coach": 5106,
      "distance": 5107,
      "headquarters": 5108,
      "oppos": 5109,
      "copies": 5110,
      "##track": 5111,
      "Scotland": 5112,
      "Victor": 5113,
      "Li": 5114,
      "Los": 5115,
      "Sir": 5116,
      "Water": 5117,
      "##ademy": 5118,
      "##andid": 5119,
      "ang": 5120,
      "scoring": 5121,
      "Colon": 5122,
      "hands": 5123,
      "attempted": 5124,
      "casual": 5125,
      "sexual": 5126,
      "widely": 5127,
      "responsible": 5128,
      "Squadron": 5129,
      "respectively": 5130,
      "Alex": 5131,
      "Dem": 5132,
      "max": 5133,
      "##rol": 5134,
      "##oration": 5135,
      "##ening": 5136,
      "##overs": 5137,
      "China": 5138,
      "grand": 5139,
      "##annel": 5140,
      "sets": 5141,
      "##rowd": 5142,
      "extrem": 5143,
      "describes": 5144,
      "countries": 5145,
      "genus": 5146,
      "Jackson": 5147,
      "higher": 5148,
      "touchdown": 5149,
      "Department": 5150,
      "##aped": 5151,
      "recover": 5152,
      "constit": 5153,
      "Chris": 5154,
      "Anderson": 5155,
      "course": 5156,
      "middle": 5157,
      "magn": 5158,
      "observed": 5159,
      "heavily": 5160,
      "Pennsylvania": 5161,
      "51": 5162,
      "Bet": 5163,
      "Cont": 5164,
      "ben": 5165,
      "ess": 5166,
      "fill": 5167,
      "xenon": 5168,
      "##aen": 5169,
      "##arp": 5170,
      "##ado": 5171,
      "##rial": 5172,
      "##ift": 5173,
      "seem": 5174,
      "##send": 5175,
      "display": 5176,
      "studies": 5177,
      "performances": 5178,
      "below": 5179,
      "reduced": 5180,
      "##shire": 5181,
      "meeting": 5182,
      "Braat": 5183,
      "Football": 5184,
      "enjoy": 5185,
      "37": 5186,
      "Time": 5187,
      "rule": 5188,
      "relief": 5189,
      "canc": 5190,
      "1991": 5191,
      "active": 5192,
      "interact": 5193,
      "blue": 5194,
      "matches": 5195,
      "sixth": 5196,
      "Club": 5197,
      "resulted": 5198,
      "opportun": 5199,
      "Young": 5200,
      "Corps": 5201,
      "administ": 5202,
      "audience": 5203,
      "concluded": 5204,
      "48": 5205,
      "Are": 5206,
      "Like": 5207,
      "Nes": 5208,
      "Rad": 5209,
      "corn": 5210,
      "hour": 5211,
      "##light": 5212,
      "##uated": 5213,
      "##arrow": 5214,
      "stay": 5215,
      "true": 5216,
      "1992": 5217,
      "singer": 5218,
      "advant": 5219,
      "advance": 5220,
      "completely": 5221,
      "Smith": 5222,
      "76": 5223,
      "Av": 5224,
      "Cons": 5225,
      "Jim": 5226,
      "Land": 5227,
      "cer": 5228,
      "dress": 5229,
      "pu": 5230,
      "##esota": 5231,
      "##room": 5232,
      "##iron": 5233,
      "stating": 5234,
      "##utch": 5235,
      "##ulations": 5236,
      "disapp": 5237,
      "managed": 5238,
      "##ype": 5239,
      "instit": 5240,
      "revealed": 5241,
      "question": 5242,
      "contemporary": 5243,
      "Minnesota": 5244,
      "3rd": 5245,
      "AI": 5246,
      "Hear": 5247,
      "paper": 5248,
      "ver": 5249,
      "wing": 5250,
      "##ena": 5251,
      "##enge": 5252,
      "##akapo": 5253,
      "1994": 5254,
      "appearances": 5255,
      "entr": 5256,
      "drum": 5257,
      "refused": 5258,
      "levels": 5259,
      "Center": 5260,
      "declared": 5261,
      "trees": 5262,
      "separate": 5263,
      "Green": 5264,
      "Jul": 5265,
      "Live": 5266,
      "Pit": 5267,
      "narr": 5268,
      "##hew": 5269,
      "intern": 5270,
      "##isl": 5271,
      "##isation": 5272,
      "##acher": 5273,
      "##essions": 5274,
      "controvers": 5275,
      "##athus": 5276,
      "Sea": 5277,
      "brown": 5278,
      "Force": 5279,
      "approach": 5280,
      "activity": 5281,
      "Townsend": 5282,
      "quality": 5283,
      "Hawai": 5284,
      "Because": 5285,
      "Italian": 5286,
      "Meyerbe": 5287,
      "Ka": 5288,
      "era": 5289,
      "habit": 5290,
      "lot": 5291,
      "##ding": 5292,
      "##yr": 5293,
      "##bird": 5294,
      "##umber": 5295,
      "recent": 5296,
      "university": 5297,
      "Thunder": 5298,
      "appar": 5299,
      "graph": 5300,
      "syn": 5301,
      "150": 5302,
      "parents": 5303,
      "carry": 5304,
      "featuring": 5305,
      "respond": 5306,
      "typically": 5307,
      "historical": 5308,
      "vocal": 5309,
      "Walpole": 5310,
      "Meyerbeer": 5311,
      "Hind": 5312,
      "Tessa": 5313,
      "aw": 5314,
      "chem": 5315,
      "pun": 5316,
      "rhy": 5317,
      "walk": 5318,
      "##hood": 5319,
      "##ād": 5320,
      "inters": 5321,
      "##asc": 5322,
      "##stone": 5323,
      "beat": 5324,
      "##ocr": 5325,
      "##rawn": 5326,
      "displ": 5327,
      "plays": 5328,
      "webs": 5329,
      "peace": 5330,
      "actions": 5331,
      "emot": 5332,
      "expected": 5333,
      "model": 5334,
      "Trans": 5335,
      "vehic": 5336,
      "52": 5337,
      "Final": 5338,
      "Southern": 5339,
      "Yue": 5340,
      "fear": 5341,
      "iron": 5342,
      "rout": 5343,
      "##ux": 5344,
      "##FA": 5345,
      "##ingu": 5346,
      "today": 5347,
      "##lean": 5348,
      "##eman": 5349,
      "##ogue": 5350,
      "##peror": 5351,
      "becomes": 5352,
      "attention": 5353,
      "weaken": 5354,
      "Arg": 5355,
      "mainly": 5356,
      "conditions": 5357,
      "Charl": 5358,
      "houses": 5359,
      "Nicole": 5360,
      "34": 5361,
      "Fur": 5362,
      "Midd": 5363,
      "Sar": 5364,
      "crowd": 5365,
      "du": 5366,
      "nation": 5367,
      "royal": 5368,
      "wear": 5369,
      "inh": 5370,
      "thr": 5371,
      "##road": 5372,
      "##emic": 5373,
      "##estic": 5374,
      "##ipl": 5375,
      "offer": 5376,
      "Shiva": 5377,
      "1970": 5378,
      "instr": 5379,
      "##inkel": 5380,
      "famil": 5381,
      "##ograph": 5382,
      "activities": 5383,
      "Om": 5384,
      "Wild": 5385,
      "ir": 5386,
      "sn": 5387,
      "sense": 5388,
      "recomm": 5389,
      "actually": 5390,
      "specim": 5391,
      "calling": 5392,
      "##aha": 5393,
      "Blue": 5394,
      "condom": 5395,
      "elev": 5396,
      "demonst": 5397,
      "soundtrack": 5398,
      "protein": 5399,
      "Society": 5400,
      "Illino": 5401,
      "Braathens": 5402,
      "Cast": 5403,
      "Tod": 5404,
      "Tropical": 5405,
      "board": 5406,
      "overs": 5407,
      "##aise": 5408,
      "##iro": 5409,
      "##MS": 5410,
      "##onents": 5411,
      "##ams": 5412,
      "alt": 5413,
      "altern": 5414,
      "##oses": 5415,
      "##appen": 5416,
      "suc": 5417,
      "residents": 5418,
      "seasons": 5419,
      "write": 5420,
      "defend": 5421,
      "Ann": 5422,
      "issues": 5423,
      "strugg": 5424,
      "struck": 5425,
      "achieved": 5426,
      "Ottoman": 5427,
      "cannot": 5428,
      "Court": 5429,
      "architect": 5430,
      "Balt": 5431,
      "Cat": 5432,
      "Finkel": 5433,
      "Lar": 5434,
      "Turn": 5435,
      "nin": 5436,
      "##bon": 5437,
      "thous": 5438,
      "##ette": 5439,
      "fruit": 5440,
      "##essor": 5441,
      "##berg": 5442,
      "resc": 5443,
      "##ounds": 5444,
      "scient": 5445,
      "shell": 5446,
      "##ocks": 5447,
      "##ledge": 5448,
      "Johnson": 5449,
      "efforts": 5450,
      "Add": 5451,
      "Hait": 5452,
      "##tainment": 5453,
      "##oof": 5454,
      "accepted": 5455,
      "##ufact": 5456,
      "reinfor": 5457,
      "Finkelstein": 5458,
      "Bre": 5459,
      "Fey": 5460,
      "Of": 5461,
      "lb": 5462,
      "rough": 5463,
      "roles": 5464,
      "##BA": 5465,
      "##utions": 5466,
      "##eller": 5467,
      "##irection": 5468,
      "##ension": 5469,
      "distinct": 5470,
      "Clark": 5471,
      "Spain": 5472,
      "Columb": 5473,
      "titles": 5474,
      "types": 5475,
      "avoid": 5476,
      "infantry": 5477,
      "primarily": 5478,
      "practice": 5479,
      "Burn": 5480,
      "Group": 5481,
      "Hal": 5482,
      "Little": 5483,
      "Mog": 5484,
      "mel": 5485,
      "##wen": 5486,
      "##iles": 5487,
      "spread": 5488,
      "##orship": 5489,
      "musc": 5490,
      "background": 5491,
      "elected": 5492,
      "owned": 5493,
      "twenty": 5494,
      "Highway": 5495,
      "slightly": 5496,
      "Tint": 5497,
      "dyn": 5498,
      "##iled": 5499,
      "heart": 5500,
      "sust": 5501,
      "plant": 5502,
      "inches": 5503,
      "contrib": 5504,
      "181": 5505,
      "scale": 5506,
      "1986": 5507,
      "concent": 5508,
      "county": 5509,
      "##echan": 5510,
      "legal": 5511,
      "northeast": 5512,
      "combat": 5513,
      "##ceeded": 5514,
      "Captain": 5515,
      "Vietnam": 5516,
      "expressed": 5517,
      "Portugues": 5518,
      "Louis": 5519,
      "Fer": 5520,
      "Sarn": 5521,
      "Wels": 5522,
      "cam": 5523,
      "farm": 5524,
      "fiction": 5525,
      "rights": 5526,
      "sout": 5527,
      "sales": 5528,
      "sister": 5529,
      "words": 5530,
      "##mond": 5531,
      "##ka": 5532,
      "##AA": 5533,
      "##ushed": 5534,
      "rear": 5535,
      "sport": 5536,
      "Storm": 5537,
      "scul": 5538,
      "showed": 5539,
      "neigh": 5540,
      "affected": 5541,
      "Secret": 5542,
      "sequence": 5543,
      "Academy": 5544,
      "##onymous": 5545,
      "Service": 5546,
      "Portuguese": 5547,
      "Def": 5548,
      "Horse": 5549,
      "Kn": 5550,
      "er": 5551,
      "mis": 5552,
      "##bed": 5553,
      "forest": 5554,
      "##ortal": 5555,
      "##ella": 5556,
      "ability": 5557,
      "Though": 5558,
      "180": 5559,
      "offensive": 5560,
      "Engine": 5561,
      "contrast": 5562,
      "officer": 5563,
      "Prince": 5564,
      "battalion": 5565,
      "combined": 5566,
      "newspaper": 5567,
      "Nesb": 5568,
      "Tintin": 5569,
      "Welsh": 5570,
      "Dou": 5571,
      "Lock": 5572,
      "Manc": 5573,
      "Zhou": 5574,
      "mess": 5575,
      "##mitted": 5576,
      "##ys": 5577,
      "##orus": 5578,
      "##enant": 5579,
      "##ompl": 5580,
      "##astic": 5581,
      "##ervation": 5582,
      "titled": 5583,
      "excav": 5584,
      "Varanas": 5585,
      "incorpor": 5586,
      "casualties": 5587,
      "Varanasi": 5588,
      "49": 5589,
      "Book": 5590,
      "Empire": 5591,
      "Sil": 5592,
      "Tri": 5593,
      "Yank": 5594,
      "ple": 5595,
      "says": 5596,
      "##met": 5597,
      "reign": 5598,
      "##ovic": 5599,
      "remark": 5600,
      "grass": 5601,
      "##anning": 5602,
      "continues": 5603,
      "Adm": 5604,
      "produce": 5605,
      "Andrew": 5606,
      "cultural": 5607,
      "earliest": 5608,
      "mountain": 5609,
      "##while": 5610,
      "Government": 5611,
      "Angeles": 5612,
      "mentioned": 5613,
      "ancient": 5614,
      "Ceres": 5615,
      "cerem": 5616,
      "Nesbitt": 5617,
      "Ros": 5618,
      "fully": 5619,
      "horse": 5620,
      "narrow": 5621,
      "ox": 5622,
      "##uous": 5623,
      "##br": 5624,
      "actor": 5625,
      "artists": 5626,
      "Conf": 5627,
      "resulting": 5628,
      "deliv": 5629,
      "authorities": 5630,
      "influenced": 5631,
      "flooding": 5632,
      "Odaen": 5633,
      "adopted": 5634,
      "murder": 5635,
      "Civil": 5636,
      "Mat": 5637,
      "mission": 5638,
      "wild": 5639,
      "##inus": 5640,
      "##ano": 5641,
      "1990": 5642,
      "assault": 5643,
      "basis": 5644,
      "Commun": 5645,
      "represented": 5646,
      "Eva": 5647,
      "##ironment": 5648,
      "Sarnia": 5649,
      "Odaenathus": 5650,
      "Boy": 5651,
      "Sen": 5652,
      "Way": 5653,
      "bott": 5654,
      "mile": 5655,
      "sides": 5656,
      "##lings": 5657,
      "##St": 5658,
      "##ora": 5659,
      "toward": 5660,
      "thir": 5661,
      "##acts": 5662,
      "reports": 5663,
      "alone": 5664,
      "##oper": 5665,
      "coming": 5666,
      "championship": 5667,
      "exhib": 5668,
      "spl": 5669,
      "disease": 5670,
      "manufact": 5671,
      "News": 5672,
      "##ancy": 5673,
      "begin": 5674,
      "viewers": 5675,
      "square": 5676,
      "Apple": 5677,
      "withdraw": 5678,
      "tower": 5679,
      "advantage": 5680,
      "Illinois": 5681,
      "Mogad": 5682,
      "65": 5683,
      "Jos": 5684,
      "NC": 5685,
      "SR": 5686,
      "candid": 5687,
      "direction": 5688,
      "hol": 5689,
      "kakapo": 5690,
      "nest": 5691,
      "rat": 5692,
      "vo": 5693,
      "yellow": 5694,
      "##rane": 5695,
      "##mark": 5696,
      "##Mont": 5697,
      "##onna": 5698,
      "##ares": 5699,
      "##ications": 5700,
      "##ura": 5701,
      "##olec": 5702,
      "##use": 5703,
      "armed": 5704,
      "relatively": 5705,
      "18th": 5706,
      "workers": 5707,
      "founded": 5708,
      "bridge": 5709,
      "alongside": 5710,
      "occasion": 5711,
      "effort": 5712,
      "northwest": 5713,
      "Week": 5714,
      "encour": 5715,
      "DuMont": 5716,
      "Olympic": 5717,
      "torped": 5718,
      "Thunderbird": 5719,
      "Manchester": 5720,
      "Dist": 5721,
      "Ocean": 5722,
      "Rh": 5723,
      "Wash": 5724,
      "cadmium": 5725,
      "hors": 5726,
      "losing": 5727,
      "mechan": 5728,
      "rang": 5729,
      "sac": 5730,
      "contain": 5731,
      "##olling": 5732,
      "adj": 5733,
      "attended": 5734,
      "themes": 5735,
      "Att": 5736,
      "emph": 5737,
      "officially": 5738,
      "impact": 5739,
      "##helm": 5740,
      "tried": 5741,
      "organized": 5742,
      "Perón": 5743,
      "individuals": 5744,
      "illust": 5745,
      "transferred": 5746,
      "physical": 5747,
      "tournament": 5748,
      "Direct": 5749,
      "Horn": 5750,
      "Major": 5751,
      "ast": 5752,
      "##aith": 5753,
      "##bit": 5754,
      "##bour": 5755,
      "insc": 5756,
      "##ulate": 5757,
      "proved": 5758,
      "##istics": 5759,
      "univers": 5760,
      "perman": 5761,
      "1988": 5762,
      "Spec": 5763,
      "capture": 5764,
      "Records": 5765,
      "officials": 5766,
      "surrounding": 5767,
      "rainfall": 5768,
      "dedicated": 5769,
      "46": 5770,
      "Bh": 5771,
      "Bon": 5772,
      "Kent": 5773,
      "Van": 5774,
      "##kare": 5775,
      "##adel": 5776,
      "##ims": 5777,
      "##abama": 5778,
      "##iana": 5779,
      "energy": 5780,
      "Alabama": 5781,
      "doing": 5782,
      "suppl": 5783,
      "##eball": 5784,
      "neut": 5785,
      "edge": 5786,
      "require": 5787,
      "pattern": 5788,
      "letters": 5789,
      "measure": 5790,
      "Joseph": 5791,
      "Lord": 5792,
      "MD": 5793,
      "Max": 5794,
      "feder": 5795,
      "lives": 5796,
      "mind": 5797,
      "wa": 5798,
      "##sen": 5799,
      "##ply": 5800,
      "##writ": 5801,
      "##igan": 5802,
      "chief": 5803,
      "shape": 5804,
      "##acks": 5805,
      "##izes": 5806,
      "##ricult": 5807,
      "##ibr": 5808,
      "acting": 5809,
      "defense": 5810,
      "follows": 5811,
      "designated": 5812,
      "possibly": 5813,
      "shortly": 5814,
      "Prot": 5815,
      "Edward": 5816,
      "divided": 5817,
      "Mean": 5818,
      "dissip": 5819,
      "intensity": 5820,
      "conflict": 5821,
      "Turk": 5822,
      "financial": 5823,
      "Omaha": 5824,
      "Mogadish": 5825,
      "Washington": 5826,
      "64": 5827,
      "Home": 5828,
      "border": 5829,
      "faced": 5830,
      "folk": 5831,
      "paid": 5832,
      "your": 5833,
      "##iate": 5834,
      "##lers": 5835,
      "##kn": 5836,
      "##ban": 5837,
      "##ping": 5838,
      "##RA": 5839,
      "##edar": 5840,
      "##itness": 5841,
      "##rec": 5842,
      "albums": 5843,
      "1960s": 5844,
      "simply": 5845,
      "edition": 5846,
      "older": 5847,
      "legisl": 5848,
      "repe": 5849,
      "winter": 5850,
      "function": 5851,
      "letter": 5852,
      "Review": 5853,
      "Helms": 5854,
      "eye": 5855,
      "determined": 5856,
      "maximum": 5857,
      "Argent": 5858,
      "Mogadishu": 5859,
      "Cra": 5860,
      "Fant": 5861,
      "Journ": 5862,
      "Lo": 5863,
      "Lis": 5864,
      "Pop": 5865,
      "aid": 5866,
      "master": 5867,
      "raid": 5868,
      "##ij": 5869,
      "##uce": 5870,
      "##ols": 5871,
      "onto": 5872,
      "comedy": 5873,
      "places": 5874,
      "advert": 5875,
      "agg": 5876,
      "movie": 5877,
      "1940": 5878,
      "broken": 5879,
      "color": 5880,
      "portion": 5881,
      "society": 5882,
      "kept": 5883,
      "doub": 5884,
      "McCall": 5885,
      "piece": 5886,
      "potential": 5887,
      "journal": 5888,
      "Innis": 5889,
      "emphas": 5890,
      "Dest": 5891,
      "Mass": 5892,
      "Sum": 5893,
      "##wide": 5894,
      "##inary": 5895,
      "##enture": 5896,
      "stra": 5897,
      "##imore": 5898,
      "##gend": 5899,
      "images": 5900,
      "charge": 5901,
      "1980s": 5902,
      "##azz": 5903,
      "Commission": 5904,
      "product": 5905,
      "Early": 5906,
      "argued": 5907,
      "Wilhelm": 5908,
      "domestic": 5909,
      "Bowl": 5910,
      "Four": 5911,
      "Fleet": 5912,
      "Hu": 5913,
      "Prem": 5914,
      "Rih": 5915,
      "dut": 5916,
      "grew": 5917,
      "hom": 5918,
      "##VD": 5919,
      "##isters": 5920,
      "step": 5921,
      "##agan": 5922,
      "##udd": 5923,
      "spot": 5924,
      "content": 5925,
      "##ugby": 5926,
      "depth": 5927,
      "suggests": 5928,
      "behav": 5929,
      "authority": 5930,
      "equip": 5931,
      "PlaySt": 5932,
      "Valley": 5933,
      "Rihanna": 5934,
      "PlayStation": 5935,
      "53": 5936,
      "55": 5937,
      "Bu": 5938,
      "FA": 5939,
      "Fam": 5940,
      "Good": 5941,
      "Ven": 5942,
      "fung": 5943,
      "gained": 5944,
      "homes": 5945,
      "paint": 5946,
      "say": 5947,
      "wor": 5948,
      "conver": 5949,
      "##osen": 5950,
      "share": 5951,
      "##asty": 5952,
      "attend": 5953,
      "weak": 5954,
      "extra": 5955,
      "1964": 5956,
      "artic": 5957,
      "belong": 5958,
      "##engt": 5959,
      "causing": 5960,
      "twice": 5961,
      "Assembly": 5962,
      "criticized": 5963,
      "sites": 5964,
      "couple": 5965,
      "Palest": 5966,
      "sources": 5967,
      "ultimately": 5968,
      "target": 5969,
      "schedul": 5970,
      "entrance": 5971,
      "website": 5972,
      "sculpt": 5973,
      "5th": 5974,
      "Bir": 5975,
      "Jup": 5976,
      "Lew": 5977,
      "Lev": 5978,
      "Post": 5979,
      "Sky": 5980,
      "hospital": 5981,
      "mouth": 5982,
      "pan": 5983,
      "sens": 5984,
      "tur": 5985,
      "vess": 5986,
      "##mon": 5987,
      "##che": 5988,
      "##bl": 5989,
      "##ety": 5990,
      "##acement": 5991,
      "##umes": 5992,
      "deploy": 5993,
      "##istry": 5994,
      "shr": 5995,
      "prison": 5996,
      "containing": 5997,
      "appeal": 5998,
      "Arm": 5999,
      "Anth": 6000,
      "depart": 6001,
      "debuted": 6002,
      "management": 6003,
      "structures": 6004,
      "Hamels": 6005,
      "Djed": 6006,
      "dismiss": 6007,
      "Fin": 6008,
      "core": 6009,
      "cities": 6010,
      "fast": 6011,
      "hers": 6012,
      "hun": 6013,
      "kg": 6014,
      "wave": 6015,
      "##rel": 6016,
      "foreign": 6017,
      "frag": 6018,
      "projects": 6019,
      "chosen": 6020,
      "defence": 6021,
      "museum": 6022,
      "1947": 6023,
      "Constant": 6024,
      "Common": 6025,
      "phil": 6026,
      "opin": 6027,
      "document": 6028,
      "label": 6029,
      "Djedkare": 6030,
      "56": 6031,
      "DVD": 6032,
      "Jon": 6033,
      "Night": 6034,
      "Nev": 6035,
      "Pen": 6036,
      "fix": 6037,
      "##ati": 6038,
      "##iced": 6039,
      "rejected": 6040,
      "##aved": 6041,
      "Ste": 6042,
      "Step": 6043,
      "science": 6044,
      "##prise": 6045,
      "security": 6046,
      "consecutive": 6047,
      "formation": 6048,
      "defensive": 6049,
      "120": 6050,
      "miner": 6051,
      "brigade": 6052,
      "collabor": 6053,
      "battles": 6054,
      "standing": 6055,
      "reference": 6056,
      "planet": 6057,
      "growing": 6058,
      "buried": 6059,
      "hyd": 6060,
      "Torres": 6061,
      "independent": 6062,
      "granted": 6063,
      "intellig": 6064,
      "abandoned": 6065,
      "prominent": 6066,
      "Baltimore": 6067,
      "##known": 6068,
      "43": 6069,
      "Gall": 6070,
      "Hib": 6071,
      "Kar": 6072,
      "Kore": 6073,
      "cricket": 6074,
      "diam": 6075,
      "ro": 6076,
      "sand": 6077,
      "ven": 6078,
      "##rain": 6079,
      "##nes": 6080,
      "##ners": 6081,
      "##atur": 6082,
      "inch": 6083,
      "##ocated": 6084,
      "seek": 6085,
      "results": 6086,
      "Once": 6087,
      "weight": 6088,
      "remix": 6089,
      "##icks": 6090,
      "Short": 6091,
      "therefore": 6092,
      "student": 6093,
      "poly": 6094,
      "condition": 6095,
      "visited": 6096,
      "##ographer": 6097,
      "organization": 6098,
      "temple": 6099,
      "orders": 6100,
      "animal": 6101,
      "Histor": 6102,
      "benef": 6103,
      "Jupiter": 6104,
      "Bull": 6105,
      "BBC": 6106,
      "Eastern": 6107,
      "Op": 6108,
      "Ox": 6109,
      "mic": 6110,
      "risk": 6111,
      "newly": 6112,
      "regions": 6113,
      "interp": 6114,
      "seconds": 6115,
      "doct": 6116,
      "1941": 6117,
      "Independ": 6118,
      "broke": 6119,
      "colony": 6120,
      "claims": 6121,
      "##white": 6122,
      "Scottish": 6123,
      "wounded": 6124,
      "Applewhite": 6125,
      "##engthen": 6126,
      "End": 6127,
      "Jur": 6128,
      "SAF": 6129,
      "ahead": 6130,
      "##iot": 6131,
      "##mosp": 6132,
      "##cy": 6133,
      "##iring": 6134,
      "reaching": 6135,
      "height": 6136,
      "seems": 6137,
      "hero": 6138,
      "enemy": 6139,
      "weather": 6140,
      "##phia": 6141,
      "singles": 6142,
      "convers": 6143,
      "solo": 6144,
      "cases": 6145,
      "favour": 6146,
      "identified": 6147,
      "nominated": 6148,
      "temperature": 6149,
      "moment": 6150,
      "##adelphia": 6151,
      "equipment": 6152,
      "SAFE": 6153,
      "Due": 6154,
      "Id": 6155,
      "Norm": 6156,
      "bud": 6157,
      "council": 6158,
      "la": 6159,
      "males": 6160,
      "rare": 6161,
      "tun": 6162,
      "##ias": 6163,
      "##han": 6164,
      "##asters": 6165,
      "##icts": 6166,
      "Institute": 6167,
      "excl": 6168,
      "spect": 6169,
      "contact": 6170,
      "unique": 6171,
      "##airs": 6172,
      "1989": 6173,
      "aired": 6174,
      "returning": 6175,
      "supporting": 6176,
      "element": 6177,
      "opposed": 6178,
      "Orig": 6179,
      "Airport": 6180,
      "##ushing": 6181,
      "knowledge": 6182,
      "cells": 6183,
      "Egyptian": 6184,
      "41": 6185,
      "9th": 6186,
      "Each": 6187,
      "Greek": 6188,
      "Ry": 6189,
      "So": 6190,
      "cust": 6191,
      "fox": 6192,
      "jump": 6193,
      "roll": 6194,
      "##eer": 6195,
      "##ML": 6196,
      "##rete": 6197,
      "atmosp": 6198,
      "fired": 6199,
      "unknown": 6200,
      "teacher": 6201,
      "Carl": 6202,
      "address": 6203,
      "1985": 6204,
      "1970s": 6205,
      "operated": 6206,
      "Forest": 6207,
      "visual": 6208,
      "looking": 6209,
      "problem": 6210,
      "devot": 6211,
      "increasingly": 6212,
      "scholars": 6213,
      "environment": 6214,
      "straight": 6215,
      "4th": 6216,
      "Ban": 6217,
      "Field": 6218,
      "Kir": 6219,
      "RA": 6220,
      "Us": 6221,
      "boy": 6222,
      "here": 6223,
      "molec": 6224,
      "rom": 6225,
      "trou": 6226,
      "##uge": 6227,
      "##nest": 6228,
      "theory": 6229,
      "##ero": 6230,
      "##ishes": 6231,
      "##ases": 6232,
      "##stream": 6233,
      "##amic": 6234,
      "Head": 6235,
      "perfect": 6236,
      "compr": 6237,
      "writes": 6238,
      "defin": 6239,
      "1984": 6240,
      "1972": 6241,
      "distrib": 6242,
      "ideas": 6243,
      "Before": 6244,
      "believe": 6245,
      "breeding": 6246,
      "explained": 6247,
      "commonly": 6248,
      "historian": 6249,
      "settlement": 6250,
      "Swed": 6251,
      "burns": 6252,
      "Croatia": 6253,
      "confirmed": 6254,
      "Further": 6255,
      "Even": 6256,
      "Les": 6257,
      "Mike": 6258,
      "Vill": 6259,
      "od": 6260,
      "oil": 6261,
      "tim": 6262,
      "##mun": 6263,
      "##can": 6264,
      "##inem": 6265,
      "##icient": 6266,
      "alter": 6267,
      "consisted": 6268,
      "##resp": 6269,
      "singing": 6270,
      "1987": 6271,
      "landfall": 6272,
      "advanced": 6273,
      "request": 6274,
      "females": 6275,
      "Morr": 6276,
      "economic": 6277,
      "controlled": 6278,
      "herself": 6279,
      "Hart": 6280,
      "Meg": 6281,
      "Wat": 6282,
      "happen": 6283,
      "pict": 6284,
      "##more": 6285,
      "##hu": 6286,
      "##Le": 6287,
      "##ala": 6288,
      "##alions": 6289,
      "##alty": 6290,
      "##elop": 6291,
      "##aming": 6292,
      "##add": 6293,
      "stations": 6294,
      "##ighth": 6295,
      "imag": 6296,
      "Only": 6297,
      "flow": 6298,
      "parliament": 6299,
      "leader": 6300,
      "Indust": 6301,
      "lands": 6302,
      "130": 6303,
      "systems": 6304,
      "campus": 6305,
      "##appy": 6306,
      "Williams": 6307,
      "Mounted": 6308,
      "Keats": 6309,
      "Philadelphia": 6310,
      "Congress": 6311,
      "Cardiff": 6312,
      "pieces": 6313,
      "Middle": 6314,
      "Meanwhile": 6315,
      "57": 6316,
      "Big": 6317,
      "Dani": 6318,
      "Dutch": 6319,
      "Fri": 6320,
      "Gard": 6321,
      "Lu": 6322,
      "fict": 6323,
      "ge": 6324,
      "mob": 6325,
      "##right": 6326,
      "##een": 6327,
      "##ych": 6328,
      "deities": 6329,
      "##illo": 6330,
      "Stan": 6331,
      "Child": 6332,
      "resemb": 6333,
      "compar": 6334,
      "filmed": 6335,
      "maintained": 6336,
      "1944": 6337,
      "exped": 6338,
      "Conn": 6339,
      "killing": 6340,
      "Barrow": 6341,
      "speak": 6342,
      "pitched": 6343,
      "growth": 6344,
      "honor": 6345,
      "property": 6346,
      "semi": 6347,
      "54": 6348,
      "600": 6349,
      "Matt": 6350,
      "Writ": 6351,
      "bit": 6352,
      "mist": 6353,
      "sen": 6354,
      "tact": 6355,
      "tail": 6356,
      "task": 6357,
      "wr": 6358,
      "##ao": 6359,
      "##inity": 6360,
      "##eck": 6361,
      "##ider": 6362,
      "##antly": 6363,
      "try": 6364,
      "serve": 6365,
      "##weet": 6366,
      "##awa": 6367,
      "retired": 6368,
      "actress": 6369,
      "elim": 6370,
      "##fully": 6371,
      "km2": 6372,
      "matter": 6373,
      "Guard": 6374,
      "versions": 6375,
      "freeway": 6376,
      "boats": 6377,
      "religion": 6378,
      "promoted": 6379,
      "strike": 6380,
      "mounted": 6381,
      "flying": 6382,
      "dropped": 6383,
      "failure": 6384,
      "Steve": 6385,
      "Jeff": 6386,
      "rapidly": 6387,
      "battery": 6388,
      "weapons": 6389,
      "Addition": 6390,
      "horses": 6391,
      "federal": 6392,
      "Bost": 6393,
      "Dun": 6394,
      "HMS": 6395,
      "Rog": 6396,
      "clean": 6397,
      "rob": 6398,
      "selling": 6399,
      "ut": 6400,
      "##ca": 6401,
      "##fort": 6402,
      "chair": 6403,
      "##ieut": 6404,
      "Italy": 6405,
      "##ampion": 6406,
      "flank": 6407,
      "1990s": 6408,
      "invasion": 6409,
      "1960": 6410,
      "creation": 6411,
      "column": 6412,
      "passes": 6413,
      "passing": 6414,
      "guest": 6415,
      "restaur": 6416,
      "Andy": 6417,
      "Abu": 6418,
      "criticism": 6419,
      "significantly": 6420,
      "cougar": 6421,
      "value": 6422,
      "connected": 6423,
      "strik": 6424,
      "recognized": 6425,
      "creating": 6426,
      "Minister": 6427,
      "multiple": 6428,
      "injury": 6429,
      "prepared": 6430,
      "premi": 6431,
      "accompan": 6432,
      "Der": 6433,
      "Key": 6434,
      "bid": 6435,
      "big": 6436,
      "bank": 6437,
      "bats": 6438,
      "ham": 6439,
      "sought": 6440,
      "##haps": 6441,
      "##ese": 6442,
      "##itable": 6443,
      "chose": 6444,
      "##ips": 6445,
      "strengthen": 6446,
      "colour": 6447,
      "famous": 6448,
      "##ashion": 6449,
      "Conference": 6450,
      "starts": 6451,
      "##chers": 6452,
      "volume": 6453,
      "walls": 6454,
      "regarded": 6455,
      "silver": 6456,
      "aspects": 6457,
      "analysis": 6458,
      "seventh": 6459,
      "necessary": 6460,
      "scheduled": 6461,
      "96": 6462,
      "Ast": 6463,
      "Ari": 6464,
      "Liber": 6465,
      "awards": 6466,
      "data": 6467,
      "gather": 6468,
      "laid": 6469,
      "mo": 6470,
      "virt": 6471,
      "##sw": 6472,
      "##load": 6473,
      "##render": 6474,
      "beaut": 6475,
      "##ersey": 6476,
      "conce": 6477,
      "##agement": 6478,
      "Inst": 6479,
      "send": 6480,
      "##ieval": 6481,
      "agricult": 6482,
      "Americans": 6483,
      "landing": 6484,
      "producers": 6485,
      "##heless": 6486,
      "publication": 6487,
      "belief": 6488,
      "popularity": 6489,
      "##arrison": 6490,
      "literature": 6491,
      "Operation": 6492,
      "nucleus": 6493,
      "sustained": 6494,
      "Ap": 6495,
      "Coll": 6496,
      "Cold": 6497,
      "Do": 6498,
      "Den": 6499,
      "Gh": 6500,
      "Gord": 6501,
      "Gulf": 6502,
      "Ll": 6503,
      "Line": 6504,
      "dated": 6505,
      "fought": 6506,
      "outer": 6507,
      "rival": 6508,
      "##hm": 6509,
      "##ns": 6510,
      "##isy": 6511,
      "##standing": 6512,
      "##olved": 6513,
      "##unic": 6514,
      "##alls": 6515,
      "spring": 6516,
      "##ocked": 6517,
      "##amese": 6518,
      "USA": 6519,
      "drive": 6520,
      "humans": 6521,
      "Among": 6522,
      "castle": 6523,
      "promotion": 6524,
      "employed": 6525,
      "budget": 6526,
      "Bur": 6527,
      "Dis": 6528,
      "Haven": 6529,
      "Naz": 6530,
      "Nathan": 6531,
      "Sub": 6532,
      "Sund": 6533,
      "pul": 6534,
      "rating": 6535,
      "rise": 6536,
      "save": 6537,
      "tree": 6538,
      "##kin": 6539,
      "##heastern": 6540,
      "##ini": 6541,
      "##onent": 6542,
      "##aria": 6543,
      "train": 6544,
      "contained": 6545,
      "arms": 6546,
      "##ansion": 6547,
      "underground": 6548,
      "##hips": 6549,
      "ends": 6550,
      "##ologists": 6551,
      "##insula": 6552,
      "phase": 6553,
      "Pho": 6554,
      "Michigan": 6555,
      "currently": 6556,
      "Cardinal": 6557,
      "Vietnamese": 6558,
      "##guan": 6559,
      "frequently": 6560,
      "Cambod": 6561,
      "families": 6562,
      "Thunderbirds": 6563,
      "philos": 6564,
      "Oxford": 6565,
      "73": 6566,
      "700": 6567,
      "Athlet": 6568,
      "Ca": 6569,
      "Festival": 6570,
      "Girl": 6571,
      "Mem": 6572,
      "Ur": 6573,
      "dial": 6574,
      "drop": 6575,
      "fat": 6576,
      "wed": 6577,
      "##iable": 6578,
      "##of": 6579,
      "##TC": 6580,
      "##ya": 6581,
      "##ym": 6582,
      "##eton": 6583,
      "##iments": 6584,
      "bey": 6585,
      "reform": 6586,
      "executive": 6587,
      "contributed": 6588,
      "unus": 6589,
      "computer": 6590,
      "impress": 6591,
      "prefer": 6592,
      "news": 6593,
      "##orney": 6594,
      "actors": 6595,
      "supply": 6596,
      "1981": 6597,
      "179": 6598,
      "17th": 6599,
      "parall": 6600,
      "1942": 6601,
      "simple": 6602,
      "collected": 6603,
      "allows": 6604,
      "propos": 6605,
      "negative": 6606,
      "Studios": 6607,
      "Entertainment": 6608,
      "degree": 6609,
      "##āda": 6610,
      "bottom": 6611,
      "62": 6612,
      "95": 6613,
      "Domin": 6614,
      "Fox": 6615,
      "More": 6616,
      "NH": 6617,
      "Sus": 6618,
      "cited": 6619,
      "dim": 6620,
      "hor": 6621,
      "##lines": 6622,
      "##ivity": 6623,
      "##ayer": 6624,
      "##ava": 6625,
      "##unte": 6626,
      "exec": 6627,
      "shaped": 6628,
      "prin": 6629,
      "##angers": 6630,
      "overl": 6631,
      "##anny": 6632,
      "##ancing": 6633,
      "opera": 6634,
      "effective": 6635,
      "facilities": 6636,
      "entirely": 6637,
      "animals": 6638,
      "improved": 6639,
      "subsequent": 6640,
      "reaction": 6641,
      "Premier": 6642,
      "fictional": 6643,
      "##ieutenant": 6644,
      "beyond": 6645,
      "800": 6646,
      "97": 6647,
      "Dar": 6648,
      "Ell": 6649,
      "Mu": 6650,
      "draft": 6651,
      "egg": 6652,
      "gain": 6653,
      "gives": 6654,
      "mig": 6655,
      "##rang": 6656,
      "##rations": 6657,
      "##lusion": 6658,
      "##asts": 6659,
      "##roph": 6660,
      "##thur": 6661,
      "##ager": 6662,
      "##essed": 6663,
      "##ifying": 6664,
      "recently": 6665,
      "arc": 6666,
      "##perial": 6667,
      "extensive": 6668,
      "1950s": 6669,
      "1918": 6670,
      "Muslim": 6671,
      "medical": 6672,
      "finding": 6673,
      "boat": 6674,
      "Revolution": 6675,
      "Slam": 6676,
      "gradually": 6677,
      "kilometres": 6678,
      "Turner": 6679,
      "Crazy": 6680,
      "Lewis": 6681,
      "Gre": 6682,
      "Rail": 6683,
      "Work": 6684,
      "bass": 6685,
      "ritual": 6686,
      "##rin": 6687,
      "##rum": 6688,
      "##mission": 6689,
      "##eed": 6690,
      "##hi": 6691,
      "##kins": 6692,
      "##ingly": 6693,
      "##eless": 6694,
      "##ola": 6695,
      "##sea": 6696,
      "##iance": 6697,
      "Stone": 6698,
      "Chap": 6699,
      "unp": 6700,
      "##ansas": 6701,
      "floor": 6702,
      "Mario": 6703,
      "Bridge": 6704,
      "coal": 6705,
      "12th": 6706,
      "severe": 6707,
      "occas": 6708,
      "expanded": 6709,
      "Adv": 6710,
      "1939": 6711,
      "serving": 6712,
      "antimony": 6713,
      "survey": 6714,
      "programs": 6715,
      "glob": 6716,
      "Coast": 6717,
      "##borough": 6718,
      "People": 6719,
      "Russian": 6720,
      "Martin": 6721,
      "Today": 6722,
      "torpedo": 6723,
      "Boston": 6724,
      "61": 6725,
      "72": 6726,
      "85": 6727,
      "Bart": 6728,
      "Cre": 6729,
      "Chel": 6730,
      "Fre": 6731,
      "Kang": 6732,
      "Ni": 6733,
      "NBA": 6734,
      "UN": 6735,
      "Video": 6736,
      "bow": 6737,
      "green": 6738,
      "##ridge": 6739,
      "##iences": 6740,
      "##chen": 6741,
      "##yson": 6742,
      "##ela": 6743,
      "##amy": 6744,
      "stages": 6745,
      "##opium": 6746,
      "comes": 6747,
      "##unction": 6748,
      "items": 6749,
      "##sey": 6750,
      "##usted": 6751,
      "Alf": 6752,
      "Album": 6753,
      "centuries": 6754,
      "mush": 6755,
      "secondary": 6756,
      "1969": 6757,
      "1965": 6758,
      "finals": 6759,
      "Class": 6760,
      "myth": 6761,
      "Barb": 6762,
      "Evita": 6763,
      "System": 6764,
      "Upon": 6765,
      "Between": 6766,
      "exclus": 6767,
      "Aven": 6768,
      "Bri": 6769,
      "Bru": 6770,
      "Cub": 6771,
      "Greg": 6772,
      "Rod": 6773,
      "dates": 6774,
      "daily": 6775,
      "faith": 6776,
      "naval": 6777,
      "##mes": 6778,
      "##ez": 6779,
      "##cing": 6780,
      "##erts": 6781,
      "##inate": 6782,
      "##eda": 6783,
      "##icial": 6784,
      "##outs": 6785,
      "##ads": 6786,
      "##lywood": 6787,
      "##uli": 6788,
      "##ules": 6789,
      "##apes": 6790,
      "sports": 6791,
      "notable": 6792,
      "decades": 6793,
      "1975": 6794,
      "Juan": 6795,
      "trial": 6796,
      "finds": 6797,
      "Magazine": 6798,
      "successfully": 6799,
      "Crown": 6800,
      "losses": 6801,
      "negot": 6802,
      "calc": 6803,
      "occupied": 6804,
      "slowly": 6805,
      "commissioned": 6806,
      "experienced": 6807,
      "challeng": 6808,
      "##ánh": 6809,
      "71": 6810,
      "Band": 6811,
      "Gab": 6812,
      "Obs": 6813,
      "eas": 6814,
      "fle": 6815,
      "##roll": 6816,
      "##ii": 6817,
      "##uate": 6818,
      "##win": 6819,
      "##enic": 6820,
      "##itan": 6821,
      "##rot": 6822,
      "Ing": 6823,
      "adapt": 6824,
      "flag": 6825,
      "Marl": 6826,
      "cool": 6827,
      "1968": 6828,
      "didn": 6829,
      "Isab": 6830,
      "deaths": 6831,
      "engaged": 6832,
      "captain": 6833,
      "MacLe": 6834,
      "treatment": 6835,
      "Boise": 6836,
      "purchased": 6837,
      "Gordon": 6838,
      "94": 6839,
      "Han": 6840,
      "Jac": 6841,
      "Jain": 6842,
      "Men": 6843,
      "Ron": 6844,
      "Rome": 6845,
      "eth": 6846,
      "labor": 6847,
      "##cle": 6848,
      "##urches": 6849,
      "street": 6850,
      "beach": 6851,
      "##anda": 6852,
      "fresh": 6853,
      "chorus": 6854,
      "nothing": 6855,
      "##rupt": 6856,
      "##izations": 6857,
      "##ublin": 6858,
      "synt": 6859,
      "164": 6860,
      "160": 6861,
      "concrete": 6862,
      "Commander": 6863,
      "southwest": 6864,
      "worldwide": 6865,
      "Prov": 6866,
      "begun": 6867,
      "Songs": 6868,
      "declined": 6869,
      "Khánh": 6870,
      "reasons": 6871,
      "##ategory": 6872,
      "briefly": 6873,
      "Jamal": 6874,
      "Tennyson": 6875,
      "normal": 6876,
      "policy": 6877,
      "Throughout": 6878,
      "Liu": 6879,
      "District": 6880,
      "##unicipal": 6881,
      "Avenue": 6882,
      "81": 6883,
      "Aer": 6884,
      "Brian": 6885,
      "CD": 6886,
      "GA": 6887,
      "Luc": 6888,
      "Mic": 6889,
      "Mov": 6890,
      "Ret": 6891,
      "aer": 6892,
      "drawn": 6893,
      "gas": 6894,
      "lin": 6895,
      "##iations": 6896,
      "##asure": 6897,
      "##opes": 6898,
      "##okes": 6899,
      "accompl": 6900,
      "leaders": 6901,
      "protagon": 6902,
      "trip": 6903,
      "sentence": 6904,
      "escape": 6905,
      "independence": 6906,
      "platform": 6907,
      "Crit": 6908,
      "Dublin": 6909,
      "Mot": 6910,
      "Row": 6911,
      "Ray": 6912,
      "Spr": 6913,
      "dance": 6914,
      "hired": 6915,
      "nor": 6916,
      "pet": 6917,
      "rar": 6918,
      "rac": 6919,
      "tall": 6920,
      "tend": 6921,
      "witness": 6922,
      "##set": 6923,
      "theat": 6924,
      "##erc": 6925,
      "##arian": 6926,
      "##lyss": 6927,
      "isol": 6928,
      "##istan": 6929,
      "plum": 6930,
      "firm": 6931,
      "incident": 6932,
      "unf": 6933,
      "Also": 6934,
      "Albert": 6935,
      "##anga": 6936,
      "decade": 6937,
      "acad": 6938,
      "moves": 6939,
      "Sha": 6940,
      "foundation": 6941,
      "Science": 6942,
      "longest": 6943,
      "1974": 6944,
      "guard": 6945,
      "arrival": 6946,
      "possibility": 6947,
      "##ographic": 6948,
      "importance": 6949,
      "billion": 6950,
      "chapter": 6951,
      "participated": 6952,
      "unsu": 6953,
      "enjoyed": 6954,
      "responded": 6955,
      "paintings": 6956,
      "##respond": 6957,
      "senior": 6958,
      "accompanied": 6959,
      "Bern": 6960,
      "Baby": 6961,
      "Gi": 6962,
      "Iguan": 6963,
      "Jud": 6964,
      "Mod": 6965,
      "Pers": 6966,
      "Tru": 6967,
      "ring": 6968,
      "vert": 6969,
      "wides": 6970,
      "##eals": 6971,
      "##la": 6972,
      "##BS": 6973,
      "##aton": 6974,
      "##isers": 6975,
      "stret": 6976,
      "##osa": 6977,
      "##estone": 6978,
      "##rie": 6979,
      "heard": 6980,
      "spons": 6981,
      "adap": 6982,
      "resear": 6983,
      "flu": 6984,
      "Leon": 6985,
      "110": 6986,
      "177": 6987,
      "developing": 6988,
      "1966": 6989,
      "passeng": 6990,
      "oldest": 6991,
      "Simone": 6992,
      "agreement": 6993,
      "Temple": 6994,
      "roughly": 6995,
      "Admir": 6996,
      "MacLeod": 6997,
      "77": 6998,
      "Bond": 6999,
      "Board": 7000,
      "Ho": 7001,
      "Jes": 7002,
      "Rox": 7003,
      "Wall": 7004,
      "jack": 7005,
      "##aire": 7006,
      "##uan": 7007,
      "##pread": 7008,
      "##OC": 7009,
      "##ía": 7010,
      "##amin": 7011,
      "##imet": 7012,
      "##utation": 7013,
      "choice": 7014,
      "##quake": 7015,
      "Ali": 7016,
      "remn": 7017,
      "consists": 7018,
      "decre": 7019,
      "##ooking": 7020,
      "Maria": 7021,
      "calls": 7022,
      "setting": 7023,
      "adding": 7024,
      "transit": 7025,
      "1950": 7026,
      "1936": 7027,
      "protest": 7028,
      "lasted": 7029,
      "Project": 7030,
      "Phill": 7031,
      "combination": 7032,
      "existence": 7033,
      "violence": 7034,
      "composition": 7035,
      "Governor": 7036,
      "dollar": 7037,
      "dominated": 7038,
      "poetry": 7039,
      "athletes": 7040,
      "Summer": 7041,
      "Anthony": 7042,
      "Instead": 7043,
      "Dream": 7044,
      "Hy": 7045,
      "Sk": 7046,
      "Ulyss": 7047,
      "dog": 7048,
      "fellow": 7049,
      "sle": 7050,
      "##come": 7051,
      "##chest": 7052,
      "##je": 7053,
      "##itors": 7054,
      "##iday": 7055,
      "##ote": 7056,
      "comic": 7057,
      "##iston": 7058,
      "seat": 7059,
      "note": 7060,
      "Chains": 7061,
      "reserv": 7062,
      "impr": 7063,
      "committee": 7064,
      "Marc": 7065,
      "undert": 7066,
      "assass": 7067,
      "acres": 7068,
      "Anonymous": 7069,
      "door": 7070,
      "Carib": 7071,
      "populations": 7072,
      "performing": 7073,
      "college": 7074,
      "1952": 7075,
      "1919": 7076,
      "clubs": 7077,
      "Brook": 7078,
      "##urring": 7079,
      "competitions": 7080,
      "technology": 7081,
      "association": 7082,
      "closely": 7083,
      "existing": 7084,
      "regarding": 7085,
      "applied": 7086,
      "##hetic": 7087,
      "pilot": 7088,
      "symbol": 7089,
      "Area": 7090,
      "weakened": 7091,
      "Dougl": 7092,
      "unsuccess": 7093,
      "Ulysses": 7094,
      "59": 7095,
      "66": 7096,
      "Bor": 7097,
      "Rel": 7098,
      "ps": 7099,
      "pal": 7100,
      "tells": 7101,
      "##aver": 7102,
      "##rons": 7103,
      "##com": 7104,
      "##laim": 7105,
      "##ato": 7106,
      "##ality": 7107,
      "##ici": 7108,
      "##ading": 7109,
      "##iration": 7110,
      "##usc": 7111,
      "##usal": 7112,
      "##ichol": 7113,
      "truth": 7114,
      "##pty": 7115,
      "reconst": 7116,
      "perhaps": 7117,
      "descend": 7118,
      "filming": 7119,
      "submar": 7120,
      "substant": 7121,
      "accident": 7122,
      "capable": 7123,
      "1946": 7124,
      "1973": 7125,
      "distingu": 7126,
      "provides": 7127,
      "neither": 7128,
      "battalions": 7129,
      "serves": 7130,
      "greatly": 7131,
      "roads": 7132,
      "Georg": 7133,
      "correspond": 7134,
      "learned": 7135,
      "derived": 7136,
      "Francisc": 7137,
      "purpose": 7138,
      "opportunity": 7139,
      "ceremony": 7140,
      "occasionally": 7141,
      "Hornung": 7142,
      "Caribbe": 7143,
      "6th": 7144,
      "98": 7145,
      "Aston": 7146,
      "AML": 7147,
      "Kenn": 7148,
      "Never": 7149,
      "Tim": 7150,
      "Tra": 7151,
      "bought": 7152,
      "fashion": 7153,
      "hyp": 7154,
      "rif": 7155,
      "roof": 7156,
      "som": 7157,
      "sail": 7158,
      "ton": 7159,
      "##born": 7160,
      "##burg": 7161,
      "##war": 7162,
      "##atus": 7163,
      "##isf": 7164,
      "thing": 7165,
      "##amm": 7166,
      "ones": 7167,
      "##agre": 7168,
      "Stew": 7169,
      "##elli": 7170,
      "##rug": 7171,
      "shel": 7172,
      "grav": 7173,
      "supposed": 7174,
      "invited": 7175,
      "emp": 7176,
      "receiving": 7177,
      "175": 7178,
      "1967": 7179,
      "headed": 7180,
      "editor": 7181,
      "1930s": 7182,
      "storyline": 7183,
      "skin": 7184,
      "speaking": 7185,
      "correct": 7186,
      "household": 7187,
      "Mountain": 7188,
      "encounter": 7189,
      "squad": 7190,
      "Braz": 7191,
      "Ode": 7192,
      "neck": 7193,
      "painting": 7194,
      "archaeological": 7195,
      "innings": 7196,
      "filled": 7197,
      "administration": 7198,
      "vehicles": 7199,
      "dissipated": 7200,
      "Turkish": 7201,
      "Caribbean": 7202,
      "Bishop": 7203,
      "Dota": 7204,
      "ERA": 7205,
      "Five": 7206,
      "IG": 7207,
      "Jay": 7208,
      "Lieutenant": 7209,
      "Oh": 7210,
      "Sap": 7211,
      "Vol": 7212,
      "aim": 7213,
      "cit": 7214,
      "drew": 7215,
      "hat": 7216,
      "ign": 7217,
      "root": 7218,
      "sort": 7219,
      "##lik": 7220,
      "##var": 7221,
      "##pass": 7222,
      "##OT": 7223,
      "##entially": 7224,
      "##rog": 7225,
      "##agle": 7226,
      "seg": 7227,
      "churches": 7228,
      "evac": 7229,
      "subt": 7230,
      "acid": 7231,
      "##ropri": 7232,
      "goes": 7233,
      "receive": 7234,
      "branch": 7235,
      "1971": 7236,
      "What": 7237,
      "anything": 7238,
      "1930": 7239,
      "1914": 7240,
      "protection": 7241,
      "classified": 7242,
      "typical": 7243,
      "viewed": 7244,
      "towns": 7245,
      "survived": 7246,
      "massive": 7247,
      "motion": 7248,
      "stopped": 7249,
      "drama": 7250,
      "Radio": 7251,
      "southeast": 7252,
      "astron": 7253,
      "Daniel": 7254,
      "widespread": 7255,
      "Douglas": 7256,
      "Mel": 7257,
      "MTV": 7258,
      "Real": 7259,
      "Wind": 7260,
      "fuel": 7261,
      "load": 7262,
      "rot": 7263,
      "##aud": 7264,
      "##oe": 7265,
      "##tty": 7266,
      "##VN": 7267,
      "##orter": 7268,
      "##acity": 7269,
      "Theatre": 7270,
      "why": 7271,
      "##aked": 7272,
      "##abil": 7273,
      "##ighter": 7274,
      "cho": 7275,
      "shared": 7276,
      "trying": 7277,
      "##rait": 7278,
      "adult": 7279,
      "##ountain": 7280,
      "##iously": 7281,
      "Freder": 7282,
      "flights": 7283,
      "basket": 7284,
      "soft": 7285,
      "Asia": 7286,
      "1982": 7287,
      "1945": 7288,
      "district": 7289,
      "authors": 7290,
      "About": 7291,
      "initi": 7292,
      "Perry": 7293,
      "islands": 7294,
      "##iece": 7295,
      "settlers": 7296,
      "technique": 7297,
      "##idden": 7298,
      "missing": 7299,
      "focused": 7300,
      "acquired": 7301,
      "safety": 7302,
      "digital": 7303,
      "repeated": 7304,
      "converted": 7305,
      "Constantine": 7306,
      "Hibari": 7307,
      "Jones": 7308,
      "Kil": 7309,
      "Low": 7310,
      "Qedar": 7311,
      "Ré": 7312,
      "Rio": 7313,
      "cab": 7314,
      "dub": 7315,
      "gal": 7316,
      "rich": 7317,
      "##ni": 7318,
      "##bo": 7319,
      "##RE": 7320,
      "##ona": 7321,
      "##ilton": 7322,
      "##stances": 7323,
      "##iful": 7324,
      "channel": 7325,
      "exact": 7326,
      "##ube": 7327,
      "1976": 7328,
      "depicted": 7329,
      "Princ": 7330,
      "details": 7331,
      "Romani": 7332,
      "glass": 7333,
      "##reme": 7334,
      "watched": 7335,
      "holding": 7336,
      "rebu": 7337,
      "Golden": 7338,
      "Maeda": 7339,
      "History": 7340,
      "arranged": 7341,
      "Oslo": 7342,
      "instrument": 7343,
      "succeeded": 7344,
      "permanent": 7345,
      "##ibrary": 7346,
      "opinion": 7347,
      "Shortly": 7348,
      "atmosphere": 7349,
      "Friends": 7350,
      "wedding": 7351,
      "Chelsea": 7352,
      "3D": 7353,
      "8th": 7354,
      "Hard": 7355,
      "Patt": 7356,
      "Public": 7357,
      "Wy": 7358,
      "bowl": 7359,
      "crop": 7360,
      "ice": 7361,
      "mut": 7362,
      "opt": 7363,
      "rose": 7364,
      "##ras": 7365,
      "##ario": 7366,
      "##agn": 7367,
      "##rier": 7368,
      "##apers": 7369,
      "Inc": 7370,
      "chance": 7371,
      "##pton": 7372,
      "legend": 7373,
      "intention": 7374,
      "resident": 7375,
      "##ucing": 7376,
      "##mann": 7377,
      "##issance": 7378,
      "knew": 7379,
      "##oba": 7380,
      "charter": 7381,
      "##eget": 7382,
      "assemb": 7383,
      "defined": 7384,
      "##anned": 7385,
      "revers": 7386,
      "10th": 7387,
      "locations": 7388,
      "112": 7389,
      "1943": 7390,
      "finish": 7391,
      "providing": 7392,
      "depict": 7393,
      "protect": 7394,
      "250": 7395,
      "##ipping": 7396,
      "Georgian": 7397,
      "creator": 7398,
      "##riptions": 7399,
      "funding": 7400,
      "Moz": 7401,
      "planning": 7402,
      "urban": 7403,
      "credited": 7404,
      "Fantasy": 7405,
      "Venus": 7406,
      "87": 7407,
      "Det": 7408,
      "Down": 7409,
      "Gil": 7410,
      "Hon": 7411,
      "Homer": 7412,
      "Kel": 7413,
      "Lenn": 7414,
      "Mah": 7415,
      "Pre": 7416,
      "Run": 7417,
      "Roy": 7418,
      "dating": 7419,
      "eur": 7420,
      "rub": 7421,
      "sun": 7422,
      "tied": 7423,
      "wick": 7424,
      "##rab": 7425,
      "##inosaur": 7426,
      "##aser": 7427,
      "##uri": 7428,
      "##uration": 7429,
      "##lying": 7430,
      "##idges": 7431,
      "##iminal": 7432,
      "##andy": 7433,
      "##essing": 7434,
      "spacing": 7435,
      "##iege": 7436,
      "pregn": 7437,
      "decline": 7438,
      "baseball": 7439,
      "revolution": 7440,
      "176": 7441,
      "airport": 7442,
      "download": 7443,
      "heads": 7444,
      "Allied": 7445,
      "1916": 7446,
      "ways": 7447,
      "explos": 7448,
      "Broad": 7449,
      "Abb": 7450,
      "reality": 7451,
      "Simon": 7452,
      "separated": 7453,
      "Holy": 7454,
      "renamed": 7455,
      "penalty": 7456,
      "##glades": 7457,
      "Archae": 7458,
      "Hindu": 7459,
      "thousands": 7460,
      "Haiti": 7461,
      "Secretary": 7462,
      "delivered": 7463,
      "supplies": 7464,
      "Additionally": 7465,
      "Iguanodon": 7466,
      "Brazil": 7467,
      "IGN": 7468,
      "69": 7469,
      "Age": 7470,
      "Hell": 7471,
      "Kat": 7472,
      "Mul": 7473,
      "Sound": 7474,
      "Top": 7475,
      "UTC": 7476,
      "bul": 7477,
      "fair": 7478,
      "rural": 7479,
      "san": 7480,
      "##rig": 7481,
      "##gé": 7482,
      "##hl": 7483,
      "##bur": 7484,
      "##SB": 7485,
      "cong": 7486,
      "Stadium": 7487,
      "Chronic": 7488,
      "recru": 7489,
      "enl": 7490,
      "##ilding": 7491,
      "secure": 7492,
      "##attle": 7493,
      "emperor": 7494,
      "1980": 7495,
      "1963": 7496,
      "depos": 7497,
      "moder": 7498,
      "Committee": 7499,
      "turning": 7500,
      "commanded": 7501,
      "##ivalent": 7502,
      "courts": 7503,
      "surviv": 7504,
      "laws": 7505,
      "certified": 7506,
      "Walter": 7507,
      "eyes": 7508,
      "assistance": 7509,
      "remainder": 7510,
      "Stevens": 7511,
      "indicate": 7512,
      "consisting": 7513,
      "earthquake": 7514,
      "Alexander": 7515,
      "routes": 7516,
      "Morrison": 7517,
      "Snow": 7518,
      "Ye": 7519,
      "baby": 7520,
      "card": 7521,
      "dry": 7522,
      "eld": 7523,
      "harm": 7524,
      "lov": 7525,
      "##ront": 7526,
      "##hat": 7527,
      "##ture": 7528,
      "##ycl": 7529,
      "##LI": 7530,
      "##erted": 7531,
      "##oral": 7532,
      "##anth": 7533,
      "##ador": 7534,
      "##opher": 7535,
      "sud": 7536,
      "##illing": 7537,
      "attached": 7538,
      "##ribed": 7539,
      "##issipp": 7540,
      "##evo": 7541,
      "Arthur": 7542,
      "##formation": 7543,
      "teaching": 7544,
      "regime": 7545,
      "noisy": 7546,
      "highlight": 7547,
      "surrender": 7548,
      "16th": 7549,
      "quite": 7550,
      "11th": 7551,
      "reception": 7552,
      "1978": 7553,
      "disturb": 7554,
      "occurs": 7555,
      "1953": 7556,
      "1956": 7557,
      "Australians": 7558,
      "camps": 7559,
      "turns": 7560,
      "Mississipp": 7561,
      "technical": 7562,
      "valley": 7563,
      "Montana": 7564,
      "economy": 7565,
      "establishment": 7566,
      "opposition": 7567,
      "Columbia": 7568,
      "Director": 7569,
      "Sunday": 7570,
      "Truj": 7571,
      "Gram": 7572,
      "Gully": 7573,
      "Native": 7574,
      "Ro": 7575,
      "Sav": 7576,
      "fan": 7577,
      "ll": 7578,
      "lit": 7579,
      "pup": 7580,
      "powers": 7581,
      "vic": 7582,
      "wins": 7583,
      "##rating": 7584,
      "##mit": 7585,
      "##entions": 7586,
      "##othes": 7587,
      "##uma": 7588,
      "leaves": 7589,
      "resist": 7590,
      "Marine": 7591,
      "monarch": 7592,
      "studied": 7593,
      "leads": 7594,
      "producing": 7595,
      "successor": 7596,
      "convention": 7597,
      "views": 7598,
      "replace": 7599,
      "circum": 7600,
      "Maryland": 7601,
      "Hollywood": 7602,
      "denied": 7603,
      "Everglades": 7604,
      "immig": 7605,
      "journey": 7606,
      "Office": 7607,
      "Samuel": 7608,
      "Croatian": 7609,
      "Surv": 7610,
      "shooting": 7611,
      "methods": 7612,
      "portrayed": 7613,
      "puzz": 7614,
      "Charlie": 7615,
      "adapted": 7616,
      "Trujillo": 7617,
      "7th": 7618,
      "91": 7619,
      "Fish": 7620,
      "Hug": 7621,
      "Ly": 7622,
      "ML": 7623,
      "Master": 7624,
      "NBC": 7625,
      "Press": 7626,
      "Rangers": 7627,
      "kits": 7628,
      "lane": 7629,
      "worth": 7630,
      "##aising": 7631,
      "##ić": 7632,
      "##cer": 7633,
      "##real": 7634,
      "##rell": 7635,
      "store": 7636,
      "franch": 7637,
      "##agues": 7638,
      "hear": 7639,
      "##ewhere": 7640,
      "##aka": 7641,
      "##ardo": 7642,
      "##acked": 7643,
      "Stef": 7644,
      "##onder": 7645,
      "Alan": 7646,
      "prey": 7647,
      "upd": 7648,
      "Arts": 7649,
      "gameplay": 7650,
      "interior": 7651,
      "maintain": 7652,
      "finishing": 7653,
      "1913": 7654,
      "1915": 7655,
      "protected": 7656,
      "crime": 7657,
      "reputation": 7658,
      "window": 7659,
      "entering": 7660,
      "getting": 7661,
      "predec": 7662,
      "motor": 7663,
      "Democr": 7664,
      "Engineer": 7665,
      "worst": 7666,
      "dismissed": 7667,
      "Roxas": 7668,
      "Mississippi": 7669,
      "Bos": 7670,
      "Cop": 7671,
      "DNA": 7672,
      "Far": 7673,
      "Mid": 7674,
      "crown": 7675,
      "die": 7676,
      "drug": 7677,
      "ru": 7678,
      "tell": 7679,
      "von": 7680,
      "##aug": 7681,
      "##dal": 7682,
      "##orer": 7683,
      "##asing": 7684,
      "##amber": 7685,
      "##acent": 7686,
      "##thm": 7687,
      "##unket": 7688,
      "##pping": 7689,
      "exerc": 7690,
      "noting": 7691,
      "attributed": 7692,
      "knots": 7693,
      "interested": 7694,
      "basin": 7695,
      "monument": 7696,
      "capacity": 7697,
      "colle": 7698,
      "Plunket": 7699,
      "entry": 7700,
      "classes": 7701,
      "experiment": 7702,
      "Within": 7703,
      "Eliz": 7704,
      "introduction": 7705,
      "holds": 7706,
      "Activision": 7707,
      "tribes": 7708,
      "discussed": 7709,
      "Howard": 7710,
      "Stephen": 7711,
      "mushroom": 7712,
      "79": 7713,
      "Danny": 7714,
      "Fire": 7715,
      "Leg": 7716,
      "Pu": 7717,
      "Pope": 7718,
      "Sev": 7719,
      "Ts": 7720,
      "Walk": 7721,
      "cry": 7722,
      "fer": 7723,
      "lic": 7724,
      "pound": 7725,
      "vary": 7726,
      "vision": 7727,
      "##iar": 7728,
      "##ients": 7729,
      "##min": 7730,
      "##taining": 7731,
      "##wise": 7732,
      "##30": 7733,
      "##onom": 7734,
      "##eness": 7735,
      "##itage": 7736,
      "##itled": 7737,
      "tomb": 7738,
      "##lements": 7739,
      "stones": 7740,
      "##ripts": 7741,
      "##ender": 7742,
      "agent": 7743,
      "offers": 7744,
      "outl": 7745,
      "charges": 7746,
      "publisher": 7747,
      "appearing": 7748,
      "describing": 7749,
      "1917": 7750,
      "solid": 7751,
      "fields": 7752,
      "novels": 7753,
      "historic": 7754,
      "younger": 7755,
      "statement": 7756,
      "Calvert": 7757,
      "electric": 7758,
      "pitch": 7759,
      "coastal": 7760,
      "ruled": 7761,
      "chapel": 7762,
      "Bradford": 7763,
      "##senal": 7764,
      "intelligence": 7765,
      "Isabella": 7766,
      "99": 7767,
      "Gang": 7768,
      "Nether": 7769,
      "Ridge": 7770,
      "bond": 7771,
      "caught": 7772,
      "cinem": 7773,
      "hope": 7774,
      "kings": 7775,
      "sector": 7776,
      "van": 7777,
      "zone": 7778,
      "##ruli": 7779,
      "##fri": 7780,
      "##water": 7781,
      "##rets": 7782,
      "##elve": 7783,
      "##iling": 7784,
      "forests": 7785,
      "##owed": 7786,
      "##uls": 7787,
      "pros": 7788,
      "plants": 7789,
      "resour": 7790,
      "releg": 7791,
      "unn": 7792,
      "##angerous": 7793,
      "desire": 7794,
      "manner": 7795,
      "Marsh": 7796,
      "accounts": 7797,
      "someone": 7798,
      "basic": 7799,
      "soil": 7800,
      "generation": 7801,
      "Const": 7802,
      "medieval": 7803,
      "##intend": 7804,
      "everything": 7805,
      "difficulty": 7806,
      "exception": 7807,
      "apart": 7808,
      "dollars": 7809,
      "principal": 7810,
      "considerable": 7811,
      "disappear": 7812,
      "emotional": 7813,
      "ninth": 7814,
      "Yankovic": 7815,
      "Weekly": 7816,
      "Lisa": 7817,
      "article": 7818,
      "rarely": 7819,
      "88": 7820,
      "Around": 7821,
      "Di": 7822,
      "Dom": 7823,
      "Daily": 7824,
      "Jif": 7825,
      "Jersey": 7826,
      "Net": 7827,
      "Rolling": 7828,
      "Sor": 7829,
      "cold": 7830,
      "hill": 7831,
      "hall": 7832,
      "mine": 7833,
      "nob": 7834,
      "pool": 7835,
      "taught": 7836,
      "##nell": 7837,
      "##know": 7838,
      "##bles": 7839,
      "##ānt": 7840,
      "##6th": 7841,
      "inner": 7842,
      "##aments": 7843,
      "##igades": 7844,
      "##opp": 7845,
      "##ables": 7846,
      "##abeth": 7847,
      "##ateur": 7848,
      "offense": 7849,
      "wealth": 7850,
      "##ockey": 7851,
      "##aws": 7852,
      "122": 7853,
      "121": 7854,
      "##ajevo": 7855,
      "Lee": 7856,
      "1948": 7857,
      "1961": 7858,
      "landed": 7859,
      "evening": 7860,
      "opponents": 7861,
      "politics": 7862,
      "involvement": 7863,
      "Earl": 7864,
      "##offman": 7865,
      "##graded": 7866,
      "volunte": 7867,
      "rules": 7868,
      "specifically": 7869,
      "wooden": 7870,
      "Strand": 7871,
      "colonial": 7872,
      "Victoria": 7873,
      "Sarajevo": 7874,
      "Clarkson": 7875,
      "thirty": 7876,
      "aggress": 7877,
      "Destiny": 7878,
      "restaurant": 7879,
      "synthes": 7880,
      "Frederick": 7881,
      "sudden": 7882,
      "74": 7883,
      "Cam": 7884,
      "Cru": 7885,
      "DA": 7886,
      "Fame": 7887,
      "Fair": 7888,
      "Germ": 7889,
      "Lords": 7890,
      "Trib": 7891,
      "fish": 7892,
      "gall": 7893,
      "jazz": 7894,
      "veget": 7895,
      "worship": 7896,
      "##rant": 7897,
      "##de": 7898,
      "##yles": 7899,
      "##break": 7900,
      "##AC": 7901,
      "##orous": 7902,
      "##eline": 7903,
      "##rosc": 7904,
      "##using": 7905,
      "consequ": 7906,
      "##osure": 7907,
      "##avia": 7908,
      "##umps": 7909,
      "##rif": 7910,
      "Init": 7911,
      "##ipe": 7912,
      "scrap": 7913,
      "##ultane": 7914,
      "secured": 7915,
      "charts": 7916,
      "accur": 7917,
      "sym": 7918,
      "description": 7919,
      "1979": 7920,
      "##raph": 7921,
      "##inking": 7922,
      "1937": 7923,
      "believes": 7924,
      "replacement": 7925,
      "poems": 7926,
      "discovery": 7927,
      "missions": 7928,
      "Team": 7929,
      "hotel": 7930,
      "picked": 7931,
      "Somali": 7932,
      "Colonel": 7933,
      "intersection": 7934,
      "Wilde": 7935,
      "recommended": 7936,
      "split": 7937,
      "##ranean": 7938,
      "Bono": 7939,
      "Family": 7940,
      "fungus": 7941,
      "Industry": 7942,
      "Mozamb": 7943,
      "Ball": 7944,
      "Here": 7945,
      "Life": 7946,
      "Nap": 7947,
      "Nick": 7948,
      "Rif": 7949,
      "Si": 7950,
      "Santa": 7951,
      "Wars": 7952,
      "fit": 7953,
      "sed": 7954,
      "soul": 7955,
      "tal": 7956,
      "tie": 7957,
      "##theless": 7958,
      "##inger": 7959,
      "##ingale": 7960,
      "stream": 7961,
      "##aga": 7962,
      "##agu": 7963,
      "##union": 7964,
      "##apped": 7965,
      "##istol": 7966,
      "Int": 7967,
      "Chart": 7968,
      "leuk": 7969,
      "subs": 7970,
      "whereas": 7971,
      "Ash": 7972,
      "##ropol": 7973,
      "Carter": 7974,
      "##rows": 7975,
      "strateg": 7976,
      "leadership": 7977,
      "signing": 7978,
      "carbon": 7979,
      "##ructure": 7980,
      "depend": 7981,
      "1954": 7982,
      "Prime": 7983,
      "criminal": 7984,
      "legs": 7985,
      "joint": 7986,
      "divine": 7987,
      "Roberts": 7988,
      "appoint": 7989,
      "drawing": 7990,
      "launch": 7991,
      "missed": 7992,
      "industrial": 7993,
      "nomination": 7994,
      "absor": 7995,
      "concerns": 7996,
      "Jerusal": 7997,
      "Campb": 7998,
      "scholar": 7999,
      "extremely": 8000,
      "habitat": 8001,
      "specimens": 8002,
      "Skye": 8003,
      "wrong": 8004,
      "parallel": 8005,
      "Jifna": 8006,
      "Jerusalem": 8007,
      "82": 8008,
      "AR": 8009,
      "AD": 8010,
      "Bi": 8011,
      "Cab": 8012,
      "Cory": 8013,
      "Chen": 8014,
      "Hung": 8015,
      "bes": 8016,
      "ble": 8017,
      "dock": 8018,
      "faces": 8019,
      "municipal": 8020,
      "session": 8021,
      "##ait": 8022,
      "##sch": 8023,
      "##lan": 8024,
      "##onica": 8025,
      "##enz": 8026,
      "##eland": 8027,
      "##ivals": 8028,
      "##otes": 8029,
      "##emia": 8030,
      "##imal": 8031,
      "conference": 8032,
      "##osis": 8033,
      "##ocal": 8034,
      "existed": 8035,
      "parties": 8036,
      "##wealth": 8037,
      "teeth": 8038,
      "Joe": 8039,
      "##ertain": 8040,
      "minister": 8041,
      "showing": 8042,
      "##iversary": 8043,
      "distributed": 8044,
      "warm": 8045,
      "collect": 8046,
      "approached": 8047,
      "tries": 8048,
      "organizations": 8049,
      "##iveness": 8050,
      "demol": 8051,
      "personnel": 8052,
      "##psons": 8053,
      "standards": 8054,
      "speech": 8055,
      "Similar": 8056,
      "Simpsons": 8057,
      "Hamilton": 8058,
      "##aska": 8059,
      "threatened": 8060,
      "surrounded": 8061,
      "emerged": 8062,
      "chemical": 8063,
      "Argentina": 8064,
      "hydro": 8065,
      "diameter": 8066,
      "Ryan": 8067,
      "Spring": 8068,
      "psych": 8069,
      "Francisco": 8070,
      "europium": 8071,
      "CE": 8072,
      "IV": 8073,
      "Iron": 8074,
      "Jun": 8075,
      "WW": 8076,
      "Win": 8077,
      "bat": 8078,
      "fal": 8079,
      "il": 8080,
      "mart": 8081,
      "option": 8082,
      "page": 8083,
      "wants": 8084,
      "youth": 8085,
      "##ois": 8086,
      "##kh": 8087,
      "##zen": 8088,
      "##CA": 8089,
      "##onic": 8090,
      "##atures": 8091,
      "##itals": 8092,
      "stem": 8093,
      "##utt": 8094,
      "alien": 8095,
      "##uda": 8096,
      "arts": 8097,
      "overw": 8098,
      "partial": 8099,
      "##ensis": 8100,
      "decor": 8101,
      "retire": 8102,
      "indig": 8103,
      "bright": 8104,
      "1949": 8105,
      "1977": 8106,
      "department": 8107,
      "##ception": 8108,
      "1958": 8109,
      "1955": 8110,
      "1951": 8111,
      "pointed": 8112,
      "characteristics": 8113,
      "Adams": 8114,
      "##aurus": 8115,
      "Order": 8116,
      "communities": 8117,
      "historians": 8118,
      "equal": 8119,
      "admitted": 8120,
      "seeing": 8121,
      "facing": 8122,
      "crossed": 8123,
      "relationships": 8124,
      "Duke": 8125,
      "regularly": 8126,
      "railway": 8127,
      "immediate": 8128,
      "Television": 8129,
      "Olympics": 8130,
      "favorite": 8131,
      "hoped": 8132,
      "constitution": 8133,
      "apparent": 8134,
      "alternative": 8135,
      "lbw": 8136,
      "ratings": 8137,
      "documentary": 8138,
      "Banai": 8139,
      "expedition": 8140,
      "unusual": 8141,
      "Brien": 8142,
      "isolated": 8143,
      "citiz": 8144,
      "07": 8145,
      "Bank": 8146,
      "Dur": 8147,
      "Power": 8148,
      "eighth": 8149,
      "ib": 8150,
      "lap": 8151,
      "sulf": 8152,
      "table": 8153,
      "vide": 8154,
      "##rates": 8155,
      "##ooth": 8156,
      "##ívar": 8157,
      "##organ": 8158,
      "inland": 8159,
      "##reets": 8160,
      "##avāda": 8161,
      "champion": 8162,
      "shark": 8163,
      "trail": 8164,
      "Chief": 8165,
      "firing": 8166,
      "Unlike": 8167,
      "consc": 8168,
      "consum": 8169,
      "##formed": 8170,
      "regional": 8171,
      "assumed": 8172,
      "owner": 8173,
      "13th": 8174,
      "Forces": 8175,
      "anniversary": 8176,
      "Hergé": 8177,
      "protests": 8178,
      "detail": 8179,
      "reviewer": 8180,
      "marks": 8181,
      "repair": 8182,
      "strongly": 8183,
      "##ombat": 8184,
      "destroyers": 8185,
      "watch": 8186,
      "treated": 8187,
      "connection": 8188,
      "sequel": 8189,
      "treaty": 8190,
      "ancest": 8191,
      "examples": 8192,
      "bringing": 8193,
      "watershed": 8194,
      "Bolívar": 8195,
      "institutions": 8196,
      "message": 8197,
      "romantic": 8198,
      "distribution": 8199,
      "Lennon": 8200,
      "franchise": 8201,
      "06": 8202,
      "63": 8203,
      "Ald": 8204,
      "Goffman": 8205,
      "PA": 8206,
      "Pul": 8207,
      "Rem": 8208,
      "bigg": 8209,
      "sections": 8210,
      "winner": 8211,
      "##ses": 8212,
      "##key": 8213,
      "##wich": 8214,
      "##ware": 8215,
      "##edom": 8216,
      "##esc": 8217,
      "##sta": 8218,
      "##iders": 8219,
      "stadium": 8220,
      "##uses": 8221,
      "##usad": 8222,
      "##oca": 8223,
      "orchest": 8224,
      "Station": 8225,
      "aged": 8226,
      "##eased": 8227,
      "flo": 8228,
      "indicated": 8229,
      "##ekānt": 8230,
      "1983": 8231,
      "airline": 8232,
      "Isl": 8233,
      "instruct": 8234,
      "Guy": 8235,
      "detailed": 8236,
      "approved": 8237,
      "breaking": 8238,
      "##istered": 8239,
      "references": 8240,
      "##encies": 8241,
      "changing": 8242,
      "Recording": 8243,
      "superv": 8244,
      "improve": 8245,
      "grey": 8246,
      "literary": 8247,
      "Territ": 8248,
      "Jean": 8249,
      "Military": 8250,
      "attracted": 8251,
      "BCE": 8252,
      "Janeiro": 8253,
      "wearing": 8254,
      "inhabit": 8255,
      "rescue": 8256,
      "Rhodes": 8257,
      "Journal": 8258,
      "duties": 8259,
      "Independent": 8260,
      "Norman": 8261,
      "Roger": 8262,
      "eggs": 8263,
      "easily": 8264,
      "protagonist": 8265,
      "academic": 8266,
      "Saprang": 8267,
      "Kilmer": 8268,
      "89": 8269,
      "Bert": 8270,
      "Cas": 8271,
      "Mortal": 8272,
      "Raj": 8273,
      "Sel": 8274,
      "Sher": 8275,
      "Test": 8276,
      "Xe": 8277,
      "bay": 8278,
      "cul": 8279,
      "happy": 8280,
      "mort": 8281,
      "ocean": 8282,
      "poll": 8283,
      "sell": 8284,
      "##ray": 8285,
      "##iary": 8286,
      "##elet": 8287,
      "streak": 8288,
      "conqu": 8289,
      "##osm": 8290,
      "proport": 8291,
      "shif": 8292,
      "spaces": 8293,
      "##iants": 8294,
      "Stock": 8295,
      "recre": 8296,
      "##ogether": 8297,
      "##oked": 8298,
      "cloud": 8299,
      "preced": 8300,
      "flat": 8301,
      "acknow": 8302,
      "retreat": 8303,
      "accused": 8304,
      "interchange": 8305,
      "coord": 8306,
      "162": 8307,
      "designation": 8308,
      "Gerard": 8309,
      "expansion": 8310,
      "completion": 8311,
      "Adam": 8312,
      "implement": 8313,
      "Color": 8314,
      "##scape": 8315,
      "Beach": 8316,
      "1920": 8317,
      "medium": 8318,
      "Organ": 8319,
      "terminus": 8320,
      "attempting": 8321,
      "infr": 8322,
      "surviving": 8323,
      "genre": 8324,
      "reading": 8325,
      "catch": 8326,
      "looked": 8327,
      "settled": 8328,
      "recognition": 8329,
      "practices": 8330,
      "engineering": 8331,
      "territories": 8332,
      "effectively": 8333,
      "Square": 8334,
      "Richardson": 8335,
      "traveled": 8336,
      "feeling": 8337,
      "assistant": 8338,
      "Lawton": 8339,
      "challenge": 8340,
      "Somalia": 8341,
      "Hearts": 8342,
      "specimen": 8343,
      "Burns": 8344,
      "##onnaissance": 8345,
      "encouraged": 8346,
      "adjacent": 8347,
      "agricultural": 8348,
      "Admiral": 8349,
      "Georgia": 8350,
      "05": 8351,
      "58": 8352,
      "93": 8353,
      "Cook": 8354,
      "Corn": 8355,
      "Es": 8356,
      "Fern": 8357,
      "Kombat": 8358,
      "Lanc": 8359,
      "Pine": 8360,
      "Sa": 8361,
      "Sb": 8362,
      "Wolf": 8363,
      "et": 8364,
      "lob": 8365,
      "none": 8366,
      "nick": 8367,
      "sam": 8368,
      "swe": 8369,
      "tick": 8370,
      "vac": 8371,
      "##rence": 8372,
      "##mel": 8373,
      "##ean": 8374,
      "##how": 8375,
      "##yard": 8376,
      "##heim": 8377,
      "##orters": 8378,
      "##itated": 8379,
      "##urd": 8380,
      "stead": 8381,
      "##aya": 8382,
      "anth": 8383,
      "##ewhat": 8384,
      "##abled": 8385,
      "orn": 8386,
      "chronic": 8387,
      "plain": 8388,
      "shots": 8389,
      "##oured": 8390,
      "recalled": 8391,
      "serial": 8392,
      "partly": 8393,
      "evil": 8394,
      "feather": 8395,
      "accomm": 8396,
      "Aniston": 8397,
      "meets": 8398,
      "obtained": 8399,
      "##ennis": 8400,
      "##ossible": 8401,
      "starling": 8402,
      "##ometric": 8403,
      "possession": 8404,
      "visible": 8405,
      "stands": 8406,
      "##attered": 8407,
      "patron": 8408,
      "identity": 8409,
      "languages": 8410,
      "multi": 8411,
      "civilian": 8412,
      "painted": 8413,
      "brothers": 8414,
      "Every": 8415,
      "arrangement": 8416,
      "Cambridge": 8417,
      "extreme": 8418,
      "recovered": 8419,
      "seemed": 8420,
      "controversy": 8421,
      "candidate": 8422,
      "Attorney": 8423,
      "Commonwealth": 8424,
      "ethn": 8425,
      "somewhat": 8426,
      "accommod": 8427,
      "Bed": 8428,
      "Bass": 8429,
      "Hospital": 8430,
      "Lab": 8431,
      "Now": 8432,
      "Neb": 8433,
      "Ton": 8434,
      "Tam": 8435,
      "Tower": 8436,
      "Ul": 8437,
      "bal": 8438,
      "cens": 8439,
      "ec": 8440,
      "erect": 8441,
      "gross": 8442,
      "hip": 8443,
      "hits": 8444,
      "races": 8445,
      "tone": 8446,
      "##dess": 8447,
      "##uv": 8448,
      "##yer": 8449,
      "##erog": 8450,
      "##isis": 8451,
      "##icate": 8452,
      "##idae": 8453,
      "##emet": 8454,
      "proceed": 8455,
      "##ifer": 8456,
      "exha": 8457,
      "##aste": 8458,
      "relative": 8459,
      "schem": 8460,
      "impl": 8461,
      "Fraser": 8462,
      "fled": 8463,
      "teach": 8464,
      "preserved": 8465,
      "transc": 8466,
      "estate": 8467,
      "passage": 8468,
      "1935": 8469,
      "1931": 8470,
      "1910": 8471,
      "verse": 8472,
      "reduce": 8473,
      "convin": 8474,
      "convoy": 8475,
      "twelve": 8476,
      "Poland": 8477,
      "footage": 8478,
      "suffering": 8479,
      "Islands": 8480,
      "inspiration": 8481,
      "armor": 8482,
      "hosted": 8483,
      "funds": 8484,
      "Keamy": 8485,
      "persp": 8486,
      "absol": 8487,
      "##going": 8488,
      "towers": 8489,
      "Singles": 8490,
      "linked": 8491,
      "Develop": 8492,
      "Garc": 8493,
      "Formula": 8494,
      "controversial": 8495,
      "Castle": 8496,
      "scientific": 8497,
      "Elizabeth": 8498,
      "Germans": 8499,
      "Bal": 8500,
      "DC": 8501,
      "Dark": 8502,
      "Gib": 8503,
      "Nintend": 8504,
      "Owen": 8505,
      "Pass": 8506,
      "cart": 8507,
      "ow": 8508,
      "sessions": 8509,
      "##pear": 8510,
      "##worth": 8511,
      "inaug": 8512,
      "##aling": 8513,
      "##illy": 8514,
      "thin": 8515,
      "##entures": 8516,
      "##igation": 8517,
      "stayed": 8518,
      "##utz": 8519,
      "##thosaurus": 8520,
      "alleg": 8521,
      "1900": 8522,
      "prohib": 8523,
      "shut": 8524,
      "##oven": 8525,
      "income": 8526,
      "integ": 8527,
      "adults": 8528,
      "acts": 8529,
      "defended": 8530,
      "##annah": 8531,
      "Shakes": 8532,
      "Johnston": 8533,
      "continuing": 8534,
      "province": 8535,
      "expensive": 8536,
      "attacking": 8537,
      "1932": 8538,
      "1912": 8539,
      "reviewers": 8540,
      "destruction": 8541,
      "Elect": 8542,
      "equipped": 8543,
      "1909": 8544,
      "coup": 8545,
      "circulation": 8546,
      "steel": 8547,
      "##stitution": 8548,
      "learning": 8549,
      "composer": 8550,
      "Arabic": 8551,
      "Research": 8552,
      "blocks": 8553,
      "concerned": 8554,
      "FIA": 8555,
      "moral": 8556,
      "understand": 8557,
      "Human": 8558,
      "opposite": 8559,
      "verte": 8560,
      "incorporated": 8561,
      "Peninsula": 8562,
      "custom": 8563,
      "Jesus": 8564,
      "Plunketts": 8565,
      "Corythosaurus": 8566,
      "Nintendo": 8567,
      "Shakespear": 8568,
      "08": 8569,
      "68": 8570,
      "Ak": 8571,
      "Bark": 8572,
      "Cle": 8573,
      "Hor": 8574,
      "Joy": 8575,
      "Mand": 8576,
      "Sem": 8577,
      "Seas": 8578,
      "Wi": 8579,
      "Wimb": 8580,
      "divers": 8581,
      "gone": 8582,
      "hem": 8583,
      "map": 8584,
      "pushed": 8585,
      "sight": 8586,
      "tailed": 8587,
      "wars": 8588,
      "##ris": 8589,
      "##sewhere": 8590,
      "##yt": 8591,
      "##bie": 8592,
      "##body": 8593,
      "##pent": 8594,
      "##put": 8595,
      "##SA": 8596,
      "theatre": 8597,
      "##onia": 8598,
      "##elin": 8599,
      "##state": 8600,
      "##oli": 8601,
      "##olay": 8602,
      "##otic": 8603,
      "##owing": 8604,
      "answ": 8605,
      "##aku": 8606,
      "shall": 8607,
      "shore": 8608,
      "Channel": 8609,
      "##ogen": 8610,
      "reserve": 8611,
      "compounds": 8612,
      "##achus": 8613,
      "agree": 8614,
      "##prising": 8615,
      "##arked": 8616,
      "##amps": 8617,
      "consult": 8618,
      "Marines": 8619,
      "Anc": 8620,
      "elabor": 8621,
      "##ledon": 8622,
      "musicians": 8623,
      "Allah": 8624,
      "willing": 8625,
      "driving": 8626,
      "classical": 8627,
      "1929": 8628,
      "1921": 8629,
      "debate": 8630,
      "lowest": 8631,
      "victims": 8632,
      "limit": 8633,
      "Palmy": 8634,
      "crossing": 8635,
      "promote": 8636,
      "meetings": 8637,
      "falling": 8638,
      "rebels": 8639,
      "measures": 8640,
      "responsibility": 8641,
      "Lawrence": 8642,
      "observations": 8643,
      "Patrick": 8644,
      "voted": 8645,
      "throwing": 8646,
      "Transport": 8647,
      "Protest": 8648,
      "sculpture": 8649,
      "occasions": 8650,
      "Marlborough": 8651,
      "passengers": 8652,
      "remnants": 8653,
      "basketball": 8654,
      "initiative": 8655,
      "videos": 8656,
      "Wimbledon": 8657,
      "Dyn": 8658,
      "Hun": 8659,
      "Nar": 8660,
      "Rain": 8661,
      "Tig": 8662,
      "Your": 8663,
      "craft": 8664,
      "hang": 8665,
      "raise": 8666,
      "ster": 8667,
      "siege": 8668,
      "##after": 8669,
      "##gie": 8670,
      "##inet": 8671,
      "##icity": 8672,
      "##etts": 8673,
      "##lev": 8674,
      "##oted": 8675,
      "##ownt": 8676,
      "##ithic": 8677,
      "##osl": 8678,
      "comments": 8679,
      "##illed": 8680,
      "##ifies": 8681,
      "##oceratops": 8682,
      "sees": 8683,
      "praise": 8684,
      "##oster": 8685,
      "context": 8686,
      "##inals": 8687,
      "songwrit": 8688,
      "##aware": 8689,
      "retained": 8690,
      "acclaim": 8691,
      "##ificial": 8692,
      "161": 8693,
      "obl": 8694,
      "objects": 8695,
      "governor": 8696,
      "1938": 8697,
      "1911": 8698,
      "Prod": 8699,
      "Geoff": 8700,
      "sky": 8701,
      "patrol": 8702,
      "involving": 8703,
      "equivalent": 8704,
      "cycle": 8705,
      "Palace": 8706,
      "pitcher": 8707,
      "difficulties": 8708,
      "superior": 8709,
      "strip": 8710,
      "representing": 8711,
      "biography": 8712,
      "Anton": 8713,
      "Imperial": 8714,
      "learn": 8715,
      "renew": 8716,
      "intensified": 8717,
      "Fei": 8718,
      "Hotel": 8719,
      "##iques": 8720,
      "purchase": 8721,
      "##hews": 8722,
      "carrying": 8723,
      "rhythm": 8724,
      "vessels": 8725,
      "fixed": 8726,
      "Korean": 8727,
      "Guardian": 8728,
      "batsman": 8729,
      "Cambodia": 8730,
      "global": 8731,
      "unsuccessful": 8732,
      "Stefani": 8733,
      "Netherlands": 8734,
      "AP": 8735,
      "Div": 8736,
      "Free": 8737,
      "Gun": 8738,
      "Hob": 8739,
      "Sand": 8740,
      "Sweet": 8741,
      "Type": 8742,
      "bor": 8743,
      "bone": 8744,
      "diet": 8745,
      "fine": 8746,
      "fold": 8747,
      "pow": 8748,
      "ray": 8749,
      "rum": 8750,
      "tight": 8751,
      "##gency": 8752,
      "##cement": 8753,
      "##AT": 8754,
      "##MO": 8755,
      "##ét": 8756,
      "##oma": 8757,
      "##omatic": 8758,
      "##acle": 8759,
      "online": 8760,
      "##terbury": 8761,
      "##otal": 8762,
      "##uting": 8763,
      "##riev": 8764,
      "##iform": 8765,
      "exchange": 8766,
      "prol": 8767,
      "prerog": 8768,
      "##ureau": 8769,
      "##rupted": 8770,
      "commit": 8771,
      "committed": 8772,
      "defences": 8773,
      "amino": 8774,
      "reveals": 8775,
      "concerts": 8776,
      "1962": 8777,
      "returns": 8778,
      "Conc": 8779,
      "collaps": 8780,
      "Canterbury": 8781,
      "periods": 8782,
      "##quez": 8783,
      "##alky": 8784,
      "##iterranean": 8785,
      "defeating": 8786,
      "goddess": 8787,
      "Depression": 8788,
      "needs": 8789,
      "villages": 8790,
      "Mediterranean": 8791,
      "Prior": 8792,
      "accompany": 8793,
      "spirit": 8794,
      "pupp": 8795,
      "Pitman": 8796,
      "narrative": 8797,
      "internal": 8798,
      "camera": 8799,
      "voiced": 8800,
      "behavi": 8801,
      "Palestine": 8802,
      "Mega": 8803,
      "Stanley": 8804,
      "preferred": 8805,
      "survivors": 8806,
      "García": 8807,
      "67": 8808,
      "86": 8809,
      "Bang": 8810,
      "Eric": 8811,
      "Furt": 8812,
      "Hou": 8813,
      "Ken": 8814,
      "Mir": 8815,
      "Raff": 8816,
      "Rugby": 8817,
      "dens": 8818,
      "ju": 8819,
      "##rac": 8820,
      "##ba": 8821,
      "##wald": 8822,
      "##zi": 8823,
      "##err": 8824,
      "##inje": 8825,
      "##arth": 8826,
      "##icop": 8827,
      "##elle": 8828,
      "##otton": 8829,
      "conj": 8830,
      "##udes": 8831,
      "exit": 8832,
      "Story": 8833,
      "clock": 8834,
      "cloth": 8835,
      "Third": 8836,
      "Along": 8837,
      "feed": 8838,
      "deck": 8839,
      "formally": 8840,
      "followers": 8841,
      "else": 8842,
      "operating": 8843,
      "products": 8844,
      "simultane": 8845,
      "1959": 8846,
      "considers": 8847,
      "USD": 8848,
      "classic": 8849,
      "##echism": 8850,
      "Flight": 8851,
      "McG": 8852,
      "refers": 8853,
      "politic": 8854,
      "represents": 8855,
      "covering": 8856,
      "criticised": 8857,
      "divisions": 8858,
      "Atlanta": 8859,
      "doesn": 8860,
      "improv": 8861,
      "closer": 8862,
      "Emperor": 8863,
      "escort": 8864,
      "Queens": 8865,
      "absence": 8866,
      "feelings": 8867,
      "visitors": 8868,
      "normally": 8869,
      "hundreds": 8870,
      "legislation": 8871,
      "panel": 8872,
      "deployed": 8873,
      "Writing": 8874,
      "Phoen": 8875,
      "Athletic": 8876,
      "dialogue": 8877,
      "proposal": 8878,
      "Aerith": 8879,
      "Phillies": 8880,
      "astronom": 8881,
      "kitsune": 8882,
      "Colorado": 8883,
      "Bul": 8884,
      "Hud": 8885,
      "Hok": 8886,
      "Kann": 8887,
      "Má": 8888,
      "Pict": 8889,
      "Techn": 8890,
      "Usta": 8891,
      "Wic": 8892,
      "covers": 8893,
      "liber": 8894,
      "pure": 8895,
      "rect": 8896,
      "tank": 8897,
      "##rich": 8898,
      "##rine": 8899,
      "##don": 8900,
      "##iy": 8901,
      "##graf": 8902,
      "##hol": 8903,
      "##boy": 8904,
      "##bishop": 8905,
      "##fare": 8906,
      "##wick": 8907,
      "##CC": 8908,
      "##OK": 8909,
      "##inally": 8910,
      "##ashed": 8911,
      "stable": 8912,
      "##chang": 8913,
      "##ophy": 8914,
      "deem": 8915,
      "orb": 8916,
      "choir": 8917,
      "##iped": 8918,
      "##ishn": 8919,
      "##ishment": 8920,
      "reconnaissance": 8921,
      "##raham": 8922,
      "union": 8923,
      "appropri": 8924,
      "manusc": 8925,
      "attrib": 8926,
      "Front": 8927,
      "forming": 8928,
      "166": 8929,
      "extent": 8930,
      "annually": 8931,
      "Plat": 8932,
      "140": 8933,
      "arrested": 8934,
      "1920s": 8935,
      "convection": 8936,
      "trading": 8937,
      "skull": 8938,
      "biographer": 8939,
      "Championships": 8940,
      "poorly": 8941,
      "Markgraf": 8942,
      "Player": 8943,
      "stationed": 8944,
      "tribut": 8945,
      "satisf": 8946,
      "ensure": 8947,
      "Krak": 8948,
      "moments": 8949,
      "Enterprise": 8950,
      "spiritual": 8951,
      "drums": 8952,
      "displays": 8953,
      "Dominican": 8954,
      "Modern": 8955,
      "researchers": 8956,
      "reconstruction": 8957,
      "pupils": 8958,
      "resources": 8959,
      "DAG": 8960,
      "illeg": 8961,
      "overwhel": 8962,
      "##emetery": 8963,
      "Furtado": 8964,
      "Raffles": 8965,
      "Ustaš": 8966,
      "09": 8967,
      "Bat": 8968,
      "Bell": 8969,
      "Dor": 8970,
      "Fore": 8971,
      "Jenn": 8972,
      "Late": 8973,
      "Nad": 8974,
      "Pan": 8975,
      "Satur": 8976,
      "Treat": 8977,
      "U2": 8978,
      "Valky": 8979,
      "dream": 8980,
      "dipl": 8981,
      "lose": 8982,
      "lists": 8983,
      "nav": 8984,
      "rugby": 8985,
      "saves": 8986,
      "sunk": 8987,
      "wings": 8988,
      "##lec": 8989,
      "##nal": 8990,
      "##DH": 8991,
      "##inian": 8992,
      "##aled": 8993,
      "##icide": 8994,
      "##roc": 8995,
      "##otype": 8996,
      "frame": 8997,
      "orbit": 8998,
      "##rous": 8999,
      "intense": 9000,
      "abund": 9001,
      "enth": 9002,
      "##action": 9003,
      "##eph": 9004,
      "Sholay": 9005,
      "transition": 9006,
      "15th": 9007,
      "1940s": 9008,
      "obst": 9009,
      "extension": 9010,
      "belt": 9011,
      "##ullen": 9012,
      "useful": 9013,
      "modified": 9014,
      "entitled": 9015,
      "driven": 9016,
      "posted": 9017,
      "influential": 9018,
      "Mexican": 9019,
      "steam": 9020,
      "injuries": 9021,
      "memory": 9022,
      "withdrew": 9023,
      "FIFA": 9024,
      "understanding": 9025,
      "dramatic": 9026,
      "bombard": 9027,
      "purposes": 9028,
      "essential": 9029,
      "muscaria": 9030,
      "Special": 9031,
      "doubt": 9032,
      "util": 9033,
      "NHL": 9034,
      "submarine": 9035,
      "Grammy": 9036,
      "Fernand": 9037,
      "02": 9038,
      "78": 9039,
      "Bath": 9040,
      "Cape": 9041,
      "CBS": 9042,
      "Found": 9043,
      "Holl": 9044,
      "Labor": 9045,
      "Nichol": 9046,
      "Our": 9047,
      "Sn": 9048,
      "bed": 9049,
      "dinosaur": 9050,
      "gard": 9051,
      "jun": 9052,
      "loyal": 9053,
      "pack": 9054,
      "rated": 9055,
      "rates": 9056,
      "ridge": 9057,
      "saved": 9058,
      "tests": 9059,
      "##cements": 9060,
      "##hang": 9061,
      "##oh": 9062,
      "##life": 9063,
      "##ker": 9064,
      "##vati": 9065,
      "##burn": 9066,
      "##ilst": 9067,
      "ash": 9068,
      "##owiec": 9069,
      "streets": 9070,
      "##ateau": 9071,
      "plane": 9072,
      "shipping": 9073,
      "spoke": 9074,
      "##iang": 9075,
      "herd": 9076,
      "enfor": 9077,
      "ago": 9078,
      "##ricted": 9079,
      "otherwise": 9080,
      "##teenth": 9081,
      "Comb": 9082,
      "formal": 9083,
      "actual": 9084,
      "ammun": 9085,
      "##ifications": 9086,
      "Show": 9087,
      "123": 9088,
      "##inson": 9089,
      "severely": 9090,
      "155": 9091,
      "113": 9092,
      "parish": 9093,
      "installed": 9094,
      "generated": 9095,
      "helicop": 9096,
      "restrict": 9097,
      "Prog": 9098,
      "listen": 9099,
      "engines": 9100,
      "demand": 9101,
      "##shore": 9102,
      "originated": 9103,
      "influences": 9104,
      "divor": 9105,
      "excess": 9106,
      "watching": 9107,
      "Corpor": 9108,
      "Richmond": 9109,
      "Maggie": 9110,
      "Township": 9111,
      "crosses": 9112,
      "informed": 9113,
      "burned": 9114,
      "materials": 9115,
      "persu": 9116,
      "cruiser": 9117,
      "Portugal": 9118,
      "Israeli": 9119,
      "suggesting": 9120,
      "Norway": 9121,
      "apparently": 9122,
      "dynasty": 9123,
      "journalist": 9124,
      "happened": 9125,
      "picture": 9126,
      "chairman": 9127,
      "Observ": 9128,
      "##niowiec": 9129,
      "circumstances": 9130,
      "Wiś": 9131,
      "prerogative": 9132,
      "ammunition": 9133,
      "900": 9134,
      "Benn": 9135,
      "Cec": 9136,
      "Gwen": 9137,
      "Hamp": 9138,
      "Having": 9139,
      "Kev": 9140,
      "Lith": 9141,
      "Mother": 9142,
      "Roth": 9143,
      "Sid": 9144,
      "Ut": 9145,
      "bull": 9146,
      "citing": 9147,
      "festival": 9148,
      "ori": 9149,
      "##lie": 9150,
      "##western": 9151,
      "##ori": 9152,
      "relie": 9153,
      "unlike": 9154,
      "Alb": 9155,
      "disaster": 9156,
      "partially": 9157,
      "##inder": 9158,
      "Ark": 9159,
      "##ugosl": 9160,
      "movements": 9161,
      "interests": 9162,
      "101": 9163,
      "Who": 9164,
      "carved": 9165,
      "Blood": 9166,
      "operate": 9167,
      "generals": 9168,
      "exposure": 9169,
      "Space": 9170,
      "starlings": 9171,
      "Guide": 9172,
      "Parvati": 9173,
      "eleven": 9174,
      "phr": 9175,
      "1927": 9176,
      "1928": 9177,
      "causes": 9178,
      "victories": 9179,
      "survive": 9180,
      "ready": 9181,
      "factors": 9182,
      "mixture": 9183,
      "predomin": 9184,
      "Ministry": 9185,
      "##species": 9186,
      "Khand": 9187,
      "merch": 9188,
      "Moore": 9189,
      "Wilson": 9190,
      "##itzer": 9191,
      "layer": 9192,
      "cancer": 9193,
      "administr": 9194,
      "institution": 9195,
      "instruments": 9196,
      "overseas": 9197,
      "shells": 9198,
      "interpret": 9199,
      "Swedish": 9200,
      "Jacob": 9201,
      "jackrab": 9202,
      "substantial": 9203,
      "Réunion": 9204,
      "resistance": 9205,
      "##roscop": 9206,
      "##ekāntavāda": 9207,
      "Barker": 9208,
      "behaviour": 9209,
      "Ustaše": 9210,
      "Wiśniowiec": 9211,
      "84": 9212,
      "92": 9213,
      "Az": 9214,
      "Bab": 9215,
      "Baker": 9216,
      "Bureau": 9217,
      "Eaton": 9218,
      "Gary": 9219,
      "Kim": 9220,
      "Mun": 9221,
      "Masters": 9222,
      "Rom": 9223,
      "Sab": 9224,
      "Soon": 9225,
      "Sports": 9226,
      "VII": 9227,
      "Yugosl": 9228,
      "dangerous": 9229,
      "eat": 9230,
      "mamm": 9231,
      "turb": 9232,
      "wine": 9233,
      "##EC": 9234,
      "##Hg": 9235,
      "##zac": 9236,
      "##heera": 9237,
      "##inent": 9238,
      "inher": 9239,
      "##ilation": 9240,
      "##urst": 9241,
      "##urse": 9242,
      "wasn": 9243,
      "bearing": 9244,
      "heat": 9245,
      "shop": 9246,
      "spend": 9247,
      "spores": 9248,
      "##oko": 9249,
      "resign": 9250,
      "resigned": 9251,
      "afterwards": 9252,
      "writings": 9253,
      "subst": 9254,
      "subspecies": 9255,
      "amateur": 9256,
      "supporters": 9257,
      "Branch": 9258,
      "178": 9259,
      "instance": 9260,
      "advis": 9261,
      "models": 9262,
      "impossible": 9263,
      "restored": 9264,
      "marry": 9265,
      "latex": 9266,
      "McL": 9267,
      "deliver": 9268,
      "##urricanes": 9269,
      "temples": 9270,
      "windows": 9271,
      "compete": 9272,
      "Police": 9273,
      "looks": 9274,
      "electronic": 9275,
      "techniques": 9276,
      "burning": 9277,
      "Media": 9278,
      "sequences": 9279,
      "engineers": 9280,
      "chess": 9281,
      "thinking": 9282,
      "interesting": 9283,
      "tribute": 9284,
      "establishing": 9285,
      "##rorist": 9286,
      "Howe": 9287,
      "Veronica": 9288,
      "loan": 9289,
      "interaction": 9290,
      "opportunities": 9291,
      "thousand": 9292,
      "Massachus": 9293,
      "behavior": 9294,
      "departure": 9295,
      "premiered": 9296,
      "beautiful": 9297,
      "Stewart": 9298,
      "Gilbert": 9299,
      "congreg": 9300,
      "infrast": 9301,
      "nickn": 9302,
      "##owntown": 9303,
      "Kannada": 9304,
      "Khandoba": 9305,
      "Massachusetts": 9306,
      "Back": 9307,
      "Budd": 9308,
      "Celt": 9309,
      "Dig": 9310,
      "Dak": 9311,
      "Eagle": 9312,
      "Jr": 9313,
      "Lang": 9314,
      "Midge": 9315,
      "Osc": 9316,
      "Ra": 9317,
      "Sle": 9318,
      "Sans": 9319,
      "Vul": 9320,
      "Wright": 9321,
      "bord": 9322,
      "icon": 9323,
      "mode": 9324,
      "pale": 9325,
      "sale": 9326,
      "vast": 9327,
      "##rquez": 9328,
      "##iac": 9329,
      "##mate": 9330,
      "##uable": 9331,
      "##va": 9332,
      "##jo": 9333,
      "inHg": 9334,
      "##asm": 9335,
      "Then": 9336,
      "forcing": 9337,
      "##ulating": 9338,
      "##agas": 9339,
      "##eston": 9340,
      "##opl": 9341,
      "prove": 9342,
      "##ears": 9343,
      "notably": 9344,
      "climate": 9345,
      "##ryce": 9346,
      "perce": 9347,
      "##weight": 9348,
      "commem": 9349,
      "remember": 9350,
      "##obile": 9351,
      "##onto": 9352,
      "165": 9353,
      "elsewhere": 9354,
      "minimum": 9355,
      "musician": 9356,
      "adventure": 9357,
      "1933": 9358,
      "helmet": 9359,
      "myst": 9360,
      "reprod": 9361,
      "Perfect": 9362,
      "##encing": 9363,
      "##apping": 9364,
      "situated": 9365,
      "readers": 9366,
      "cyt": 9367,
      "Record": 9368,
      "##ucky": 9369,
      "squadron": 9370,
      "recognised": 9371,
      "achieve": 9372,
      "check": 9373,
      "memorial": 9374,
      "coins": 9375,
      "##ASA": 9376,
      "experiences": 9377,
      "Miller": 9378,
      "struggle": 9379,
      "Cathedral": 9380,
      "neighbor": 9381,
      "vessel": 9382,
      "rooms": 9383,
      "Historic": 9384,
      "Jurchen": 9385,
      "Mulder": 9386,
      "Mozambique": 9387,
      "acknowled": 9388,
      "Phoenix": 9389,
      "Márquez": 9390,
      "Bah": 9391,
      "Cob": 9392,
      "Fel": 9393,
      "Las": 9394,
      "Mach": 9395,
      "PC": 9396,
      "Point": 9397,
      "Sup": 9398,
      "Such": 9399,
      "Wag": 9400,
      "creek": 9401,
      "fant": 9402,
      "fountain": 9403,
      "giant": 9404,
      "horn": 9405,
      "rib": 9406,
      "sad": 9407,
      "sons": 9408,
      "sung": 9409,
      "tack": 9410,
      "tanks": 9411,
      "##hist": 9412,
      "##ugh": 9413,
      "##pson": 9414,
      "ing": 9415,
      "##isler": 9416,
      "toll": 9417,
      "##rees": 9418,
      "##omura": 9419,
      "frig": 9420,
      "##ctions": 9421,
      "##arte": 9422,
      "tra": 9423,
      "trained": 9424,
      "enh": 9425,
      "##uces": 9426,
      "desert": 9427,
      "Univers": 9428,
      "##egov": 9429,
      "format": 9430,
      "##ologies": 9431,
      "founder": 9432,
      "Scully": 9433,
      "##elsen": 9434,
      "paras": 9435,
      "artwork": 9436,
      "designs": 9437,
      "depending": 9438,
      "depicts": 9439,
      "1957": 9440,
      "characterized": 9441,
      "Herz": 9442,
      "Coleman": 9443,
      "starred": 9444,
      "Gray": 9445,
      "Canal": 9446,
      "storms": 9447,
      "engage": 9448,
      "antic": 9449,
      "delayed": 9450,
      "Barry": 9451,
      "formerly": 9452,
      "westward": 9453,
      "Simpson": 9454,
      "grounds": 9455,
      "Express": 9456,
      "radiation": 9457,
      "Federal": 9458,
      "sufficient": 9459,
      "cleared": 9460,
      "fallen": 9461,
      "measured": 9462,
      "costs": 9463,
      "Toronto": 9464,
      "documents": 9465,
      "transportation": 9466,
      "Belg": 9467,
      "Russia": 9468,
      "objective": 9469,
      "Justice": 9470,
      "weapon": 9471,
      "vehicle": 9472,
      "remarked": 9473,
      "holiday": 9474,
      "##chell": 9475,
      "Bulls": 9476,
      "Girls": 9477,
      "crops": 9478,
      "citizens": 9479,
      "biggest": 9480,
      "convinced": 9481,
      "Shakespeare": 9482,
      "Hudson": 9483,
      "Saturday": 9484,
      "Kevin": 9485,
      "03": 9486,
      "Ba": 9487,
      "Bow": 9488,
      "CP": 9489,
      "FRE": 9490,
      "Kong": 9491,
[...]
