[PAD]
[UNK]
[CLS]
[SEP]
[MASK]
!
"
#
$
%
&
'
(
)
*
+
,
-
.
/
0
1
2
3
4
5
6
7
8
9
:
;
<
=
>
?
@
A
B
C
D
E
F
G
H
I
J
K
L
M
N
O
P
Q
R
S
T
U
V
W
X
Y
Z
[
\
]
^
_
`
a
b
c
d
e
f
g
h
i
j
k
l
m
n
o
p
q
r
s
t
u
v
w
x
y
z
|
}
~
¡
¢
£
¥
§
°
±
²
³
´
µ
·
º
½
¿
Á
Ä
Å
Æ
Ç
É
Í
Î
Ñ
Ó
Ö
×
Ø
Ú
Ü
Þ
ß
à
á
â
ã
ä
å
æ
ç
è
é
ê
ë
ì
í
î
ï
ð
ñ
ò
ó
ô
ö
ø
ù
ú
û
ü
ý
þ
Ā
ā
ă
ą
ć
Č
č
Đ
đ
Ē
ē
Ĕ
ĕ
ė
ę
ğ
ħ
ī
İ
ı
Ľ
Ł
ł
ń
Ō
ō
œ
ř
Ś
ś
Ş
ş
Š
š
ţ
ũ
ū
ů
ų
ź
Ż
ż
Ž
ž
ơ
ư
ǎ
ǔ
Ș
ș
ț
ȯ
ɐ
ɑ
ɒ
ɔ
ə
ɛ
ɜ
ɡ
ɢ
ɪ
ɫ
ɳ
ɽ
ɾ
ʁ
ʃ
ʊ
ʋ
ʒ
ʔ
ʕ
ʲ
ʻ
ʼ
ʾ
ʿ
ˈ
ˌ
ː
́
̃
̍
̥
̯
͍
Α
Δ
Κ
Ν
Π
Τ
Φ
Χ
Ω
ά
έ
ή
ί
α
β
γ
δ
ε
η
θ
ι
κ
λ
μ
ν
ξ
ο
π
ρ
ς
σ
τ
υ
χ
ψ
ω
ό
ύ
ώ
А
Б
В
Г
К
П
Р
С
У
Х
Я
а
в
г
д
е
ж
з
и
й
к
л
м
н
о
п
р
с
т
у
х
ц
ш
ъ
ы
ь
ю
я
є
ֵ
ֶ
ָ
ֹ
ּ
א
ב
ג
ה
ו
ז
ח
י
ל
ם
מ
ן
נ
ס
ף
פ
צ
ר
ש
ת
ء
أ
إ
ا
ب
ة
ت
ث
ج
ح
خ
د
ذ
ر
س
ش
ص
ع
ف
ق
ك
ل
م
ن
ه
و
ي
ܐ
ܕ
ܗ
ܝ
ܠ
ܢ
ܬ
ܲ
ܵ
ं
अ
ई
क
ग
ण
त
द
न
प
ब
म
य
र
ल
व
स
ह
ा
ि
ु
ू
े
ै
्
আ
ল
হ
া
্
ਅ
ਲ
ਹ
ਾ
ੁ
ੱ
അ
ള
ഹ
ാ
്
ก
ค
ง
ช
ซ
ญ
ฐ
ณ
ด
ต
น
บ
ป
พ
ภ
ม
ย
ร
ล
ว
ศ
ษ
ส
ห
อ
ฮ
ะ
ั
า
ิ
ี
ึ
เ
แ
ไ
็
่
้
๊
์
Ⴀ
Ⴂ
Ⴃ
Ⴈ
Ⴌ
Ⴕ
Ⴟ
ა
ბ
გ
დ
ე
ვ
ზ
თ
ი
კ
ლ
მ
ნ
ო
პ
ჟ
რ
ს
ტ
უ
ფ
ქ
ღ
ყ
შ
ჩ
ც
ძ
წ
ჭ
ხ
ჯ
ჰ
ჱ
ჲ
ჳ
ჴ
ჵ
ჶ
ჷ
ჸ
ჹ
ჺ
჻
ᵻ
ḍ
ḏ
Ḥ
ḥ
ḷ
ṃ
ṅ
ṇ
ṛ
ṣ
ṭ
ṯ
ạ
ả
ấ
ầ
ậ
ắ
ễ
ệ
ị
ọ
ỏ
ỗ
ộ
ớ
ứ
ử
ữ
ỳ
ỹ
ἀ
ἰ
ὀ
ὁ
ὑ
‐
‑
–
—
―
‘
’
“
”
„
†
‡
•
…
′
″
⁄
₣
₤
€
₹
⅓
⅔
→
−
≡
≤
①
☉
☫
♀
♭
♯
⚳
〈
〉
〜
あ
い
う
お
か
が
き
ぎ
く
ぐ
け
こ
ご
さ
し
す
ず
ぜ
た
だ
ち
っ
つ
と
な
に
の
は
ば
ひ
ふ
ほ
ま
み
め
も
ゃ
ゆ
ょ
ら
り
る
れ
わ
を
ん
ァ
ア
ィ
イ
ゥ
ェ
エ
ォ
オ
カ
ガ
キ
ク
グ
ゲ
コ
サ
シ
ジ
ス
ズ
セ
タ
ダ
チ
ッ
ツ
テ
デ
ト
ド
ナ
ニ
ネ
ノ
ハ
バ
パ
フ
ブ
プ
ヘ
ベ
マ
ミ
ム
モ
ャ
ュ
ョ
ラ
リ
ル
レ
ロ
ン
ヴ
・
ー
一
七
下
世
丙
中
主
乃
之
乙
九
二
云
人
今
付
作
侗
依
信
傳
儚
充
光
全
兵
其
具
円
再
出
判
前
剛
劇
劉
動
化
北
华
厂
去
古
可
台
史
同
名
君
吳
周
命
和
咲
善
四
國
園
圣
在
坂
堤
場
塘
夕
大
天
夫
女
妙
姚
子
孟
守
安
宋
完
宗
宝
宫
寝
寺
小
少
尾
山
岳
川
州
巳
市
師
平
广
庆
府
座
廬
建
式
張
彌
彩
彼
後
御
德
思
愛
憑
憶
應
懷
战
戦
扈
技
拉
拳
挑
揺
攻
放
政
散
斯
方
日
旦
旭
昌
明
星
春
晋
景
曦
月
望
未
本
李
村
杜
束
来
林
桜
梶
棘
椎
楊
楚
榮
橘
機
正
殻
殿
母
水
汉
沂
沙
河
泗
波
泣
洪
淹
清
湯
漢
澄
澤
火
灯
灵
灼
焼
熱
物
狐
狸
玄
王
玩
珂
珙
球
理
琦
琪
瓊
生
田
畢
番
瘡
白
皮
真
砲
礮
祈
神
祠
秋
空
立
精
約
絵
織
義
翠
者
耕
肖
胡
膀
臂
興
良
花
芳
芽
若
英
藕
藥
蘄
蘇
行
裁
規
覺
观
解
記
誓
誡
誰
謎
许
谭
豪
豫
費
贵
赤
趙
足
跡
転
辛
逆
遇
運
過
遠
選
邦
邱
部
郭
都
酈
里
野
金
銃
鋼
錄
錡
鍵
鐵
钱
铁
關
防
阿
陈
陳
陽
隊
階
集
雪
雲
霖
霹
靂
韓
願
顯
颜
马
高
龍
대
독
라
립
병
보
부
알
연
제
ﷲ
ﻋ
／
３
～
##a
##r
##d
##i
##g
##m
##e
##c
##h
##s
##o
##l
##u
##t
##n
##T
##E
##P
##k
##y
##v
##b
##p
##f
##7
##w
##x
##ā
##H
##â
##z
##R
##S
##C
##8
##2
##4
##9
##O
##A
##j
##3
##5
##M
##U
##ˈ
##ɪ
##F
##V
##N
##ʻ
##ჲ
##1
##0
##é
##B
##D
##ォ
##ル
##テ
##q
##ä
##W
##G
##è
##6
##L
##ō
##I
##ø
##ạ
##X
##ল
##á
##š
##Y
##K
##J
##ộ
##ł
##í
##έ
##ν
##ο
##ς
##ù
##ა
##ψ
##ι
##ă
##ş
##č
##Q
##ć
##ṯ
##ô
##ū
##ú
##ï
##უ
##ც
##ე
##ს
##ი
##ñ
##ਲ
##ਹ
##ੁ
##し
##τ
##ί
##μ
##ό
##ά
##δ
##ą
##ó
##ל
##ה
##ã
##ö
##å
##ト
##ゥ
##ナ
##œ
##ल
##ा
##ई
##ṇ
##ɔ
##γ
##ρ
##ن
##ơ
##の
##た
##ま
##ü
##セ
##リ
##オ
##ス
##ệ
##ţ
##Z
##ș
##ị
##ž
##ل
##أ
##ب
##ḏ
##ू
##र
##ī
##ʁ
##đ
##ṅ
##ì
##ē
##ỗ
##ɫ
##ȯ
##ə
##ו
##ּ
##ิ
##ภ
##า
##ด
##ع
##ة
##à
##æ
##ë
##ʒ
##ê
##α
##ː
##о
##в
##е
##т
##с
##к
##а
##я
##ś
##א
##つ
##を
##ɑ
##ੱ
##ਾ
##め
##ğ
##う
##き
##ı
##ึ
##س
##ت
##ا
##ั
##ล
##อ
##ฮ
##ɒ
##り
##ė
##р
##н
##ы
##й
##ἰ
##β
##д
##ъ
##ж
##л
##ɛ
##か
##な
##わ
##い
##υ
##є
##λ
##ỳ
##ử
##ç
##פ
##ヴ
##ァ
##キ
##ュ
##ア
##м
##ʃ
##व
##द
##Ē
##χ
##º
##ß
##ầ
##û
##ń
##ʔ
##რ
##ტ
##イ
##ț
##ɾ
##ʲ
##î
##ク
##サ
##ܕ
##ܝ
##ܢ
##ܬ
##ق
##د
##ḷ
##ロ
##부
##대
##ण
##ि
##ं
##ग
##ო
##მ
##ლ
##ラ
##ッ
##シ
##ニ
##レ
##チ
##ð
##エ
##タ
##デ
##ỏ
##ャ
##モ
##ン
##ε
##ξ
##י
##ס
##ネ
##ョ
##ֹ
##ף
##ǎ
##ṣ
##ാ
##ഹ
##พ
##ɡ
##ᵻ
##ư
##ớ
##ָ
##ֶ
##ḥ
##ʿ
##ן
##и
##თ
##ვ
##ث
##م
##ف
##ر
##เ
##ป
##ย
##ー
##ذ
##ي
##ɜ
##ズ
##ブ
##ò
##у
##π
##ィ
##グ
##ダ
##ム
##ェ
##ǔ
##ه
##ك
##ツ
##ứ
##ド
##フ
##ź
##ガ
##ჱ
##ら
##θ
##ш
##ц
##ь
##ば
##く
##ん
##წ
##ფ
##も
##こ
##と
##É
##κ
##ų
##з
##ค
##ร
##ว
##ต
##ũ
##れ
##る
##ะ
##ช
##น
##ý
##ณ
##ม
##ю
##ů
##ก
##ษ
##ฐ
##ぐ
##ء
##라
##ב
##ת
##ש
##מ
##צ
##３
##ゆ
##ή
##ấ
##ר
##ם
##ხ
##ჳ
##ṭ
##プ
##п
##г
##ữ
##न
##े
##क
##ʊ
##ˌ
##バ
##ṃ
##ნ
##η
##っ
##ỹ
##დ
##ḍ
##お
##ắ
##გ
##ż
##ω
##あ
##х
##ώ
##ọ
##Ĕ
##ี
##ノ
##ֵ
##ご
##ょ
##に
##ậ
##ള
##ص
##ɐ
##독
##립
##보
##병
##연
##แ
##ܲ
##ܠ
##ܵ
##ܗ
##ܐ
##み
##が
##ĕ
##ش
##و
##ह
##σ
##ύ
##خ
##ɳ
##す
##ひ
##ミ
##ễ
##ę
##ぜ
##ح
##נ
##Ä
##ै
##ซ
##ず
##マ
##ả
##ṛ
##ɽ
##ქ
##া
##হ
##स
##ु
##ち
##ゃ
##إ
##ř
##ง
##ไ
##he
the
##er
##in
##ed
##on
##nd
##at
##or
##es
##ar
##en
of
##an
in
##al
##it
##ing
##is
##as
and
to
##ic
##ou
##re
##ion
##om
##el
##il
th
##ent
##ec
##st
##am
##ur
##et
##ad
##ol
##ac
was
##ro
The
on
##ly
##ir
##le
for
##iv
##id
##ter
##ot
##ig
as
##ow
##ith
st
##ay
##em
##im
##ut
be
that
with
##ation
##th
is
##ers
##us
##ts
wh
re
by
al
##ul
##ch
con
##ce
##ver
##and
##os
at
##ain
fr
19
##ag
an
##her
##av
##um
##est
##od
his
from
##op
##ess
com
##ri
##ct
##un
he
##ap
20
pro
##ies
##ere
su
de
##ear
##ist
##ill
In
##if
##ew
were
##ong
##ak
##ld
##ort
##ab
##all
##igh
##ate
##ard
##ect
it
##ich
##oc
se
or
ch
##pp
##ud
##ber
ex
##gh
##ated
##ity
pl
##art
##se
##ame
##ive
are
sh
##ant
##ore
had
##ack
##rou
which
##ov
##our
sp
##ian
##nt
St
pr
##ast
not
##ell
tr
##ip
##ally
##ord
##ine
##ge
##ment
##ost
##rit
##ther
##ave
##ish
##ia
##ue
##pt
Ch
rec
##ary
##ust
le
200
fir
##ous
##ight
inc
##pl
##cc
##og
##out
their
but
int
cont
##ie
ar
##ions
##ra
##so
##fter
first
##qu
##ould
##ial
its
##ure
whe
##hed
##oll
her
##wo
##ub
##ical
also
##ok
cl
##ff
##own
##per
##ide
##ome
##ater
ab
ad
##ass
##ru
res
##ire
##ork
rel
##orm
##00
##ign
##age
have
un
one
en
He
##ence
has
##mer
##ond
##ough
##ry
Th
been
##ime
two
##ans
per
18
##ree
##ound
##uring
##ile
sc
##land
Al
##ely
comp
##end
##uc
this
dis
bec
app
all
##iz
##ition
##ance
##ang
##ey
##ach
##ade
who
##lud
play
##ations
they
ag
year
des
##ory
man
201
##ric
It
other
##pr
after
ser
##ib
over
##act
##ite
off
##ount
im
part
##ult
includ
##ik
att
##urn
us
##ark
out
##wn
##over
##ember
##ace
##ng
##ens
##ice
##ents
pre
up
##eas
time
##ind
ev
into
##nder
##we
##ose
##ail
##oy
she
comm
would
##ied
##oin
more
##amp
On
##te
##rough
##ward
##man
##able
we
##ever
##tern
him
##ited
##ings
##ason
##rib
##ors
cent
##ood
Un
##les
##ild
##ix
##ock
##ates
work
##ious
##one
##inal
##old
##ces
##iss
##port
##ev
##ake
##ath
##ction
them
sec
##ss
bet
when
rem
Fr
song
##ick
fe
##ted
ear
##aw
##fer
Ar
##ual
kn
##ep
##gan
cons
##round
##aus
most
##ubl
##form
fl
during
new
##orth
only
dec
game
##ons
##ilm
##ved
##ug
##ook
##ters
##oth
##eld
##ollow
##att
Mar
can
##reat
##ween
##way
##ob
##outh
##are
##vel
about
te
char
again
199
three
under
than
##ral
season
##ational
##ular
##ft
between
##ict
##ered
##hn
##hip
##eg
record
through
##iew
##ision
##fore
Com
num
later
##orn
end
pos
while
prod
writ
##ames
film
##ished
reg
form
ass
##als
made
sub
##ury
ac
ret
where
acc
ind
##olog
pe
act
New
spec
mov
##ener
##ank
##ating
##meric
##orld
inter
some
Americ
lar
##ph
bas
def
##ole
##bum
##aid
releas
follow
gr
bu
##ived
mus
am
such
##ont
##ced
##ann
second
so
four
##ike
At
used
##ery
day
This
##hes
An
rev
##ific
000
##red
As
publ
call
##ily
##hen
album
##ex
Sh
##any
before
me
do
being
##res
10
Eng
##oun
there
##ected
ep
sy
supp
Jo
##ane
##ics
##owever
mon
bl
Br
found
no
high
set
years
co
##ird
##ars
##other
Se
##ained
##ines
sur
##ised
12
##ek
series
number
##pen
##aj
loc
##io
##ins
##ities
##air
##ause
##iver
##ten
##ode
pres
##rop
##eb
sever
both
##ier
##ince
Sc
appear
Car
##ress
##ool
then
##ower
16
##row
epis
##ement
including
##ron
##irect
cap
well
##ather
##ife
qu
became
against
Brit
##iet
##ale
##ise
known
Le
contr
add
##ection
go
trans
charac
back
sing
el
inv
em
##son
##its
pop
##ield
##ert
str
##urch
##ures
many
##ful
198
main
##ern
desc
long
##yl
##though
min
15
##inn
stud
perform
##up
##led
11
United
John
##erm
orig
##velop
met
rece
est
17
pol
##ober
team
##oot
##uch
##ton
century
##els
show
##ve
She
conc
br
##elf
par
##oad
##ative
develop
##0s
sm
##iam
##az
After
##ivers
194
lead
several
##fl
##overn
ob
##ope
mill
##ram
##ually
##ley
began
dif
near
##ah
contin
##ized
sign
##anc
ext
direct
compl
air
##ains
may
##ross
196
##emb
##ll
197
Wh
Ind
##yp
could
##ued
##ase
art
did
##sp
crit
bel
called
cre
episode
##une
early
##au
describ
bro
##roup
##rap
##imes
##ntil
run
##ople
##aking
along
disc
##ull
Is
car
##ccess
said
May
inst
American
feat
##ments
##ink
these
mil
dist
po
##itt
##ium
Bl
you
##der
##enn
##amed
##ured
though
Aust
ship
down
until
prev
##ets
oper
resp
fin
hist
##ange
##ove
city
prov
British
col
gener
same
##ially
##ists
released
land
own
any
##ided
##ruct
##eng
war
cond
They
return
km
##oman
sl
produc
##ty
music
##por
##osed
million
mat
sim
because
design
##ible
area
dep
13
Ger
For
final
use
const
fam
occ
##ently
like
open
exp
Aug
##hy
##ism
##ession
August
Chr
success
pass
##ajor
##und
##ouse
War
##ony
##ash
people
##ues
##chool
##erv
##oss
adv
count
offic
eff
##stem
##cept
six
##uth
##eal
##my
around
small
However
dam
##gg
Sept
##erson
north
mod
head
group
Cl
##ident
195
Ju
poin
start
each
complet
govern
consid
support
##ales
September
Con
Sp
character
following
ne
##omin
Tr
##aining
ed
##ven
ann
All
Ad
five
Austral
var
##ject
Pl
Comm
will
Her
attack
ever
gu
imp
##wards
US
##ording
large
193
World
book
##ient
##lish
##ution
##ute
##ects
##ired
Col
191
##ural
##ting
##aced
##aving
North
##ague
star
##ren
##ox
##ended
##hel
II
id
##ored
tit
14
June
##ilt
week
##aur
##ives
##ately
##med
ent
since
arr
German
Eur
##ina
##ats
Jan
major
dr
##rote
States
received
south
name
##ivision
Gu
hel
partic
South
##ble
coll
public
##omet
Oct
system
Pr
state
what
Christ
##ility
##ages
described
rest
##uary
##aged
King
Par
line
batt
vers
##iving
prot
October
played
det
red
##ax
incre
mar
life
##sc
now
took
##ified
Nov
class
##ody
build
##aim
last
##ively
25
##side
late
world
##by
Gr
wrote
July
##ae
##cl
produ
York
won
##ef
Dec
##ech
##ined
child
##ians
During
much
Fl
larg
result
due
##ology
allow
Can
serv
differ
##par
single
Apr
just
##ropical
April
species
##ret
##ically
camp
##eder
And
gun
another
included
##iod
##ital
##ission
poss
Mc
death
##ext
##ides
short
old
vis
##ham
##ling
storm
left
even
##ideo
within
appro
January
ele
report
##akes
30
tri
England
named
based
estab
if
Pro
although
prog
port
cr
##ai
top
attem
Be
very
ph
third
##ched
##ention
belie
water
##ards
track
bre
##itions
hum
March
games
##ped
event
previous
power
##ilar
##ants
##ops
##ead
school
way
November
beg
men
His
family
Ge
fur
##ulation
##raft
review
##ances
##ograp
By
care
expl
period
home
##ms
typ
Europe
##que
##aster
government
organ
best
turn
those
hand
December
list
##ience
There
##avy
##ached
192
place
##get
story
##amb
built
##hest
great
prom
original
Mus
100
kill
##iven
##ested
When
month
conv
##oci
##ature
##ench
opp
sent
make
##ented
hal
##itary
##elt
command
requ
eng
City
##aff
##iversity
auth
##ple
med
ant
National
dem
mark
Ph
##ences
##alk
##ison
repr
Or
del
person
##gy
##uss
club
2009
##inc
Bro
##urric
##ning
2010
view
repl
my
##ung
2008
##oard
still
capt
River
moved
led
video
local
##ival
##ott
came
cour
##ps
##aken
Bar
dest
role
##ke
##ball
term
##line
stand
leg
##ense
##ness
iss
##ories
##ruction
often
common
addition
Man
caus
##ests
##idge
##lear
few
##ler
##atter
rep
sugg
trad
##ner
##read
considered
next
##rew
player
mid
deb
Ab
##astern
No
side
##ged
##ister
similar
##mp
##sh
##int
##urr
recorded
English
exper
One
2007
French
init
##rod
##ays
win
real
We
##uted
##ior
claim
company
import
sold
tem
published
continued
increas
Acc
sol
town
arch
wind
different
without
Char
take
songs
With
tot
Batt
av
infl
El
held
tw
tel
21
Am
former
##ternational
among
Will
ref
level
memb
polit
mag
road
refer
field
You
##oyal
written
##itar
every
Per
##inning
##ices
##estern
half
Ed
##roy
further
23
Division
sk
prop
repres
##bs
commun
##urricane
find
##ene
become
##be
attempt
According
west
##raw
Although
strong
however
##enc
##ried
church
##urs
##ampions
days
##ensive
east
join
##augh
Port
##ights
2011
##iter
spe
particular
Canad
low
##yn
conf
##ption
position
##pite
compet
##ize
Comp
release
Af
Pol
title
foot
##ising
beh
State
2006
24
prof
military
author
##app
##ebru
##aly
##oute
Count
origin
history
26
##reen
version
Roman
West
order
22
##ches
##let
##eter
Gener
band
Church
##ittle
times
##ipp
##uct
##yle
##outher
##press
less
##outhern
fre
gave
defe
vict
control
##ves
##aces
##ylan
reported
Febru
February
Dylan
nort
League
members
##anes
chang
enter
produced
Geor
cover
##ailed
total
##self
##iment
##oms
##ared
nov
##evision
Ass
fire
ter
##hern
28
##osp
Song
##arm
##iety
tropical
##omen
Park
##ape
inf
##aying
2012
Jap
Old
post
##atic
point
career
children
include
histor
production
having
pat
##ably
critic
popular
invol
surv
lost
##hem
forces
Air
given
##arr
Ha
want
##ks
##ford
##alion
country
##aul
young
##echn
obs
Afric
Re
aff
influ
##oon
##ald
signific
equ
##ush
press
Dav
Sim
##ength
eight
##ots
seen
##ploy
manag
site
##reet
##ional
comb
sit
##work
making
never
Miss
Su
body
##ones
##ither
stated
establ
Ear
fem
##ours
match
Cent
gen
ord
should
##uced
##isc
read
2013
While
program
General
returned
##aised
cult
ft
##ator
stat
##sequ
Ev
University
frie
50
how
sound
##tain
gl
##con
##ades
These
##aun
earl
announ
established
##rem
island
##earch
ships
cor
god
ground
soc
reached
population
27
cat
noted
America
away
div
##dom
struct
190
exc
friend
Ex
##ying
##ream
Jack
##omb
lim
##ne
throughout
developed
thought
##ampionship
##af
##igade
##ration
##ges
##aint
Ire
Lond
##iec
seven
across
somet
##orts
present
Ireland
##ering
right
introd
Black
William
fact
good
rad
using
himself
London
Reg
##ination
##used
cy
##ords
black
##ki
##fic
Mich
##ket
destroy
cast
hig
felt
significant
##oo
wat
plan
performed
Cor
De
##irc
trav
human
cou
##iness
##idence
important
##ological
father
adm
Gl
fun
##eth
##ogn
miles
##itive
Australia
various
television
Feder
Des
Rich
##imately
white
areas
development
full
Cal
Pal
died
look
ten
##ivil
##ief
modern
light
went
##ael
ins
##osaur
writing
bo
bar
ball
##antic
Atl
need
Mag
##field
tour
does
successful
Rober
##ster
prim
##most
##reek
events
started
mm
Rec
law
night
##craft
##ective
decl
James
house
##ned
suff
see
players
feet
formed
##iting
##ico
activ
mix
##pression
Cro
elect
fac
range
##vers
##ements
sett
poem
put
vill
##ana
too
caused
Mount
building
techn
##aves
##ourn
relations
En
Road
##aign
force
Cr
##reg
age
sw
##ino
##abor
pri
##na
##isted
created
official
ke
##iers
##elling
##ization
County
novel
##ument
Ang
pit
##fall
189
entire
Mor
son
proc
able
To
##off
##ara
relig
political
Ol
##day
get
2004
others
bird
##alth
##epend
sum
characters
Som
cas
national
##lex
2005
##uck
##idd
style
pred
Ham
##oming
##ample
lik
val
once
##ries
##ficult
High
Town
##ett
remained
discover
Sw
tro
##gr
##mb
##ille
##ways
located
fig
cross
scored
difficult
construction
cert
rock
coast
performance
promot
31
##enth
meet
##ounc
completed
tradition
announced
rank
##ee
Australian
tre
##ck
region
guns
hold
##ivid
enc
##oid
stars
Island
fav
grow
little
nuc
##itted
##omes
super
chart
instead
help
Me
conn
front
##rought
Grand
Company
squ
##enced
Cup
##less
##ublic
added
29
circ
let
##ique
##omm
least
followed
Kingdom
campaign
Bill
##orse
##leet
works
peak
appeared
born
##here
##omp
know
killed
southern
months
Sec
originally
wife
##ani
stri
##play
loss
##ament
##emy
comment
Army
David
mother
associ
fif
mass
goal
##mar
##lement
ident
process
40
eastern
##ota
##umb
sex
##antry
award
non
women
agre
critics
broad
aud
cell
##oice
eventually
relationship
hurricane
##ract
anim
185
Mon
voc
##ston
##angu
bus
far
live
##ius
appoin
fourth
##hys
route
taken
##iol
##aper
project
estim
features
mount
2003
served
Har
Ir
##ata
France
God
Ser
##rated
##ully
Sy
lack
##pts
commer
##istic
2015
decided
damage
Pres
Rock
aver
##chie
heavy
recogn
Two
either
fight
##cher
##azine
represent
Act
separ
##iction
impro
##gin
##liam
insp
##ecut
##ama
prote
##illa
##igned
##ought
special
Ber
toget
individ
believed
Battalion
behind
Robert
together
##ring
##olution
arg
Mad
##utes
arm
Flor
##ency
clear
mater
##oom
proble
dev
##ouncil
dou
clos
##ica
creat
round
##ida
example
close
playing
Carey
Royal
bi
ve
vol
##iation
##iber
##arn
almost
move
##liament
Ant
Hen
Some
##uit
##ened
Love
Red
##acy
Mex
interv
leading
generally
curr
fall
saw
occur
opened
battle
towards
general
35
Du
Min
brought
langu
sel
sour
##aching
weeks
draw
mot
##gar
##oring
##ential
##ceed
##odes
##rict
quar
finished
elements
My
laun
##hing
##uter
ste
##ending
European
host
wall
regular
Brigade
##spec
featured
Bra
Wales
bur
188
aircraft
White
service
Part
miss
##cial
##hic
##stit
##ript
central
##irl
Kh
Rev
hy
net
##board
##anch
##ask
reb
##ordan
indust
Mont
##ators
##alt
study
directed
points
Federer
Viet
action
fund
mi
wid
inform
accept
director
provided
Follow
Other
burn
cut
meas
##ground
##icated
##eler
flood
individual
Med
hon
upon
highway
Jordan
##eum
mean
##ounter
appearance
Co
Im
yard
##ellow
186
earlier
Jew
king
##ky
sequ
##wood
cost
rather
##aps
Championship
From
subsequ
female
Ke
##val
##atin
##ores
troops
East
river
##ania
##ander
##anding
##medi
largest
Following
500
Gal
##sel
stru
International
##ishing
employ
particularly
victory
achie
ill
prob
manager
Sl
qual
##erous
2014
opening
Hero
George
wanted
Cap
House
cop
##ouri
fort
##ports
Christian
Dr
Od
yards
exist
Music
northern
##anese
Atlantic
Mary
foc
##thlet
Rep
member
##cent
##head
##ita
19th
evidence
operations
Wal
saying
##ington
Street
allowed
Mac
Most
pract
outside
crew
possible
engine
Hol
mer
neg
past
##uel
##west
reason
Oliv
Florida
Bay
Em
Game
Mo
hours
whom
##iff
McC
Paul
Wil
viol
poor
Phil
material
free
##uk
##ased
stage
##ems
##ago
##artment
worked
respons
conduct
case
gre
length
nec
##atural
##igg
##ills
regard
territ
Missouri
But
Mark
##ude
working
mach
##ih
##irth
plann
quick
che
love
##men
designed
Day
gold
ly
##ule
##vert
Tor
Tech
lear
mult
##now
##for
##urt
praised
2001
contract
Play
##bor
forced
##hens
Indian
construct
avail
Best
Vir
esc
ren
rul
##ites
remains
Ac
##tt
think
station
winds
Bus
Qu
Val
treat
##onst
##oles
goals
##ography
increased
##conom
Michael
##heast
##aries
diss
previously
civil
above
187
soon
##ronic
effect
replaced
football
Egy
Sm
San
pers
##wh
##ari
##asion
compos
##ributed
commercial
Egypt
must
##uation
##vest
##BC
##erved
##urb
ask
##ula
interest
Squ
##omas
Despite
interview
Whe
nomin
pain
##ming
##ving
##ows
writer
Richard
business
Fir
mph
trib
##co
##jects
##itz
##ids
estimated
Sun
threat
##olic
##aker
units
Carol
Super
Que
##ulf
##ump
specific
surf
Brown
court
claimed
joined
Canada
Oldham
highest
Henry
Hel
pur
placed
Japanese
involved
pen
western
##lege
##usion
##ulated
priv
unc
signed
discuss
suggested
##ecutive
36
##lt
##onc
##atory
inj
##ste
##elled
parts
45
Times
fly
##AF
##ady
##acing
##ayed
##ends
Mos
##iding
intens
itself
President
Olivier
00
Hall
Ne
Pe
don
ey
hous
##ault
##gl
change
shot
ide
average
Fe
hard
op
taking
##cast
league
Arab
##anna
invest
profession
Irish
available
Ag
School
international
##ching
heav
##ector
except
scene
##ibility
transfer
India
brother
##ready
introduced
quarter
Cong
Card
Gold
Var
hit
##ville
##band
whose
##ume
emb
respect
village
wood
##rd
stop
183
travel
Mexico
Vietn
Pac
phys
##ximately
##aph
express
grad
##ze
##osing
proper
Thomas
break
cycl
NY
nine
rail
told
##pper
##porary
damaged
religious
App
piec
rap
##arily
abs
remov
capital
turned
increasing
network
Govern
cal
lines
mem
race
##enes
shows
social
Many
bill
give
##achel
react
chap
##hedral
That
despite
prepar
feel
nearly
appointed
size
independ
Scient
Guitar
determ
community
First
Zeal
cru
date
names
##go
##hib
##unk
##quar
recording
surround
passed
Bo
Great
den
econom
might
withd
##ateg
184
immedi
##inese
establish
initially
certain
##specially
ap
fut
pot
winning
##uction
already
##oph
Union
assist
base
Britain
going
educ
debut
structure
Republic
60
failed
rain
##ha
tow
##irt
states
##bert
Chinese
particip
Not
aut
especially
##etic
deal
disp
according
occup
##osaurus
probably
Pacific
Zealand
Res
key
##gu
##abit
minor
anti
issue
archae
Don
cel
doc
daugh
##den
##fect
##ilities
##odies
##rian
##ability
training
studio
Jin
food
##ises
##ication
forward
spent
includes
arrived
ordered
Wheeler
Cath
Ma
Pri
dro
##aval
army
enough
remaining
##ference
block
Angel
language
Ever
Mal
Sch
liter
male
##ands
##apt
transport
visit
sometimes
mixed
Law
Peter
di
##ties
##zz
##oul
##owl
come
2002
complete
approximately
required
UK
fail
lower
latter
touch
##rick
imm
center
III
personal
Canadian
Associ
##lor
remain
beginning
Navy
Ter
##down
##back
##ete
Art
reveal
reviews
Africa
Later
sem
woman
##aut
##ios
##agon
decision
limited
##stant
Str
usually
better
students
slow
additional
##stein
Hot
Sing
##iest
##to
##edy
dead
Star
Stev
2000
running
Regiment
38
Creek
Tel
journ
##under
##inist
##lymp
##aby
##ecting
ended
positive
concern
larger
changes
Virgin
Je
Olymp
mention
sch
##ults
president
Scott
quest
supported
magazine
Award
Nort
Penn
Rachel
wide
##ney
##zy
##erat
depression
score
pressure
Off
##oor
##orial
Stud
tex
##ification
police
prior
birds
Jer
TV
##inct
##urg
##adron
shown
type
observ
Billboard
Soc
face
ur
##enty
##rief
##ections
notes
related
feature
Charles
75
Tom
birth
##reak
provide
defeated
future
Fort
Sam
der
anc
appl
Frank
discovered
fifth
Mer
Under
sil
section
##me
temper
Japan
Hist
La
Rose
cm
sat
##bers
staff
##uments
##ifa
contem
becoming
frequ
Western
word
##rate
##hou
##uf
##enon
confl
1995
Bel
FI
Hill
##onse
##aring
##unt
exam
smaller
lyric
Pat
doll
##itte
##leg
intended
screen
indic
groups
idea
Wood
##gn
##uing
##era
##oke
percent
themsel
mostly
metres
conclud
themselves
Light
Russ
domin
fleet
##iforn
##pped
##rael
minutes
captured
Haifa
radio
likely
surface
Scientology
Since
Tur
pair
##aven
##iano
largely
referred
Year
lab
link
und
##anz
##anies
##rect
##cean
##ples
##oys
colon
summer
professional
##quarters
Association
makes
##ror
##tr
##anish
##idents
##ishop
moving
musical
response
progress
entered
Earth
Croat
Awards
How
test
##gen
##ship
##asy
contains
research
##orning
constructed
Bey
Nic
Ver
##rom
##jected
inn
ens
account
Californ
keep
problems
Council
nature
self
voice
##riage
sea
adop
2016
office
money
guitar
arrang
Parliament
Portug
celeb
Camp
Ott
Up
mor
##eding
##atively
##icted
grant
Israel
majority
ranked
Jewish
Film
Haw
Ross
##iser
stories
Inf
consist
create
##onym
listed
Mil
coin
leaving
meth
favor
Galvest
schol
Galveston
80
Sov
brief
##kan
##isions
thus
##iva
Chic
controll
experience
33
Oper
lived
##ger
##well
##het
##ining
##oud
##owler
always
deep
##ously
underst
##anks
Another
critical
##hester
gods
agreed
##eratops
##imate
##ership
##change
##ails
earth
##ylv
object
runs
officers
primary
launched
Ben
Mart
Over
Sur
ded
##dle
##esh
##ros
##andon
##illery
prem
##teen
films
minute
##ospital
quickly
California
2nd
fans
##urity
##ipal
##order
amb
meant
##ounts
episodes
teams
proposed
occurred
Dev
If
Mr
##awn
##aches
##imum
traff
whether
1999
assigned
Brad
location
increase
suggest
32
400
hop
vot
##uff
cann
forms
appears
defeat
changed
destroyed
Catholic
Chicago
Bec
Latin
counter
dram
tons
##iant
##ma
##oes
##nel
##umn
##bery
commission
access
longer
poet
effects
meaning
Nix
Os
bound
##rest
##oir
##yc
##pool
##anced
##ortun
princ
Ital
numbers
##undred
soldiers
lyrics
traffic
Kr
Sever
Te
cred
girl
job
kil
mom
##tained
##AS
asp
##thing
reach
trade
leave
attract
newsp
acqu
Scot
carried
competition
nucle
awarded
Hurricane
##iqu
##mas
analy
##raf
##lands
consider
Enter
focus
conducted
private
daughter
300
70
Camb
Dj
Del
Mey
bomb
lo
natural
##ken
##rey
##rown
##ription
Inter
overall
theme
concert
subsequently
BC
Saint
ran
ult
##NA
##ón
thick
deg
env
Alice
dism
fighting
Northern
Its
Jam
Tex
cause
emer
kind
sus
tar
takes
##itor
##itation
##itual
whole
rein
shoot
uns
Alkan
Central
commented
broadcast
double
current
lay
##anas
tourn
##usband
plans
serious
bring
finally
industry
asked
box
jud
log
upper
##gian
##sis
##lo
##itude
##aging
##alled
##ells
centre
1998
ending
media
Polish
greater
method
Nixon
Dep
Minn
Villa
done
purch
##bar
unable
compared
records
accomp
##ologist
##itting
married
##stitute
##ittee
1st
athlet
our
tor
##arch
##owers
refl
flight
standard
##aught
influence
rapid
39
Cour
Sol
Tay
got
lif
yet
##eds
throw
party
##aily
earned
buildings
market
Mosley
47
Liver
living
##TV
##olk
phot
issued
Go
Rob
Sal
dom
dark
##inated
1993
1996
positions
directly
books
marked
Busch
Texas
Foot
Vict
hair
mur
##ees
##ny
##umed
election
begins
cathedral
Somers
traditional
Liverpool
Lake
Tw
Tenn
sal
##rat
##ental
intell
Three
slight
helped
portr
terms
African
Several
Bob
Fowler
Lady
Met
Tre
batter
norm
pil
##house
##II
##aded
sched
scenes
movement
starting
Spanish
Christmas
experi
suffered
inspired
Somerset
42
90
Nor
Out
cur
giving
path
##itch
##ada
##cend
health
20th
##eway
figure
associated
source
information
planned
Taylor
husband
##lin
##bury
##adm
##anded
plot
closed
abandon
##ibly
presented
prevent
marriage
schools
initial
status
Infantry
Gar
Just
Lou
Tour
division
raised
room
via
##odon
##ria
##ify
image
##athan
Franc
presence
transl
condoms
greatest
machine
Soviet
Hum
fell
hundred
pay
wound
##rical
##ien
##like
##erve
##isk
##ican
chall
##pted
unit
##anger
writers
polic
nearby
continue
annual
attacks
culture
Form
Jane
Po
Serv
park
talk
##iated
##ils
##olf
##essa
Inn
complex
##ease
Command
collection
covered
cyclone
Bas
Che
Cross
Route
Tem
##ergy
space
enj
composed
##embly
Paris
Battle
Series
Party
Rosebery
Mill
Ram
hot
##ires
##imb
really
sev
plat
weap
numerous
##inner
extended
producer
commander
waters
territory
Queen
##oncé
Beyoncé
Long
##iny
##atives
things
##uries
##imony
script
uses
Arch
metal
Germany
##ipped
something
vocals
Carolina
Virginia
Meyer
Ill
##án
##atre
##ether
Their
subject
amount
##iami
financ
services
##mpire
figures
proteins
necess
Er
Open
har
morning
pick
saf
##ging
##eign
##sylv
##estival
promin
incor
highly
strength
operation
attacked
Second
education
Pennsylv
text
44
Bol
Games
Jose
bodies
##rid
prec
artist
artillery
attempts
archit
speed
confir
investig
immediately
Miami
Nations
bad
purs
piano
##och
##pole
##omer
stone
##apo
##anta
Through
companies
1997
College
allowing
tracks
powerful
Somal
kilomet
Cer
Pet
dig
kick
rate
tax
##hold
##lim
##vement
inside
##isher
spir
##iple
##ricket
offered
##oint
secret
blood
variety
Museum
situation
friends
needed
nuclear
peaked
selected
purp
removed
susp
##admium
Both
Dam
Six
native
search
##adium
##rovers
concept
##aine
182
##izing
means
symb
coach
distance
headquarters
oppos
copies
##track
Scotland
Victor
Li
Los
Sir
Water
##ademy
##andid
ang
scoring
Colon
hands
attempted
casual
sexual
widely
responsible
Squadron
respectively
Alex
Dem
max
##rol
##oration
##ening
##overs
China
grand
##annel
sets
##rowd
extrem
describes
countries
genus
Jackson
higher
touchdown
Department
##aped
recover
constit
Chris
Anderson
course
middle
magn
observed
heavily
Pennsylvania
51
Bet
Cont
ben
ess
fill
xenon
##aen
##arp
##ado
##rial
##ift
seem
##send
display
studies
performances
below
reduced
##shire
meeting
Braat
Football
enjoy
37
Time
rule
relief
canc
1991
active
interact
blue
matches
sixth
Club
resulted
opportun
Young
Corps
administ
audience
concluded
48
Are
Like
Nes
Rad
corn
hour
##light
##uated
##arrow
stay
true
1992
singer
advant
advance
completely
Smith
76
Av
Cons
Jim
Land
cer
dress
pu
##esota
##room
##iron
stating
##utch
##ulations
disapp
managed
##ype
instit
revealed
question
contemporary
Minnesota
3rd
AI
Hear
paper
ver
wing
##ena
##enge
##akapo
1994
appearances
entr
drum
refused
levels
Center
declared
trees
separate
Green
Jul
Live
Pit
narr
##hew
intern
##isl
##isation
##acher
##essions
controvers
##athus
Sea
brown
Force
approach
activity
Townsend
quality
Hawai
Because
Italian
Meyerbe
Ka
era
habit
lot
##ding
##yr
##bird
##umber
recent
university
Thunder
appar
graph
syn
150
parents
carry
featuring
respond
typically
historical
vocal
Walpole
Meyerbeer
Hind
Tessa
aw
chem
pun
rhy
walk
##hood
##ād
inters
##asc
##stone
beat
##ocr
##rawn
displ
plays
webs
peace
actions
emot
expected
model
Trans
vehic
52
Final
Southern
Yue
fear
iron
rout
##ux
##FA
##ingu
today
##lean
##eman
##ogue
##peror
becomes
attention
weaken
Arg
mainly
conditions
Charl
houses
Nicole
34
Fur
Midd
Sar
crowd
du
nation
royal
wear
inh
thr
##road
##emic
##estic
##ipl
offer
Shiva
1970
instr
##inkel
famil
##ograph
activities
Om
Wild
ir
sn
sense
recomm
actually
specim
calling
##aha
Blue
condom
elev
demonst
soundtrack
protein
Society
Illino
Braathens
Cast
Tod
Tropical
board
overs
##aise
##iro
##MS
##onents
##ams
alt
altern
##oses
##appen
suc
residents
seasons
write
defend
Ann
issues
strugg
struck
achieved
Ottoman
cannot
Court
architect
Balt
Cat
Finkel
Lar
Turn
nin
##bon
thous
##ette
fruit
##essor
##berg
resc
##ounds
scient
shell
##ocks
##ledge
Johnson
efforts
Add
Hait
##tainment
##oof
accepted
##ufact
reinfor
Finkelstein
Bre
Fey
Of
lb
rough
roles
##BA
##utions
##eller
##irection
##ension
distinct
Clark
Spain
Columb
titles
types
avoid
infantry
primarily
practice
Burn
Group
Hal
Little
Mog
mel
##wen
##iles
spread
##orship
musc
background
elected
owned
twenty
Highway
slightly
Tint
dyn
##iled
heart
sust
plant
inches
contrib
181
scale
1986
concent
county
##echan
legal
northeast
combat
##ceeded
Captain
Vietnam
expressed
Portugues
Louis
Fer
Sarn
Wels
cam
farm
fiction
rights
sout
sales
sister
words
##mond
##ka
##AA
##ushed
rear
sport
Storm
scul
showed
neigh
affected
Secret
sequence
Academy
##onymous
Service
Portuguese
Def
Horse
Kn
er
mis
##bed
forest
##ortal
##ella
ability
Though
180
offensive
Engine
contrast
officer
Prince
battalion
combined
newspaper
Nesb
Tintin
Welsh
Dou
Lock
Manc
Zhou
mess
##mitted
##ys
##orus
##enant
##ompl
##astic
##ervation
titled
excav
Varanas
incorpor
casualties
Varanasi
49
Book
Empire
Sil
Tri
Yank
ple
says
##met
reign
##ovic
remark
grass
##anning
continues
Adm
produce
Andrew
cultural
earliest
mountain
##while
Government
Angeles
mentioned
ancient
Ceres
cerem
Nesbitt
Ros
fully
horse
narrow
ox
##uous
##br
actor
artists
Conf
resulting
deliv
authorities
influenced
flooding
Odaen
adopted
murder
Civil
Mat
mission
wild
##inus
##ano
1990
assault
basis
Commun
represented
Eva
##ironment
Sarnia
Odaenathus
Boy
Sen
Way
bott
mile
sides
##lings
##St
##ora
toward
thir
##acts
reports
alone
##oper
coming
championship
exhib
spl
disease
manufact
News
##ancy
begin
viewers
square
Apple
withdraw
tower
advantage
Illinois
Mogad
65
Jos
NC
SR
candid
direction
hol
kakapo
nest
rat
vo
yellow
##rane
##mark
##Mont
##onna
##ares
##ications
##ura
##olec
##use
armed
relatively
18th
workers
founded
bridge
alongside
occasion
effort
northwest
Week
encour
DuMont
Olympic
torped
Thunderbird
Manchester
Dist
Ocean
Rh
Wash
cadmium
hors
losing
mechan
rang
sac
contain
##olling
adj
attended
themes
Att
emph
officially
impact
##helm
tried
organized
Perón
individuals
illust
transferred
physical
tournament
Direct
Horn
Major
ast
##aith
##bit
##bour
insc
##ulate
proved
##istics
univers
perman
1988
Spec
capture
Records
officials
surrounding
rainfall
dedicated
46
Bh
Bon
Kent
Van
##kare
##adel
##ims
##abama
##iana
energy
Alabama
doing
suppl
##eball
neut
edge
require
pattern
letters
measure
Joseph
Lord
MD
Max
feder
lives
mind
wa
##sen
##ply
##writ
##igan
chief
shape
##acks
##izes
##ricult
##ibr
acting
defense
follows
designated
possibly
shortly
Prot
Edward
divided
Mean
dissip
intensity
conflict
Turk
financial
Omaha
Mogadish
Washington
64
Home
border
faced
folk
paid
your
##iate
##lers
##kn
##ban
##ping
##RA
##edar
##itness
##rec
albums
1960s
simply
edition
older
legisl
repe
winter
function
letter
Review
Helms
eye
determined
maximum
Argent
Mogadishu
Cra
Fant
Journ
Lo
Lis
Pop
aid
master
raid
##ij
##uce
##ols
onto
comedy
places
advert
agg
movie
1940
broken
color
portion
society
kept
doub
McCall
piece
potential
journal
Innis
emphas
Dest
Mass
Sum
##wide
##inary
##enture
stra
##imore
##gend
images
charge
1980s
##azz
Commission
product
Early
argued
Wilhelm
domestic
Bowl
Four
Fleet
Hu
Prem
Rih
dut
grew
hom
##VD
##isters
step
##agan
##udd
spot
content
##ugby
depth
suggests
behav
authority
equip
PlaySt
Valley
Rihanna
PlayStation
53
55
Bu
FA
Fam
Good
Ven
fung
gained
homes
paint
say
wor
conver
##osen
share
##asty
attend
weak
extra
1964
artic
belong
##engt
causing
twice
Assembly
criticized
sites
couple
Palest
sources
ultimately
target
schedul
entrance
website
sculpt
5th
Bir
Jup
Lew
Lev
Post
Sky
hospital
mouth
pan
sens
tur
vess
##mon
##che
##bl
##ety
##acement
##umes
deploy
##istry
shr
prison
containing
appeal
Arm
Anth
depart
debuted
management
structures
Hamels
Djed
dismiss
Fin
core
cities
fast
hers
hun
kg
wave
##rel
foreign
frag
projects
chosen
defence
museum
1947
Constant
Common
phil
opin
document
label
Djedkare
56
DVD
Jon
Night
Nev
Pen
fix
##ati
##iced
rejected
##aved
Ste
Step
science
##prise
security
consecutive
formation
defensive
120
miner
brigade
collabor
battles
standing
reference
planet
growing
buried
hyd
Torres
independent
granted
intellig
abandoned
prominent
Baltimore
##known
43
Gall
Hib
Kar
Kore
cricket
diam
ro
sand
ven
##rain
##nes
##ners
##atur
inch
##ocated
seek
results
Once
weight
remix
##icks
Short
therefore
student
poly
condition
visited
##ographer
organization
temple
orders
animal
Histor
benef
Jupiter
Bull
BBC
Eastern
Op
Ox
mic
risk
newly
regions
interp
seconds
doct
1941
Independ
broke
colony
claims
##white
Scottish
wounded
Applewhite
##engthen
End
Jur
SAF
ahead
##iot
##mosp
##cy
##iring
reaching
height
seems
hero
enemy
weather
##phia
singles
convers
solo
cases
favour
identified
nominated
temperature
moment
##adelphia
equipment
SAFE
Due
Id
Norm
bud
council
la
males
rare
tun
##ias
##han
##asters
##icts
Institute
excl
spect
contact
unique
##airs
1989
aired
returning
supporting
element
opposed
Orig
Airport
##ushing
knowledge
cells
Egyptian
41
9th
Each
Greek
Ry
So
cust
fox
jump
roll
##eer
##ML
##rete
atmosp
fired
unknown
teacher
Carl
address
1985
1970s
operated
Forest
visual
looking
problem
devot
increasingly
scholars
environment
straight
4th
Ban
Field
Kir
RA
Us
boy
here
molec
rom
trou
##uge
##nest
theory
##ero
##ishes
##ases
##stream
##amic
Head
perfect
compr
writes
defin
1984
1972
distrib
ideas
Before
believe
breeding
explained
commonly
historian
settlement
Swed
burns
Croatia
confirmed
Further
Even
Les
Mike
Vill
od
oil
tim
##mun
##can
##inem
##icient
alter
consisted
##resp
singing
1987
landfall
advanced
request
females
Morr
economic
controlled
herself
Hart
Meg
Wat
happen
pict
##more
##hu
##Le
##ala
##alions
##alty
##elop
##aming
##add
stations
##ighth
imag
Only
flow
parliament
leader
Indust
lands
130
systems
campus
##appy
Williams
Mounted
Keats
Philadelphia
Congress
Cardiff
pieces
Middle
Meanwhile
57
Big
Dani
Dutch
Fri
Gard
Lu
fict
ge
mob
##right
##een
##ych
deities
##illo
Stan
Child
resemb
compar
filmed
maintained
1944
exped
Conn
killing
Barrow
speak
pitched
growth
honor
property
semi
54
600
Matt
Writ
bit
mist
sen
tact
tail
task
wr
##ao
##inity
##eck
##ider
##antly
try
serve
##weet
##awa
retired
actress
elim
##fully
km2
matter
Guard
versions
freeway
boats
religion
promoted
strike
mounted
flying
dropped
failure
Steve
Jeff
rapidly
battery
weapons
Addition
horses
federal
Bost
Dun
HMS
Rog
clean
rob
selling
ut
##ca
##fort
chair
##ieut
Italy
##ampion
flank
1990s
invasion
1960
creation
column
passes
passing
guest
restaur
Andy
Abu
criticism
significantly
cougar
value
connected
strik
recognized
creating
Minister
multiple
injury
prepared
premi
accompan
Der
Key
bid
big
bank
bats
ham
sought
##haps
##ese
##itable
chose
##ips
strengthen
colour
famous
##ashion
Conference
starts
##chers
volume
walls
regarded
silver
aspects
analysis
seventh
necessary
scheduled
96
Ast
Ari
Liber
awards
data
gather
laid
mo
virt
##sw
##load
##render
beaut
##ersey
conce
##agement
Inst
send
##ieval
agricult
Americans
landing
producers
##heless
publication
belief
popularity
##arrison
literature
Operation
nucleus
sustained
Ap
Coll
Cold
Do
Den
Gh
Gord
Gulf
Ll
Line
dated
fought
outer
rival
##hm
##ns
##isy
##standing
##olved
##unic
##alls
spring
##ocked
##amese
USA
drive
humans
Among
castle
promotion
employed
budget
Bur
Dis
Haven
Naz
Nathan
Sub
Sund
pul
rating
rise
save
tree
##kin
##heastern
##ini
##onent
##aria
train
contained
arms
##ansion
underground
##hips
ends
##ologists
##insula
phase
Pho
Michigan
currently
Cardinal
Vietnamese
##guan
frequently
Cambod
families
Thunderbirds
philos
Oxford
73
700
Athlet
Ca
Festival
Girl
Mem
Ur
dial
drop
fat
wed
##iable
##of
##TC
##ya
##ym
##eton
##iments
bey
reform
executive
contributed
unus
computer
impress
prefer
news
##orney
actors
supply
1981
179
17th
parall
1942
simple
collected
allows
propos
negative
Studios
Entertainment
degree
##āda
bottom
62
95
Domin
Fox
More
NH
Sus
cited
dim
hor
##lines
##ivity
##ayer
##ava
##unte
exec
shaped
prin
##angers
overl
##anny
##ancing
opera
effective
facilities
entirely
animals
improved
subsequent
reaction
Premier
fictional
##ieutenant
beyond
800
97
Dar
Ell
Mu
draft
egg
gain
gives
mig
##rang
##rations
##lusion
##asts
##roph
##thur
##ager
##essed
##ifying
recently
arc
##perial
extensive
1950s
1918
Muslim
medical
finding
boat
Revolution
Slam
gradually
kilometres
Turner
Crazy
Lewis
Gre
Rail
Work
bass
ritual
##rin
##rum
##mission
##eed
##hi
##kins
##ingly
##eless
##ola
##sea
##iance
Stone
Chap
unp
##ansas
floor
Mario
Bridge
coal
12th
severe
occas
expanded
Adv
1939
serving
antimony
survey
programs
glob
Coast
##borough
People
Russian
Martin
Today
torpedo
Boston
61
72
85
Bart
Cre
Chel
Fre
Kang
Ni
NBA
UN
Video
bow
green
##ridge
##iences
##chen
##yson
##ela
##amy
stages
##opium
comes
##unction
items
##sey
##usted
Alf
Album
centuries
mush
secondary
1969
1965
finals
Class
myth
Barb
Evita
System
Upon
Between
exclus
Aven
Bri
Bru
Cub
Greg
Rod
dates
daily
faith
naval
##mes
##ez
##cing
##erts
##inate
##eda
##icial
##outs
##ads
##lywood
##uli
##ules
##apes
sports
notable
decades
1975
Juan
trial
finds
Magazine
successfully
Crown
losses
negot
calc
occupied
slowly
commissioned
experienced
challeng
##ánh
71
Band
Gab
Obs
eas
fle
##roll
##ii
##uate
##win
##enic
##itan
##rot
Ing
adapt
flag
Marl
cool
1968
didn
Isab
deaths
engaged
captain
MacLe
treatment
Boise
purchased
Gordon
94
Han
Jac
Jain
Men
Ron
Rome
eth
labor
##cle
##urches
street
beach
##anda
fresh
chorus
nothing
##rupt
##izations
##ublin
synt
164
160
concrete
Commander
southwest
worldwide
Prov
begun
Songs
declined
Khánh
reasons
##ategory
briefly
Jamal
Tennyson
normal
policy
Throughout
Liu
District
##unicipal
Avenue
81
Aer
Brian
CD
GA
Luc
Mic
Mov
Ret
aer
drawn
gas
lin
##iations
##asure
##opes
##okes
accompl
leaders
protagon
trip
sentence
escape
independence
platform
Crit
Dublin
Mot
Row
Ray
Spr
dance
hired
nor
pet
rar
rac
tall
tend
witness
##set
theat
##erc
##arian
##lyss
isol
##istan
plum
firm
incident
unf
Also
Albert
##anga
decade
acad
moves
Sha
foundation
Science
longest
1974
guard
arrival
possibility
##ographic
importance
billion
chapter
participated
unsu
enjoyed
responded
paintings
##respond
senior
accompanied
Bern
Baby
Gi
Iguan
Jud
Mod
Pers
Tru
ring
vert
wides
##eals
##la
##BS
##aton
##isers
stret
##osa
##estone
##rie
heard
spons
adap
resear
flu
Leon
110
177
developing
1966
passeng
oldest
Simone
agreement
Temple
roughly
Admir
MacLeod
77
Bond
Board
Ho
Jes
Rox
Wall
jack
##aire
##uan
##pread
##OC
##ía
##amin
##imet
##utation
choice
##quake
Ali
remn
consists
decre
##ooking
Maria
calls
setting
adding
transit
1950
1936
protest
lasted
Project
Phill
combination
existence
violence
composition
Governor
dollar
dominated
poetry
athletes
Summer
Anthony
Instead
Dream
Hy
Sk
Ulyss
dog
fellow
sle
##come
##chest
##je
##itors
##iday
##ote
comic
##iston
seat
note
Chains
reserv
impr
committee
Marc
undert
assass
acres
Anonymous
door
Carib
populations
performing
college
1952
1919
clubs
Brook
##urring
competitions
technology
association
closely
existing
regarding
applied
##hetic
pilot
symbol
Area
weakened
Dougl
unsuccess
Ulysses
59
66
Bor
Rel
ps
pal
tells
##aver
##rons
##com
##laim
##ato
##ality
##ici
##ading
##iration
##usc
##usal
##ichol
truth
##pty
reconst
perhaps
descend
filming
submar
substant
accident
capable
1946
1973
distingu
provides
neither
battalions
serves
greatly
roads
Georg
correspond
learned
derived
Francisc
purpose
opportunity
ceremony
occasionally
Hornung
Caribbe
6th
98
Aston
AML
Kenn
Never
Tim
Tra
bought
fashion
hyp
rif
roof
som
sail
ton
##born
##burg
##war
##atus
##isf
thing
##amm
ones
##agre
Stew
##elli
##rug
shel
grav
supposed
invited
emp
receiving
175
1967
headed
editor
1930s
storyline
skin
speaking
correct
household
Mountain
encounter
squad
Braz
Ode
neck
painting
archaeological
innings
filled
administration
vehicles
dissipated
Turkish
Caribbean
Bishop
Dota
ERA
Five
IG
Jay
Lieutenant
Oh
Sap
Vol
aim
cit
drew
hat
ign
root
sort
##lik
##var
##pass
##OT
##entially
##rog
##agle
seg
churches
evac
subt
acid
##ropri
goes
receive
branch
1971
What
anything
1930
1914
protection
classified
typical
viewed
towns
survived
massive
motion
stopped
drama
Radio
southeast
astron
Daniel
widespread
Douglas
Mel
MTV
Real
Wind
fuel
load
rot
##aud
##oe
##tty
##VN
##orter
##acity
Theatre
why
##aked
##abil
##ighter
cho
shared
trying
##rait
adult
##ountain
##iously
Freder
flights
basket
soft
Asia
1982
1945
district
authors
About
initi
Perry
islands
##iece
settlers
technique
##idden
missing
focused
acquired
safety
digital
repeated
converted
Constantine
Hibari
Jones
Kil
Low
Qedar
Ré
Rio
cab
dub
gal
rich
##ni
##bo
##RE
##ona
##ilton
##stances
##iful
channel
exact
##ube
1976
depicted
Princ
details
Romani
glass
##reme
watched
holding
rebu
Golden
Maeda
History
arranged
Oslo
instrument
succeeded
permanent
##ibrary
opinion
Shortly
atmosphere
Friends
wedding
Chelsea
3D
8th
Hard
Patt
Public
Wy
bowl
crop
ice
mut
opt
rose
##ras
##ario
##agn
##rier
##apers
Inc
chance
##pton
legend
intention
resident
##ucing
##mann
##issance
knew
##oba
charter
##eget
assemb
defined
##anned
revers
10th
locations
112
1943
finish
providing
depict
protect
250
##ipping
Georgian
creator
##riptions
funding
Moz
planning
urban
credited
Fantasy
Venus
87
Det
Down
Gil
Hon
Homer
Kel
Lenn
Mah
Pre
Run
Roy
dating
eur
rub
sun
tied
wick
##rab
##inosaur
##aser
##uri
##uration
##lying
##idges
##iminal
##andy
##essing
spacing
##iege
pregn
decline
baseball
revolution
176
airport
download
heads
Allied
1916
ways
explos
Broad
Abb
reality
Simon
separated
Holy
renamed
penalty
##glades
Archae
Hindu
thousands
Haiti
Secretary
delivered
supplies
Additionally
Iguanodon
Brazil
IGN
69
Age
Hell
Kat
Mul
Sound
Top
UTC
bul
fair
rural
san
##rig
##gé
##hl
##bur
##SB
cong
Stadium
Chronic
recru
enl
##ilding
secure
##attle
emperor
1980
1963
depos
moder
Committee
turning
commanded
##ivalent
courts
surviv
laws
certified
Walter
eyes
assistance
remainder
Stevens
indicate
consisting
earthquake
Alexander
routes
Morrison
Snow
Ye
baby
card
dry
eld
harm
lov
##ront
##hat
##ture
##ycl
##LI
##erted
##oral
##anth
##ador
##opher
sud
##illing
attached
##ribed
##issipp
##evo
Arthur
##formation
teaching
regime
noisy
highlight
surrender
16th
quite
11th
reception
1978
disturb
occurs
1953
1956
Australians
camps
turns
Mississipp
technical
valley
Montana
economy
establishment
opposition
Columbia
Director
Sunday
Truj
Gram
Gully
Native
Ro
Sav
fan
ll
lit
pup
powers
vic
wins
##rating
##mit
##entions
##othes
##uma
leaves
resist
Marine
monarch
studied
leads
producing
successor
convention
views
replace
circum
Maryland
Hollywood
denied
Everglades
immig
journey
Office
Samuel
Croatian
Surv
shooting
methods
portrayed
puzz
Charlie
adapted
Trujillo
7th
91
Fish
Hug
Ly
ML
Master
NBC
Press
Rangers
kits
lane
worth
##aising
##ić
##cer
##real
##rell
store
franch
##agues
hear
##ewhere
##aka
##ardo
##acked
Stef
##onder
Alan
prey
upd
Arts
gameplay
interior
maintain
finishing
1913
1915
protected
crime
reputation
window
entering
getting
predec
motor
Democr
Engineer
worst
dismissed
Roxas
Mississippi
Bos
Cop
DNA
Far
Mid
crown
die
drug
ru
tell
von
##aug
##dal
##orer
##asing
##amber
##acent
##thm
##unket
##pping
exerc
noting
attributed
knots
interested
basin
monument
capacity
colle
Plunket
entry
classes
experiment
Within
Eliz
introduction
holds
Activision
tribes
discussed
Howard
Stephen
mushroom
79
Danny
Fire
Leg
Pu
Pope
Sev
Ts
Walk
cry
fer
lic
pound
vary
vision
##iar
##ients
##min
##taining
##wise
##30
##onom
##eness
##itage
##itled
tomb
##lements
stones
##ripts
##ender
agent
offers
outl
charges
publisher
appearing
describing
1917
solid
fields
novels
historic
younger
statement
Calvert
electric
pitch
coastal
ruled
chapel
Bradford
##senal
intelligence
Isabella
99
Gang
Nether
Ridge
bond
caught
cinem
hope
kings
sector
van
zone
##ruli
##fri
##water
##rets
##elve
##iling
forests
##owed
##uls
pros
plants
resour
releg
unn
##angerous
desire
manner
Marsh
accounts
someone
basic
soil
generation
Const
medieval
##intend
everything
difficulty
exception
apart
dollars
principal
considerable
disappear
emotional
ninth
Yankovic
Weekly
Lisa
article
rarely
88
Around
Di
Dom
Daily
Jif
Jersey
Net
Rolling
Sor
cold
hill
hall
mine
nob
pool
taught
##nell
##know
##bles
##ānt
##6th
inner
##aments
##igades
##opp
##ables
##abeth
##ateur
offense
wealth
##ockey
##aws
122
121
##ajevo
Lee
1948
1961
landed
evening
opponents
politics
involvement
Earl
##offman
##graded
volunte
rules
specifically
wooden
Strand
colonial
Victoria
Sarajevo
Clarkson
thirty
aggress
Destiny
restaurant
synthes
Frederick
sudden
74
Cam
Cru
DA
Fame
Fair
Germ
Lords
Trib
fish
gall
jazz
veget
worship
##rant
##de
##yles
##break
##AC
##orous
##eline
##rosc
##using
consequ
##osure
##avia
##umps
##rif
Init
##ipe
scrap
##ultane
secured
charts
accur
sym
description
1979
##raph
##inking
1937
believes
replacement
poems
discovery
missions
Team
hotel
picked
Somali
Colonel
intersection
Wilde
recommended
split
##ranean
Bono
Family
fungus
Industry
Mozamb
Ball
Here
Life
Nap
Nick
Rif
Si
Santa
Wars
fit
sed
soul
tal
tie
##theless
##inger
##ingale
stream
##aga
##agu
##union
##apped
##istol
Int
Chart
leuk
subs
whereas
Ash
##ropol
Carter
##rows
strateg
leadership
signing
carbon
##ructure
depend
1954
Prime
criminal
legs
joint
divine
Roberts
appoint
drawing
launch
missed
industrial
nomination
absor
concerns
Jerusal
Campb
scholar
extremely
habitat
specimens
Skye
wrong
parallel
Jifna
Jerusalem
82
AR
AD
Bi
Cab
Cory
Chen
Hung
bes
ble
dock
faces
municipal
session
##ait
##sch
##lan
##onica
##enz
##eland
##ivals
##otes
##emia
##imal
conference
##osis
##ocal
existed
parties
##wealth
teeth
Joe
##ertain
minister
showing
##iversary
distributed
warm
collect
approached
tries
organizations
##iveness
demol
personnel
##psons
standards
speech
Similar
Simpsons
Hamilton
##aska
threatened
surrounded
emerged
chemical
Argentina
hydro
diameter
Ryan
Spring
psych
Francisco
europium
CE
IV
Iron
Jun
WW
Win
bat
fal
il
mart
option
page
wants
youth
##ois
##kh
##zen
##CA
##onic
##atures
##itals
stem
##utt
alien
##uda
arts
overw
partial
##ensis
decor
retire
indig
bright
1949
1977
department
##ception
1958
1955
1951
pointed
characteristics
Adams
##aurus
Order
communities
historians
equal
admitted
seeing
facing
crossed
relationships
Duke
regularly
railway
immediate
Television
Olympics
favorite
hoped
constitution
apparent
alternative
lbw
ratings
documentary
Banai
expedition
unusual
Brien
isolated
citiz
07
Bank
Dur
Power
eighth
ib
lap
sulf
table
vide
##rates
##ooth
##ívar
##organ
inland
##reets
##avāda
champion
shark
trail
Chief
firing
Unlike
consc
consum
##formed
regional
assumed
owner
13th
Forces
anniversary
Hergé
protests
detail
reviewer
marks
repair
strongly
##ombat
destroyers
watch
treated
connection
sequel
treaty
ancest
examples
bringing
watershed
Bolívar
institutions
message
romantic
distribution
Lennon
franchise
06
63
Ald
Goffman
PA
Pul
Rem
bigg
sections
winner
##ses
##key
##wich
##ware
##edom
##esc
##sta
##iders
stadium
##uses
##usad
##oca
orchest
Station
aged
##eased
flo
indicated
##ekānt
1983
airline
Isl
instruct
Guy
detailed
approved
breaking
##istered
references
##encies
changing
Recording
superv
improve
grey
literary
Territ
Jean
Military
attracted
BCE
Janeiro
wearing
inhabit
rescue
Rhodes
Journal
duties
Independent
Norman
Roger
eggs
easily
protagonist
academic
Saprang
Kilmer
89
Bert
Cas
Mortal
Raj
Sel
Sher
Test
Xe
bay
cul
happy
mort
ocean
poll
sell
##ray
##iary
##elet
streak
conqu
##osm
proport
shif
spaces
##iants
Stock
recre
##ogether
##oked
cloud
preced
flat
acknow
retreat
accused
interchange
coord
162
designation
Gerard
expansion
completion
Adam
implement
Color
##scape
Beach
1920
medium
Organ
terminus
attempting
infr
surviving
genre
reading
catch
looked
settled
recognition
practices
engineering
territories
effectively
Square
Richardson
traveled
feeling
assistant
Lawton
challenge
Somalia
Hearts
specimen
Burns
##onnaissance
encouraged
adjacent
agricultural
Admiral
Georgia
05
58
93
Cook
Corn
Es
Fern
Kombat
Lanc
Pine
Sa
Sb
Wolf
et
lob
none
nick
sam
swe
tick
vac
##rence
##mel
##ean
##how
##yard
##heim
##orters
##itated
##urd
stead
##aya
anth
##ewhat
##abled
orn
chronic
plain
shots
##oured
recalled
serial
partly
evil
feather
accomm
Aniston
meets
obtained
##ennis
##ossible
starling
##ometric
possession
visible
stands
##attered
patron
identity
languages
multi
civilian
painted
brothers
Every
arrangement
Cambridge
extreme
recovered
seemed
controversy
candidate
Attorney
Commonwealth
ethn
somewhat
accommod
Bed
Bass
Hospital
Lab
Now
Neb
Ton
Tam
Tower
Ul
bal
cens
ec
erect
gross
hip
hits
races
tone
##dess
##uv
##yer
##erog
##isis
##icate
##idae
##emet
proceed
##ifer
exha
##aste
relative
schem
impl
Fraser
fled
teach
preserved
transc
estate
passage
1935
1931
1910
verse
reduce
convin
convoy
twelve
Poland
footage
suffering
Islands
inspiration
armor
hosted
funds
Keamy
persp
absol
##going
towers
Singles
linked
Develop
Garc
Formula
controversial
Castle
scientific
Elizabeth
Germans
Bal
DC
Dark
Gib
Nintend
Owen
Pass
cart
ow
sessions
##pear
##worth
inaug
##aling
##illy
thin
##entures
##igation
stayed
##utz
##thosaurus
alleg
1900
prohib
shut
##oven
income
integ
adults
acts
defended
##annah
Shakes
Johnston
continuing
province
expensive
attacking
1932
1912
reviewers
destruction
Elect
equipped
1909
coup
circulation
steel
##stitution
learning
composer
Arabic
Research
blocks
concerned
FIA
moral
understand
Human
opposite
verte
incorporated
Peninsula
custom
Jesus
Plunketts
Corythosaurus
Nintendo
Shakespear
08
68
Ak
Bark
Cle
Hor
Joy
Mand
Sem
Seas
Wi
Wimb
divers
gone
hem
map
pushed
sight
tailed
wars
##ris
##sewhere
##yt
##bie
##body
##pent
##put
##SA
theatre
##onia
##elin
##state
##oli
##olay
##otic
##owing
answ
##aku
shall
shore
Channel
##ogen
reserve
compounds
##achus
agree
##prising
##arked
##amps
consult
Marines
Anc
elabor
##ledon
musicians
Allah
willing
driving
classical
1929
1921
debate
lowest
victims
limit
Palmy
crossing
promote
meetings
falling
rebels
measures
responsibility
Lawrence
observations
Patrick
voted
throwing
Transport
Protest
sculpture
occasions
Marlborough
passengers
remnants
basketball
initiative
videos
Wimbledon
Dyn
Hun
Nar
Rain
Tig
Your
craft
hang
raise
ster
siege
##after
##gie
##inet
##icity
##etts
##lev
##oted
##ownt
##ithic
##osl
comments
##illed
##ifies
##oceratops
sees
praise
##oster
context
##inals
songwrit
##aware
retained
acclaim
##ificial
161
obl
objects
governor
1938
1911
Prod
Geoff
sky
patrol
involving
equivalent
cycle
Palace
pitcher
difficulties
superior
strip
representing
biography
Anton
Imperial
learn
renew
intensified
Fei
Hotel
##iques
purchase
##hews
carrying
rhythm
vessels
fixed
Korean
Guardian
batsman
Cambodia
global
unsuccessful
Stefani
Netherlands
AP
Div
Free
Gun
Hob
Sand
Sweet
Type
bor
bone
diet
fine
fold
pow
ray
rum
tight
##gency
##cement
##AT
##MO
##ét
##oma
##omatic
##acle
online
##terbury
##otal
##uting
##riev
##iform
exchange
prol
prerog
##ureau
##rupted
commit
committed
defences
amino
reveals
concerts
1962
returns
Conc
collaps
Canterbury
periods
##quez
##alky
##iterranean
defeating
goddess
Depression
needs
villages
Mediterranean
Prior
accompany
spirit
pupp
Pitman
narrative
internal
camera
voiced
behavi
Palestine
Mega
Stanley
preferred
survivors
García
67
86
Bang
Eric
Furt
Hou
Ken
Mir
Raff
Rugby
dens
ju
##rac
##ba
##wald
##zi
##err
##inje
##arth
##icop
##elle
##otton
conj
##udes
exit
Story
clock
cloth
Third
Along
feed
deck
formally
followers
else
operating
products
simultane
1959
considers
USD
classic
##echism
Flight
McG
refers
politic
represents
covering
criticised
divisions
Atlanta
doesn
improv
closer
Emperor
escort
Queens
absence
feelings
visitors
normally
hundreds
legislation
panel
deployed
Writing
Phoen
Athletic
dialogue
proposal
Aerith
Phillies
astronom
kitsune
Colorado
Bul
Hud
Hok
Kann
Má
Pict
Techn
Usta
Wic
covers
liber
pure
rect
tank
##rich
##rine
##don
##iy
##graf
##hol
##boy
##bishop
##fare
##wick
##CC
##OK
##inally
##ashed
stable
##chang
##ophy
deem
orb
choir
##iped
##ishn
##ishment
reconnaissance
##raham
union
appropri
manusc
attrib
Front
forming
166
extent
annually
Plat
140
arrested
1920s
convection
trading
skull
biographer
Championships
poorly
Markgraf
Player
stationed
tribut
satisf
ensure
Krak
moments
Enterprise
spiritual
drums
displays
Dominican
Modern
researchers
reconstruction
pupils
resources
DAG
illeg
overwhel
##emetery
Furtado
Raffles
Ustaš
09
Bat
Bell
Dor
Fore
Jenn
Late
Nad
Pan
Satur
Treat
U2
Valky
dream
dipl
lose
lists
nav
rugby
saves
sunk
wings
##lec
##nal
##DH
##inian
##aled
##icide
##roc
##otype
frame
orbit
##rous
intense
abund
enth
##action
##eph
Sholay
transition
15th
1940s
obst
extension
belt
##ullen
useful
modified
entitled
driven
posted
influential
Mexican
steam
injuries
memory
withdrew
FIFA
understanding
dramatic
bombard
purposes
essential
muscaria
Special
doubt
util
NHL
submarine
Grammy
Fernand
02
78
Bath
Cape
CBS
Found
Holl
Labor
Nichol
Our
Sn
bed
dinosaur
gard
jun
loyal
pack
rated
rates
ridge
saved
tests
##cements
##hang
##oh
##life
##ker
##vati
##burn
##ilst
ash
##owiec
streets
##ateau
plane
shipping
spoke
##iang
herd
enfor
ago
##ricted
otherwise
##teenth
Comb
formal
actual
ammun
##ifications
Show
123
##inson
severely
155
113
parish
installed
generated
helicop
restrict
Prog
listen
engines
demand
##shore
originated
influences
divor
excess
watching
Corpor
Richmond
Maggie
Township
crosses
informed
burned
materials
persu
cruiser
Portugal
Israeli
suggesting
Norway
apparently
dynasty
journalist
happened
picture
chairman
Observ
##niowiec
circumstances
Wiś
prerogative
ammunition
900
Benn
Cec
Gwen
Hamp
Having
Kev
Lith
Mother
Roth
Sid
Ut
bull
citing
festival
ori
##lie
##western
##ori
relie
unlike
Alb
disaster
partially
##inder
Ark
##ugosl
movements
interests
101
Who
carved
Blood
operate
generals
exposure
Space
starlings
Guide
Parvati
eleven
phr
1927
1928
causes
victories
survive
ready
factors
mixture
predomin
Ministry
##species
Khand
merch
Moore
Wilson
##itzer
layer
cancer
administr
institution
instruments
overseas
shells
interpret
Swedish
Jacob
jackrab
substantial
Réunion
resistance
##roscop
##ekāntavāda
Barker
behaviour
Ustaše
Wiśniowiec
84
92
Az
Bab
Baker
Bureau
Eaton
Gary
Kim
Mun
Masters
Rom
Sab
Soon
Sports
VII
Yugosl
dangerous
eat
mamm
turb
wine
##EC
##Hg
##zac
##heera
##inent
inher
##ilation
##urst
##urse
wasn
bearing
heat
shop
spend
spores
##oko
resign
resigned
afterwards
writings
subst
subspecies
amateur
supporters
Branch
178
instance
advis
models
impossible
restored
marry
latex
McL
deliver
##urricanes
temples
windows
compete
Police
looks
electronic
techniques
burning
Media
sequences
engineers
chess
thinking
interesting
tribute
establishing
##rorist
Howe
Veronica
loan
interaction
opportunities
thousand
Massachus
behavior
departure
premiered
beautiful
Stewart
Gilbert
congreg
infrast
nickn
##owntown
Kannada
Khandoba
Massachusetts
Back
Budd
Celt
Dig
Dak
Eagle
Jr
Lang
Midge
Osc
Ra
Sle
Sans
Vul
Wright
bord
icon
mode
pale
sale
vast
##rquez
##iac
##mate
##uable
##va
##jo
inHg
##asm
Then
forcing
##ulating
##agas
##eston
##opl
prove
##ears
notably
climate
##ryce
perce
##weight
commem
remember
##obile
##onto
165
elsewhere
minimum
musician
adventure
1933
helmet
myst
reprod
Perfect
##encing
##apping
situated
readers
cyt
Record
##ucky
squadron
recognised
achieve
check
memorial
coins
##ASA
experiences
Miller
struggle
Cathedral
neighbor
vessel
rooms
Historic
Jurchen
Mulder
Mozambique
acknowled
Phoenix
Márquez
Bah
Cob
Fel
Las
Mach
PC
Point
Sup
Such
Wag
creek
fant
fountain
giant
horn
rib
sad
sons
sung
tack
tanks
##hist
##ugh
##pson
ing
##isler
toll
##rees
##omura
frig
##ctions
##arte
tra
trained
enh
##uces
desert
Univers
##egov
format
##ologies
founder
Scully
##elsen
paras
artwork
designs
depending
depicts
1957
characterized
Herz
Coleman
starred
Gray
Canal
storms
engage
antic
delayed
Barry
formerly
westward
Simpson
grounds
Express
radiation
Federal
sufficient
cleared
fallen
measured
costs
Toronto
documents
transportation
Belg
Russia
objective
Justice
weapon
vehicle
remarked
holiday
##chell
Bulls
Girls
crops
citizens
biggest
convinced
Shakespeare
Hudson
Saturday
Kevin
03
Ba
Bow
CP
FRE
Kong
Kansas
Link
Much
Nob
Reb
Sant
au
bell
moon
rivers
ty
tiss
vul
wrest
##rants
##uz
##ti
##night
##book
##pan
theor
##inery
##icit
##acec
##leged
styles
##emies
render
##osh
frust
##apse
##ellar
trick
contest
residence
compound
agents
##oyage
decides
regiment
cooper
surg
163
##atherine
##yline
artificial
describe
condem
counties
differences
Prof
opponent
deleg
claiming
21st
skills
programme
funer
predators
##amental
audiences
clearly
closest
selection
burial
determine
##avalry
vote
portray
Peters
displayed
reinforcements
err
excavation
Confeder
ranging
inscription
Journey
hunting
benefit
tunnel
Originally
RAAF
reservoir
imprison
Nevertheless
##LIMO
predecessor
Network
Initially
Territory
feathers
Protestant
Hokies
##lecru
Wiśniowiecki
Oscar
FRELIMO
01
Bad
Category
Dan
Dave
Eu
Esh
Gate
Hay
Ira
ISB
Last
Mall
Rest
Vice
bones
brick
dwar
easy
fert
grown
lake
##yo
##vin
##po
##ji
##ön
##atically
##aret
##icul
##eled
##olen
##acles
##roit
rej
alleged
##aints
comed
Intern
##ategy
Stal
Stories
prime
##iao
##assador
relation
##ignment
attained
prep
teen
underw
##phy
defending
thereafter
smooth
cargo
install
poison
anyone
slide
offices
##uthor
Allen
arrive
restoration
restricted
crake
breed
promised
prompted
myc
Abd
Davis
##sequently
Corb
Magdal
elections
priest
ranking
representative
argues
Minor
##iggs
housing
railroad
networks
Turks
Mrs
aspect
degrees
intellect
badly
Victorian
magnitude
corner
throne
scientists
ranges
Jonathan
Memorial
exclusively
Detroit
Kelly
moderate
false
perspective
ISBN
dwarf
Disc
Fall
Hans
Kurt
Mit
Nash
Ple
Tal
UE
Until
Wing
aster
bod
draf
gar
gates
huge
lat
meg
pine
snow
sisters
wet
theater
##erg
##itively
##inge
##ilty
bear
##agen
deity
##aks
exists
trust
##uez
Chagas
resumed
##ucks
playoff
aftern
outbreak
earn
Arsenal
consp
conservation
flash
charged
amounts
symp
Shel
discip
owners
Warren
northward
Paraly
childhood
explo
explains
handled
1926
deliber
temporary
everyone
bands
Event
1905
Glob
Magad
Rocky
engineer
Emmy
ruling
injured
preparation
Republican
Malley
colonies
innov
celebrated
boundary
Outstanding
safe
aware
architecture
Catechism
Silver
Mathews
Communist
neutral
advertising
Leslie
strengthened
fatal
Albums
Brooks
rifle
bulk
##burgh
erected
Development
deemed
Valkyria
Wagner
UEFA
Paralymp
Ace
Gro
Ky
Kit
Kam
Lud
Lamb
Murr
Pot
Ren
Rap
Ult
bind
bishop
banned
cake
cars
caves
categ
ceratops
fate
garrison
manga
nurse
py
que
##gars
##mouth
##mont
##eper
##PA
##father
therap
##inton
##orable
##orious
##oux
##urer
##adier
##olithic
##ivated
##otten
##uts
rend
##unes
##aki
chamber
sharp
enters
Thus
scattered
partner
##ugu
substitute
Anzac
reven
monuments
See
Carmel
117
##azines
prevented
landings
warning
designer
exposed
Tracy
driver
difference
portrait
1925
Abby
Amb
supern
Imag
properties
Priest
texts
application
dominant
judge
Trek
Cheval
pursue
Waterfall
graphics
demonstrated
altar
distinctive
excavations
turrets
collaboration
tactics
executed
Nielsen
Alfred
adaptation
Persian
distinguished
##borne
Democratic
Construction
Rifles
inhabitants
Bertin
Houston
infrastructure
Celtic
Herzegov
Magadheera
Aut
Beg
Bible
Cyr
Dog
Hope
NL
Sin
Women
cup
downtown
mal
mac
mbar
pounds
tenth
##raska
##gam
##box
##zhou
##SP
##NC
##NL
##arant
##isp
##amount
##olid
##olia
forty
##tered
stood
##usic
##umin
##rik
##rior
sup
sure
##sex
##ellite
##usts
##okovic
Heaven
Those
##active
pref
centers
fee
feels
assisted
subjects
##ieties
strategy
170
expect
##ashi
##ervative
considering
edges
##rene
drain
approval
triple
1924
demands
initiated
amongst
magazines
propag
profile
sounds
Dean
settlements
1890
liked
Harold
Jews
uncertain
quarterback
archaeologist
indicating
adopt
Djokovic
emergency
tournaments
suspended
succeed
defenders
Yankees
sacred
productions
duty
interpre
Kirk
altered
striking
premiere
Railway
residential
elder
##friend
martial
ethnic
Nebraska
scheme
Treaty
Corporation
commemor
asteroid
afternoon
Murray
Herzegovina
CO
Dum
Dah
Hills
Let
Nav
Naval
NDH
Pur
Pryce
SS
SAS
Tu
Tok
Web
Yo
ax
cous
foss
gh
kit
nations
nurs
pap
pull
tale
##hire
##lock
##tav
##esar
toured
##ente
##ami
##adow
##oly
##oto
##ige
##owa
styl
##osy
##opa
##ctor
Stav
uniform
##enden
offs
impression
##away
charity
##anyon
##arsh
125
Carre
##ressed
receives
conclusion
##aza
carri
respective
##isms
guilty
1934
reducing
crisis
1000
requested
realized
##itarian
Educ
communication
northeastern
Evans
1908
Mountains
Anglo
Swiss
fifty
Sym
Berlin
Madison
crews
violent
Philip
Congo
diagn
frequent
testing
coinc
##ASP
photograph
schedule
translation
talking
delivery
inscriptions
definition
Village
eliminated
impressed
Michel
rebuilt
colleagues
retirement
simultaneously
Iraq
intellectual
Aman
ABC
Bald
Bush
Cant
Cress
Ey
Gen
Giants
Harrison
Jen
Lower
Linc
Mant
Maur
NS
Non
Near
Next
Ont
Omar
Say
Xenon
dict
diver
gets
ha
lamb
sang
yield
##gets
##har
##nership
##Pa
##bing
##bre
##xual
##ja
##jamin
##IA
##inations
##icia
##rehens
##ele
##eling
##etime
##lee
asks
strict
##uty
##odore
##essee
prosp
chrom
spur
print
##ipes
##iney
##uster
##pled
clin
clim
components
disagre
##angular
overt
upset
##osexual
Mariana
peaking
gray
Asian
surge
##ieth
114
metre
obv
##rapped
operates
mathem
Commons
helium
battlecru
##byter
Grade
visiting
organised
sentences
sentiment
Management
tempor
refuge
ordering
shoulder
##neath
##regon
fifteen
Madrid
rounds
honour
employees
renov
Business
Again
potentially
personality
Benjamin
Overall
princip
newspapers
boxing
Tennessee
Ernest
Hawaii
Hawaiian
withdrawal
mechanical
venues
environmental
molecules
trouble
philosophy
Cubs
assassination
roots
Sorra
Organization
Labour
elaborate
collapsed
Dakota
##acecraft
Eshmun
Eventually
Imagine
Chevaliers
Lincol
Ontario
AT
Banks
Cond
Canyon
Dud
Die
Dick
Fem
Lor
Mack
Oregon
Sat
Section
Sony
WN
barr
cook
chest
dies
mental
ped
phen
ride
vice
##chens
##bound
##eries
##aski
tom
##oust
##adi
##olt
##rose
##lyn
##idel
##otyp
stores
##imented
isot
##ulu
##umented
##oples
suitable
##illiant
##abl
##ardine
expression
##seud
spacecraft
##ogy
usage
remove
Fred
earning
recordings
suburb
acids
releases
quant
##ernon
Sheff
parody
extrat
artistic
constant
advancing
dams
Trust
variation
14th
Christopher
McD
prompt
kills
anthem
twin
referring
##leton
youngest
structural
factory
putting
valid
trend
creative
select
kingdom
##atinum
machines
Valve
asking
Peach
occupation
documented
drove
boundaries
jobs
translated
rhyme
Finals
inhab
contribution
seeking
Original
Gardner
comparison
columns
Ghost
Ingres
theatrical
vertical
##imetres
Survey
Similarly
Pulaski
Queensland
Wicca
Supreme
Lincoln
extratropical
Diam
Face
Farm
Jason
Know
Pir
Publ
Panz
Rhys
Son
Sisler
Vic
Wander
cotton
fishing
hook
hull
lies
mir
nom
rid
rising
sole
sample
tip
tub
##rad
##dney
##gers
##ski
##nie
##nels
##ES
##krit
##za
##ée
##atum
##esi
infer
##itic
tooth
topped
##eloc
##entle
##star
##eted
##acc
##acru
##ira
##iri
forth
stim
stock
##ersed
##agod
anekāntavāda
##unc
##apore
##akers
plus
spending
notice
inclusion
abol
unlik
enzy
##enses
submitted
bases
revised
coff
Leigh
contrad
brain
bridges
directors
##ennium
produces
completing
ideal
Christine
McE
trials
explain
1923
personally
expert
solar
twent
magic
sket
communications
confront
profit
professor
Romanian
Africaine
Deep
##ettles
armament
falls
Cooper
Neil
removal
dispute
Prize
semif
Singapore
Telugu
questions
birthday
satellite
Woodhouse
Veracru
favorable
reflected
Louisiana
aggreg
Neves
battleships
Furthermore
encountered
segment
##minster
Campbell
Islamic
powered
enthus
Program
Sanskrit
Belgium
surgery
prepare
temporarily
Sorraia
Veracruz
Cater
Cullen
Da
Ecc
Gill
Hop
Iv
Jardine
Lost
Laur
Mur
Nat
Rick
Somet
Tony
Together
Veer
Where
bon
bom
boys
fitted
fasc
gro
gap
hidden
liqu
library
mask
row
sailed
wel
wives
wishes
##ran
##rav
##equ
##uki
##Grom
##nda
##anag
toler
##omtav
##igs
asc
##imon
alph
##osition
##ods
##ewise
exem
export
shares
##ishops
Champions
##oking
clay
encl
apprec
##pres
##aceae
##ensions
pretty
upgraded
Fran
Mars
canal
indeed
buy
Anne
Asomtav
publishing
105
supplement
Briggs
highways
mainland
meters
##aho
runners
Clinton
weekly
arriving
collapse
crest
1922
traded
joining
Supp
programming
Register
Magn
swim
Switzer
charted
representation
armored
discussion
dispat
archaeology
keeping
objectives
766th
Heart
struggled
Argentine
emphasis
sculptures
Korea
conversation
pulled
Caesar
empire
choose
assembled
Chronicles
updated
##ropolitan
demolished
Ancient
illegal
junior
phrase
Digital
underwent
Cresswell
Sheffield
Nevesinje
Asomtavruli
Bird
Bidd
Cass
Cole
Ders
Dub
Freak
Ian
Kō
Lind
Nel
Nettles
Sign
Ty
Ten
Upper
Vi
Wik
Wrest
WASP
Zanz
ban
cave
jew
lanes
mines
pace
pages
sew
sect
##aft
##dale
##ua
##uzz
##ygen
##pus
##fe
##zong
##CO
##Xe
##inating
##ester
##esters
##itter
tox
threw
##acre
beings
whilst
reass
##agogue
##herry
##unch
suit
depress
shift
shorter
Stu
##raid
abilities
resolution
##ansfield
scar
##ikk
##aceous
feud
feeding
##eping
##phoon
amph
string
##azer
signal
carries
finale
advice
Trav
Plan
starring
classification
Andre
Beh
eventual
organisation
##incial
Without
Westminster
genetic
presentation
Magic
tourist
electron
facil
facility
devast
biological
steep
rebell
Imm
Keith
merely
McCart
360
certainly
daughters
Prix
percentage
controller
##ycake
Pohl
Conservation
disappoin
architectural
southeastern
neighb
pleasure
ceremon
illustrated
measurements
advertis
Independence
Idaho
Sweden
negotiations
accomplish
##iciently
rotation
Pattycake
Abbey
cinema
unnamed
Sioux
appointment
ARVN
WWF
##howitz
Foundation
Bennett
neighborhood
Mitchell
Education
Amanita
Dudley
Wanderers
unlikely
Switzerland
Biddenden
Dershowitz
Zanzib
Gael
Hur
Ib
Lessing
Mes
Nag
Pier
Tan
XII
Yellow
af
dod
duration
fusion
gang
hosp
liv
lover
loud
mole
pion
sq
soci
telling
vir
##rh
##low
##lus
##Tube
##power
##wan
##inction
##asks
##ila
##ili
##aman
ongoing
##otte
##iga
stellar
##imeter
anime
##essors
##una
chain
chicks
##berry
##oken
##pert
enemies
Alg
compens
disband
manip
offering
outf
##oyle
##ternal
themed
decisions
acute
acycl
peoples
intercept
grave
Joh
168
115
brigades
signs
##embers
Indones
genera
advoc
Herald
Heritage
publications
Priv
Preston
Christians
McN
commandment
Weir
YouTube
Country
controls
##ospel
historically
reader
1907
Ext
Jackets
travelled
helping
circle
Madero
350
fundamental
wider
Philipp
Belgian
Interchange
batteries
investigation
magnetic
punishment
Charlotte
elevation
Columbus
waiting
130th
mobile
Children
Nazi
Alberta
gravity
depicting
pregnancy
Walker
aggressive
ibis
proportion
##penter
accompanying
McCartney
83
Ah
Bou
Buck
Cit
Cad
Cart
DS
Dover
Fle
Falls
Kate
Kau
Lad
Living
Main
Mort
Ot
Pic
Ru
Rivers
Tales
Welling
category
dual
fles
jury
kid
pseud
riding
raising
tut
wish
wors
##mers
##coming
##ht
##point
##where
##RNA
##CU
##ʻi
##DS
##iná
##isle
##ecution
onwards
##iger
##imer
##andra
##osph
##umi
##riarch
suicide
shirt
spots
trapped
##iper
##ubs
cler
permission
##endar
partnership
##ultan
shear
decay
accum
Seattle
127
caps
##erto
##inners
118
174
parent
continental
##emble
Isesi
passion
##asha
characteristic
Adela
Paramount
reduction
##rett
##linger
handed
commands
commanders
requires
similarly
freedom
terrain
1902
exclud
##regular
1895
values
connecting
Sydney
Berk
closing
Khan
1861
illness
negl
unclear
donated
embarked
preparing
Social
conflicts
indicates
pairs
girls
Francis
policies
platoon
searching
grandfather
cancelled
concentrated
farmers
Defense
oxygen
patterns
steps
doctrine
Usher
molecular
Headquarters
Watson
beliefs
reforms
printed
Leonard
aimed
dubbed
exactly
accurate
subsid
hydrogen
decorated
##usaders
Toniná
Bulgar
Nadal
Arkansas
anticip
Stavanger
phenomen
Stuart
Gaelic
Adelaide
04
Author
Born
Bapt
Circ
Canning
Dod
Dram
Ful
Hit
HNC
Lover
Lane
Mix
Natural
Prote
Rag
Tit
Veg
banks
dense
danger
fulf
gift
hPa
laugh
mand
nave
rushing
unt
wore
##cour
##uits
##nh
##no
##vis
inning
##itia
##amer
##olis
##emen
beating
bears
beats
reop
reaches
##agg
##ags
anch
##estyle
##odr
##ighters
##atever
seats
spin
Chron
##raz
clothes
abroad
##overeign
evolved
##athy
positively
assess
##alsa
##phant
##ontin
106
##aja
167
169
transmission
backing
maintaining
##inness
origins
metall
operas
Prom
deter
detected
##issioned
crash
Beau
fewer
solely
refere
strongest
22nd
##ucted
Parks
significance
friendly
destroyer
admin
tenure
ballad
Morgan
ranks
animated
mountains
Harry
Serbs
Madonna
closure
qualified
copy
civilians
compositions
withdrawn
autom
Donald
Angelou
Everton
failing
Jeremy
temperatures
credit
Twenty
pilots
##itchcraft
harbour
pursuit
recovery
Hawaiʻi
irregular
recommend
ninete
universities
Species
Building
prisoners
Gallery
execution
Critics
Hoover
Wyoming
wickets
Broadway
wealthy
vegetation
##schild
vertex
Dynasty
ashore
Utah
cousin
Eccl
acyclic
flesh
AA
Boys
Cricket
Dh
Dw
DD
Fif
Got
Hair
Harr
Kody
Leb
Library
Ow
Pak
Rav
Ship
Sora
Youth
bore
cosm
fil
gor
gaining
hind
tort
veter
##dream
##mates
##uters
##OM
##orph
##alf
##alog
##ashes
##street
##olin
##olve
##terior
##ema
##ima
##uther
##ulates
procl
champions
platinum
##ova
spr
##rae
##ormal
permitted
scre
##izers
##ibl
evident
Margar
##egraph
acted
epic
blow
Bron
surprise
numbered
obtain
##ramid
##anches
Maya
ownership
##porter
simpl
occurring
successive
Trond
Allosaurus
starter
arrest
Christi
restore
redes
McM
phone
reviewed
##ambo
increases
solution
Romania
victim
Centre
excell
goods
Corpus
cougars
functions
balls
##grad
identify
animation
1889
measuring
Daydream
penet
Arabs
heavier
cruisers
##underst
consistent
targets
seriously
logic
lifetime
walking
reinforced
Halo
melody
wait
Nightingale
diamond
Jurchens
conversion
##hua
Derff
virtually
beauty
Coldrum
bowling
Province
pregnant
sanct
relegated
noble
leukemia
Hungarian
appropriate
Fernandez
Hampshire
Rothschild
administrative
tissue
Internet
Cyrus
interpreted
photographs
Chrono
Call
Come
Dot
Ep
Eight
Etty
Food
Gw
Had
IOC
List
Mk
Mas
Rä
Room
Zoo
code
dust
ech
happ
hills
jet
lad
lumber
pp
pec
rains
sings
sized
sitting
taste
##iography
##ls
##lights
##ED
##bro
##bow
##pa
##face
##CW
##20
##enous
touring
tours
##elg
##sters
##urance
##olence
forg
##erse
##char
##ocy
seized
##arya
##ogram
heroes
unex
Almost
agency
##ricts
attitude
prefect
##oyd
##oints
##ilda
consent
registered
assembly
subd
##anka
grade
revived
revival
##anya
Leeds
backed
116
continuous
extend
extinct
runway
downstream
depiction
succession
sixteen
Conv
varied
helps
Grace
believing
explicit
engagement
capturing
Barbar
Perform
authorized
infection
##iscus
announcement
1903
Death
pitching
promotional
commenting
audition
Harv
representatives
Actor
armies
Antimony
flooded
nominations
housed
1849
participate
blocked
Years
morph
understood
Bradstreet
votes
Delaware
Trees
Humph
kilometers
secretary
constitu
questioned
habitats
synagogue
displaced
altarp
sporting
Hugh
Palestinian
##blazer
departed
parliamentary
resemble
tasked
hamper
Bruce
Honor
puzzles
MLB
suddenly
Rhodesian
Bedell
balance
Tigers
##rieved
manuscripts
perceived
bodyline
Mantell
hospitals
Wellington
Margaret
Derfflinger
Aub
Boss
Batter
Dal
Data
Dennis
Eg
Est
Fut
Ground
Hom
Iowa
Jag
Kyle
Lü
Lyn
Moon
Vis
boot
crick
da
lect
lumin
nit
rays
sin
sib
wolf
zomb
##rist
##uations
##pat
##éd
##inted
##itely
##itches
##icus
##ilis
##stal
##irts
stick
reun
##osity
comfort
##apur
##arded
Stop
Stars
pron
##rah
resid
Heb
Heavy
Health
scorer
component
compilation
##ensively
##wegian
##atha
flies
canon
endors
Shim
Bright
surpr
##tenance
##rowed
mainstream
151
recept
concession
brut
distances
Track
Tristan
edited
approaches
Beat
humor
convey
delay
replied
Manuel
230
speaker
entertainment
factor
insurg
prize
1897
rocks
lacking
industries
Import
territorial
golden
multipl
persist
memories
reactions
denomin
Studies
observation
Tommy
arrangements
credits
Interstate
salv
kickoff
touchdowns
interactions
##ographical
rescued
Haitian
Books
Administ
##brush
NCAA
homosexual
fastest
roller
teachers
comprised
odd
flew
Skinner
undertaken
Ohio
disturbance
vicinity
Bosn
pounder
sympt
strategic
dependent
absorbed
tickets
transcription
Palmyrene
juven
clothing
Foreign
restrictions
mystery
##önen
queen
Tokyo
obvious
mathemat
##ikkönen
Zanzibar
XIII
Vegas
Ecclestone
Trondheim
Räikkönen
Cy
Dress
Dead
Father
Hong
Hannah
IA
Jess
Kon
Kings
Lin
Lear
Liz
Looking
Mong
Morning
NM
Pam
Read
Tak
Tree
Verm
Wrapped
Zagre
craf
hitting
pin
punt
pistol
sweet
trough
vital
worn
##rity
##mn
##cover
##uating
##tz
##fire
##zes
##CE
##ình
##orage
##anville
##isons
##asa
##omic
##olics
##acter
##rooms
stabil
##ationally
##thren
atop
##odium
##unning
heir
hearing
sugar
##ework
praising
tru
recurring
aboard
relatives
unst
enorm
##achute
evolution
##evelop
##veland
acoust
retro
fourteen
108
Brack
coaching
locally
Carn
popul
miners
minimal
brilliant
extending
extensively
complimented
Isle
districts
poets
Blu
mature
matters
edit
USS
drinking
Flower
phosph
explore
opposing
##eltown
medal
Ord
myster
membrane
behalf
coverage
genes
1901
1906
Crab
Highland
Monkey
Serb
arguing
Anti
cutting
Slayer
escaped
ruler
##mingham
peninsula
traveling
physic
antiqu
archaeologists
Singh
##abyrin
observatory
consistently
Krist
Norwegian
curved
Baseball
Senator
championships
exhibition
candidates
universe
Birmingham
shrine
pictures
Matthew
batsmen
concepts
sending
Collection
horiz
Chapel
Creutz
exclusive
Gregory
laboratory
aerial
aerodr
liner
Kennedy
Princess
rubber
Hellblazer
Hughes
talent
##ocaust
Cleveland
Joyful
conjunction
Professor
Staley
Corbet
Navar
tubes
Baptist
Humphrey
##abyrinth
BM
Dance
Doyle
Fat
Finn
Joint
Lam
Less
Local
Liao
NASA
Pagan
RI
Raid
Sultan
Tong
Troph
Vand
cod
cash
faster
garn
mood
ports
pushing
racing
sick
tested
zinc
##town
##nall
##EA
##kes
##zer
##zona
##VP
##inaw
##aters
##icer
ascend
beam
alg
alive
##oping
##aping
deals
##iller
##ifest
##ocent
exceed
##anther
spawn
trains
trails
intr
climb
abd
unw
unrest
complement
apply
allocated
imperial
users
usual
##eases
sheep
commenced
centimetres
##ocking
consolid
decomm
Marge
Marie
Comedy
assert
acceler
##pense
presents
Carpenter
##yll
mini
154
111
Shell
brand
##azing
obsc
couldn
operational
provincial
advised
Cloud
governments
guide
guarant
weekend
Europa
Guine
margin
##parts
justice
Andr
possess
Beeton
tracked
demon
myself
courses
soldier
261
220
Reagan
affairs
statements
Federation
predicted
circuit
audio
lacked
Rockef
argument
device
motif
hostile
1860
Christianity
machinery
Quiney
1878
Egyptians
investment
chapters
autob
transported
examination
Opera
bombing
reflect
marketing
Justin
precip
Contem
beaten
duet
familiar
1819
camer
neighbour
Community
universal
requirements
Finally
fragment
venue
timber
Arizona
Cambodian
Urania
Lucas
Kenneth
Trail
households
enlar
immigration
indigenous
steadily
stere
renewed
Hobbs
##arthy
Vulcan
funeral
Globe
pyramid
revenue
Symph
tombs
##agoda
twentieth
crickets
Zagreb
Cu
Cov
Cult
Ech
Fried
Graham
Hurricanes
Kle
Mol
Nine
Ost
Pf
Pole
Raf
Sox
Vik
Ze
beds
cres
cemetery
ecc
eating
ecl
fame
fault
gri
jaw
mate
nut
pink
rig
sav
ward
##rí
##rim
##ci
##time
##nik
##xim
##āh
##Ar
##jan
##onian
##athetic
##orough
##aro
##aration
##ingray
##acon
##owder
stap
reag
reward
##agers
##estion
##rift
proceeded
##illas
Invest
##ocation
seas
execut
pled
placing
shield
##ipel
##osts
Chan
Champion
incompl
clar
abuse
##ruption
Thai
comprom
offshore
##ensus
##ribi
acre
retain
retail
grap
amid
102
quiet
quoted
Leices
singers
##itsu
maintenance
##ernoot
studying
Johnny
171
developers
smoke
##aze
continu
mayor
distant
Blues
Austrian
warned
slopes
131
constantly
True
Plateau
guides
Colomb
Guild
McK
visits
approaching
trio
portions
storylines
marking
legit
repairs
archbishop
Charmb
magical
Companies
240
reportedly
Assy
##hemical
Reines
affil
corpor
insects
priests
predict
valuable
connections
1857
1880
Partington
funded
Holocaust
businesses
Agency
breaks
autumn
minority
Russell
##anza
celebrate
##nyi
talks
sexuality
concentration
voices
Villaret
agriculture
horror
calculated
challenging
flagship
Movie
Bernard
sponsored
ignored
conventional
exhausted
absolute
inaugural
Season
density
Cecil
condemned
Kyra
propaganda
Cantrell
Pirates
contradict
alphab
##present
Wrestling
##htwald
screens
Hebrew
Navarro
Vandernoot
Charmbrac
Ages
Billy
Eug
Ford
Faul
Files
Gri
Hod
Hockey
Jar
Ko
Ker
Kick
Lt
Mond
Mission
MVP
Oak
Ps
Sina
Uy
Yam
dying
gentle
pole
rivals
saint
soph
torn
tasks
venture
waves
##gas
##mat
##hum
##sk
##lam
##ta
##pet
##fly
##fish
##wall
##zed
##MA
##iner
##arius
##ali
##isen
##adic
##rov
##igence
stall
##ayne
##emn
##osc
##udo
plag
##oves
spore
Stand
Still
prest
reconc
##place
##raits
clergy
##orms
unless
envelop
scen
comprehens
disrupt
##angle
manage
##ibilities
##iko
attorney
##enson
##rible
centered
##issions
remind
knocked
flows
decide
canals
undergo
speculation
grain
buoys
dozen
Brun
Bristol
noise
surpass
preserve
presbyter
quad
teammate
airfield
airports
Whit
##rapping
Isles
Austro
shipments
finest
colours
135
passages
Adri
Places
##inae
drivers
march
Yorkshire
antagon
replacing
traditions
similarities
roadway
stronger
Computer
posts
corps
Glad
Glanville
Atlét
Crash
grows
Actress
improvement
volumes
battlefield
##mediate
##iffs
McCarthy
persons
physics
graduate
memorable
autonom
Catholics
Telegraph
presidential
Studio
urged
Franklin
progressed
##awny
hoping
reflecting
salary
Commandos
essay
essentially
Aviation
intersects
emotions
duo
Larry
dynamic
Ferd
José
##bourne
permanently
Bhair
Destroy
belonging
fragments
devoted
imagery
Keys
hamlet
gathered
moist
Railroad
occasional
Ronald
linear
Gielg
vertices
stretched
hypothes
repeatedly
Qedarites
wicket
Archaeology
Archaeological
loved
surrendered
puzzle
experimental
Seven
Ganges
consumption
Rajam
Ulster
Transportation
politicians
tributaries
diplomatic
divorce
##oplasm
Machine
CPS
ATP
Banksia
WNO
McEl
liquid
Nelson
deterior
truly
Rockefeller
Contemporary
Charmbracelet
Sinai
Atlético
Gielgud
Bes
Bour
CG
Cry
Cret
DE
Ele
Eve
Full
Gack
Hem
Hub
Harm
Mh
Pa
Pink
Ric
Sug
Tell
Tide
Uk
Vist
Want
Worth
Yang
cards
ceased
hi
junction
mit
mild
navy
naked
pill
sic
stern
sacked
tape
vig
vault
##ded
##die
##gans
##mad
##case
##cially
##saku
##oided
##tains
##kner
##pected
##erver
##oni
##oned
##oric
##anelli
##ito
##itis
##itudes
##asco
tools
##reated
##entine
##adh
##olves
##ache
##ivan
##ivation
##igadier
stability
##odox
##earing
##ifeng
##ectic
##ocese
##season
##ante
span
Staff
pra
price
##asted
Chand
Chang
##ogan
adequ
enroll
Hein
compan
disgu
##oined
Arn
##ugs
subord
##hesh
##ounced
monit
129
invent
173
complicated
##uedoc
expand
Clocks
collections
publicly
verses
##aiman
destination
avoided
confusion
involves
survival
afford
genu
1904
friendship
limits
travels
funny
barrier
nightingale
sufficiently
sword
summar
Berhtwald
draws
Myc
Montreal
acceptable
employment
##boro
threats
Neolithic
opined
dealing
screened
links
Campaign
Operations
dedication
##rosaur
ambassador
Bradman
athlete
Robinson
Millennium
kicked
angle
seemingly
Jimmy
dressed
narrator
Kaifeng
Brenda
remarkable
opinions
Nevada
microscop
tunnels
devotion
boyfriend
perfectly
Lloyd
Alfa
Gabri
sleep
tonnes
evacuated
relegation
disappeared
indigo
Remix
shifted
Lancaster
accommodate
prohibited
shallow
songwriter
rectangular
bombardment
predominantly
jackrabbit
substance
Languedoc
cooperation
drainage
Maurice
isotopes
bombs
Freakum
Kōsaku
amphib
Loverboy
##iblical
siblings
enormous
Trophy
garnered
Leicester
Faulkner
Cretaceous
Gacko
Bod
Boot
Belt
Beth
Bình
Cow
Curt
Days
EP
Fast
IR
Imb
Liter
Mile
Na
Prop
Pete
Rul
Race
Ster
Sout
Sull
Wu
Well
Wisc
Witchcraft
Xbox
bol
bold
ca
ce
cavalry
gender
ion
lying
mg
m3
mortal
nep
rushed
tent
veloc
##aels
##dict
##eh
##hous
##uen
##bal
##found
ther
##inisc
##itious
##isa
##isations
thro
##irty
##leans
reper
bypass
##andal
##umph
##apa
##eared
Ins
##akim
item
plate
planes
##anti
##ello
##iph
##geon
Chop
fires
incurs
heritage
abn
computers
desper
weigh
##onsin
inducted
movies
releasing
Shaw
##ounters
suppress
Brigades
Scots
Lead
Legend
populated
172
extends
milk
Austria
colors
landmark
landscape
warn
governed
Constitution
varies
variable
variations
imposed
exploration
convict
halted
demanded
Brother
##urrently
experts
realised
Weather
aviation
Elgin
Edge
skill
competitive
Polit
Aircraft
##aults
Represent
Exper
limestone
planets
boil
electrical
##ettes
Sword
1850
1856
hygr
merc
lyrical
learns
Quinn
Small
##owski
Superman
cyclones
caliber
##enesis
1848
Mahesh
##ouli
FIT
##rosaurus
Metro
Poet
Sixth
Contin
Julian
walks
weakening
offerings
Todd
alternate
defender
grasses
Senate
manufacturing
sacrif
Loose
Popular
spotted
sensitive
collaborated
battleship
##aturally
Garden
Liberal
mythology
challenges
Raymond
petition
cabinet
options
highlighted
immigrants
Napole
Antonio
improvements
Technology
Nicholas
Combat
helicopter
relieved
Yugoslavia
vulner
fertil
deliberately
therapy
Beginning
supreme
Wikiped
disbanded
Dwight
Barbarian
Performance
Shimomura
surprised
acoustic
decommissioned
Pfaster
Uygh
Gladstone
Sullivan
Wisconsin
AN
AL
Aud
Bear
Box
CN
Cel
Fund
Gross
Kub
Loch
MP
Mend
Nu
Nik
Pok
Sac
Sey
Sax
Saf
Tz
Vishn
Wed
Was
Ward
Xook
cu
cats
cattle
dawn
dancing
fart
gusts
hung
lie
mud
mentions
ol
oct
paying
push
rape
rush
tawny
vs
yd
µm
##rino
##iors
##gom
##eu
##lane
##bits
##ław
##ín
##ơng
##ương
##eded
##orf
##eneg
##anon
##oub
##rection
##omyc
##urers
##etheless
##roke
forb
forec
##idance
aside
##emon
isn
rever
fram
##umble
deer
dealt
##illes
##abh
chanc
Stakes
2000s
butt
intact
##ques
##hedruli
clust
##assed
resur
relev
unre
enabled
Thi
1800
##lando
##izer
##achment
playable
attending
outstanding
pret
eval
##ribe
##even
secular
##sson
reminisc
knee
flowers
accus
speculated
109
1200
Scout
transformed
invaded
descent
ministers
metric
extant
directing
##aux
warfare
##ashire
advances
adventures
heading
Trinity
guerr
guidance
Guinness
##aimed
promise
Orlando
tempo
##beat
competed
terr
affect
pressed
Earnest
divines
Blacks
Blackie
Glass
Design
lawyer
declaring
1894
casem
connects
circular
processing
1854
1851
Month
estimate
recognize
Berg
Bergen
Montfort
Montgom
floods
violation
##igger
Players
##adys
Vargas
Greatest
apartment
participants
Note
Malays
Terry
concerning
Official
examined
labour
Devin
##ycle
Pitts
internationally
##umbered
crowds
Ferr
Defence
oxid
thirteen
exhibited
dissipating
addressed
comprising
Derby
737
Darwin
rituals
Gabbar
Retrieved
Wallace
subtropical
Pupp
Puerto
Ganganelli
volunteers
blend
PAVN
##escope
recreational
preceding
Lancashire
exhaust
diverse
overwhelming
merchant
portrayal
reservoirs
conspir
categories
rebellion
Harris
Mkhedruli
altarpiece
Auburn
Bracknell
mysterious
Guinea
Rajamouli
McElroy
Mhalsa
Imbudo
hygrometric
Montgomery
Ay
Ax
Bry
Based
Dí
Dian
Gamb
Hosp
Katherine
Loy
Mail
Members
Nf
NEA
Ori
Pand
Rand
Sit
Set
Site
Tat
Tar
Total
Wald
arose
bin
bron
cakes
fest
hockey
jur
lig
lights
mos
mounts
nose
naming
pig
pian
wre
wished
wonder
zones
Ímar
##cence
##lies
##uber
##bach
##pack
##pike
##erb
##inces
##atch
##atra
##atters
##aren
##enburg
##aland
##aliation
##iche
##rez
##eleton
##enteen
##olar
##olver
##olph
##tery
##tering
##igon
##igious
steal
stalk
##usa
reh
alignment
conform
conven
##oso
##ums
##odont
##apolis
##abric
##ovac
spokes
Strapping
##asting
leagues
incred
##quis
perception
dislik
##izong
ages
partners
##overed
##ensed
##icken
Archer
conservative
asserted
indirect
103
coat
Sean
126
invitation
152
brings
parad
thoughts
slave
##erves
Spe
Spir
Paranth
batting
protesters
marched
bread
organic
Therefore
repet
##nergy
debt
realistic
teleph
Amyl
communist
positioned
##uctions
Parker
involve
wanting
situations
genres
ordinary
statue
statistics
radius
destroying
travelling
insisted
barrel
tourists
1898
1891
##ucker
##ommun
##racted
commerce
commercially
drawings
hosts
1880s
Monteneg
Medal
1865
qualifying
interviewed
Feel
1832
reactor
occupy
ensemble
principle
loop
layers
paths
Humpty
confirm
angry
Colonies
##umberland
emotion
fears
elevated
eleventh
farming
ratio
torpedoes
weakness
Karl
jumping
scholarship
honorary
eliminate
Apart
Denmark
Llosa
Nazaire
pulp
impressive
Works
accomplished
platforms
Motor
witnesses
decrease
Stewie
instrumental
reverse
reversed
revolutionary
Brazilian
Katia
Chronicle
orchestra
teachings
Gibson
Electronic
answer
puppet
astronomers
McLaren
acknowledged
supernatural
battlecruisers
inhabited
coffee
semifinals
Behind
advertisements
Algernon
Pakistan
redesign
unexpected
hampered
symptoms
Rafael
graphic
Ruler
velocity
hygrometricus
Díaz
Paranthodon
Aw
AS
Ale
Action
Bach
Energy
Fal
Hang
Kal
Mint
Oj
Occ
Pel
Past
Pra
Pesh
Ral
Rut
RNA
Sic
SNL
Tun
Tob
Talk
Vo
VI
Wave
aided
bath
boss
bills
cable
dad
eagle
fed
filed
gam
gospel
ho
puma
ramp
vint
winners
##iè
##mans
##oons
##lide
##bi
##BO
thesis
##onation
##onso
##atom
##orological
##arc
##areness
##anus
inver
##iland
thrown
##str
##stown
##stappen
##aduct
waste
##idia
##igible
staged
staying
storage
##emark
##usade
whatever
alco
##rix
##riors
deGrom
Inside
##abs
##abad
##alling
chord
##berger
##roud
spell
spelling
trunk
##oulder
herb
relax
uncon
enact
Thomp
desired
outd
centres
##iousness
console
dece
##othic
Compl
Newport
meat
blamed
founding
coaster
Lein
elite
studios
##uchi
conclus
developer
discovers
distort
##enne
provision
deputy
Forb
advent
advocated
sixty
##ealous
governing
annoy
arrives
marg
lasting
25th
Flow
handle
listing
markets
Baron
debated
twins
Edition
skelet
confused
affair
affecting
Davies
glac
corrid
exciting
radar
radical
casting
villain
Crim
switch
1896
entirety
troop
commentary
commentators
identical
agrees
lacks
rounded
##arnation
1881
1862
costumes
achievement
responses
persisted
interviews
painter
opens
graduated
educational
participation
##guard
Terrorist
Artillery
satir
frequency
progression
Verstappen
coined
deeply
counteratt
focuses
bombers
judo
athletics
murd
##ratch
Bobby
vocalist
awareness
feared
Annals
reinforce
messages
##bridge
exhibit
Rhode
PopM
emphasized
fungi
extraord
belonged
targeted
restaurants
Liberty
gathering
conceived
proposals
printing
Bruins
plumage
Shaolin
Mariah
submarines
corresponding
sailors
##boards
mutual
fairly
recruited
enlisted
drugs
symmet
##enzo
Durham
culm
Wolfpack
anthrop
census
absolut
borrowed
dinosaurs
garden
borders
Cobra
frigates
rendition
Jenkins
Panzer
aggregate
bonus
dispatched
pione
Johann
administered
Gwend
unstable
cameras
##ipelago
Fastra
nephew
Wikipedia
framework
reminiscent
Thompson
A4
Aff
Base
Cur
Cadmium
Dawn
Econom
ECU
Fu
Guth
ITV
Kan
Kaiman
MI
Maj
Pas
Pil
Rub
Rook
Ruth
Sag
Sri
SEC
Trou
Tang
Tai
Timb
Va
Voyage
Wells
cock
fier
hence
holes
hurd
harsh
lib
nas
nice
naturally
oribi
pose
sink
saving
tennis
##aic
##rage
##iu
##iast
##car
##cut
##cuss
##cribed
##ho
##sky
##tar
##vy
##OS
##inand
inex
##isive
##icism
thread
thorough
##uru
##acements
forget
##idal
##ighed
stress
##ayana
##thi
##usive
##ushes
reporter
##ulator
##agged
##avian
##opol
##ctic
proxim
oral
chances
exterior
##ovil
spear
Start
##ostere
Chu
Chau
incons
##quet
##uble
##ruit
Hend
Than
scores
disabled
##angel
maneu
##rice
##iban
overcome
##issart
flav
flown
flower
decoration
##othy
canons
formula
assum
subjected
Any
doors
107
104
syād
Joan
Sche
contracts
transits
polar
diff
nearest
Indies
poetic
Bloom
slip
Clay
Clair
Commodore
Northwest
Northumberland
##mede
Janet
Parachute
elephant
Being
breeds
explaining
explored
handling
##plex
delight
debris
totally
refuses
Peron
confidence
lessons
eighteen
statues
##adesh
27th
Exped
Exeter
Executive
introduces
Regiments
blacks
humanity
declaration
suffer
mixing
swit
1899
coastline
encounters
connect
campaigns
knows
sexually
broadc
##raction
estimates
arguments
armoured
intervention
1882
acceptance
Medieval
##itaire
##igging
1870
##umping
Fez
woodland
1830
memoir
##backs
applications
contempor
##unta
##ships
guitarist
##rosion
suggestion
princess
focusing
ultimate
Jamie
Soviets
Formation
demonstration
dynam
error
Engineers
oxide
Joshua
MDOT
Turkey
functional
attendance
labeled
intelligent
foxes
Carlos
romance
mistaken
Athletics
Susque
978
Muham
migration
Ingram
Rowley
witnessed
Judith
reconstruct
rifles
explosive
deposits
Yeovil
Savage
ruins
exercise
gallery
Aldean
implemented
samples
patrols
##changed
overwhelmed
abundant
abundance
obstacles
listeners
Lithuan
turbines
nickname
fantasy
Universal
rendered
Magdalen
binding
prompting
McNichol
Fifth
Hairan
sanctuary
Battery
IAAF
incomplete
comprehensive
Ferdinand
Bhairava
reperto
Napoleon
Amylostere
Guthrie
proximity
Clear
Dry
Deal
Doof
EU
Easter
Fil
Feld
Fisher
Ga
Gy
Gao
Hav
Hond
Hold
Hakim
Kaw
Liam
Mom
Map
Mak
Maid
Mets
NF
NOK
Ok
Pear
Peg
Rud
Roll
Round
Rush
ST
Sud
Sour
Suez
cyl
cooking
dign
dug
dull
dining
gene
hide
kW
lam
mere
maps
na
ts
tong
tune
tales
##auc
##rut
##ga
##gal
##music
##cock
##lon
##lides
##uania
##ko
##vāda
##wa
##2nd
##jiang
##él
##IV
##ZAC
##hent
##inished
##orrh
ine
##itars
##ingham
##icing
##omal
##elope
##ilogy
##entin
##sts
##etics
##adir
##aco
##ivorous
##iths
stingray
##uskh
reorgan
##andin
##estock
##oderm
##opal
##apy
##aba
##occ
seed
seated
orange
chann
external
shaft
##oved
spor
spoken
Stat
recon
##ogenic
wheel
abst
##assy
relied
scope
scripts
##acht
##ikh
output
##ailing
##ailand
remake
deciding
##ugg
Marily
retreated
##phae
gran
grace
Ansel
monster
blind
##insky
##airn
Carr
Carroll
Leo
transform
emig
##full
mining
157
156
developments
extr
Indu
discontin
Mayor
##ennial
slaves
expanding
Warrior
damages
pointing
detect
Grant
##clair
Flet
Flair
portraits
explan
organisations
Orleans
myel
everyday
Period
joins
confron
competing
lesser
##arma
humanitarian
Palmer
boom
barely
swall
1893
Moro
likewise
associate
1859
Monument
Monica
averaged
separately
improving
specialized
maternal
honey
Capital
Maryang
1874
uncle
donations
stopping
breakdown
crucial
Boat
dispersed
Schm
Artist
Officer
Jerry
Underneath
conflu
considerably
kinds
reflects
lifted
Goat
Robyn
Twins
Metall
42nd
Outside
preventing
digit
suspected
symbols
Kahn
52nd
Brethren
Half
Ferry
Trip
Confession
Josh
Attack
journalists
Buen
minerals
favourite
atmospher
imagination
expeditions
strikeouts
Arik
Doctor
Subsequently
philosoph
Ellis
Greater
Freedom
UNES
challenged
Observer
Return
passenger
##avery
distinguish
Traff
segments
instrumentation
Copia
Marshal
synthesis
Cruiser
consequence
streams
Campbeltown
besie
##usader
Saigon
persuaded
Lithuania
interpretation
mammal
drafted
Rapids
##isphere
Dumpty
##enteenth
principles
Murphy
phenomenon
nineteenth
excellent
echo
Lütz
Administration
crafts
##eveloped
horizont
Chanology
alphabet
Vistara
Curtis
ceiling
ANZAC
Saxon
Tzu
Ojib
Peshkin
Ralph
Leinster
Expedition
Susqueh
Gaozong
##uskhuri
Marilyn
Anselm
UNESCO
Lützow
Aqu
Away
Boom
Cann
Eps
Fig
Gry
Gothic
Have
Hutch
Kend
Lat
Mut
Mete
Nuskhuri
Oke
Pt
PD
Pomp
Rey
ROK
Sang
Sau
Ta
Visc
Wang
Yet
Yoko
Zhang
bra
cle
danc
dread
fing
fights
gains
kiss
mad
mold
mRNA
naut
pir
ties
tends
vent
##mi
##mund
##say
##lass
##nance
##vements
##bled
##points
##SU
##jin
##eria
##orith
##anian
inhib
##itall
##itate
##itating
toy
##olly
##acrit
##rost
##roft
##irm
stump
##thodox
##osely
##osomes
anger
##avan
##opy
##apter
probe
proof
##istical
Ingr
##about
exile
Stones
##astian
##ellor
##ellers
Chile
recip
recapt
leather
clad
resolved
unl
unrel
Thailand
Alph
comparing
dischar
diseases
agencies
manifest
##ounted
##ulty
outfl
##enshm
Unit
securing
remote
Franz
##obee
Comics
register
peer
Newfound
Shadow
thereby
Brand
##otherapy
Scandin
contrace
transmitted
descriptions
153
119
metaph
##tona
branches
parade
millions
discour
carn
##itty
preval
depends
137
Gerald
characterised
annex
guitars
Euro
##echobee
breast
demanding
Barnes
Manor
traders
solitaire
Charan
skeleton
profound
Generation
terrorist
infected
sometime
1892
1890s
summon
superst
Syria
355
Others
cuts
honours
1863
achievements
Emma
Wilf
1877
Helen
Appro
Reserve
drown
blockade
fails
Merri
Beyond
hopes
##restrial
attractive
acquis
throws
Former
Basement
Templ
hotels
investigate
canceled
Julio
chemistry
Sarah
contributions
concentrations
incorporates
Confessions
manufacturer
mechanism
supplied
neutron
articles
Constantin
venom
doctor
Morris
Industrial
philosopher
Urban
Adventures
Classic
Barbara
Cuba
Moving
remnant
reserves
unsuccessfully
descendants
correspondence
Winds
downloadable
Domnall
Cruise
Intell
Durand
swept
ornith
hemm
rumors
prolong
attributes
tributary
helicopters
mammals
Buddhist
Rebbie
Nashville
latest
playoffs
fatalities
Paralympic
fossil
Lorenzo
Diamond
enzymes
sketch
livestock
Private
Cadets
reopened
precipitation
enlarged
scenario
FITs
vulnerable
Vishnu
Hospitall
Crimson
Gwendolen
Kaimanawa
Starting
repertoire
Doofenshm
##orrhiz
channels
Okeechobee
nautical
Ingrid
Newfoundland
2D
Boulder
CA
Case
Clement
Cemetery
Doc
Ess
Fountain
Flying
Gor
Gand
Hip
Hern
Hadd
Ku
Ket
Kus
Kum
Kra
Karn
Nam
Ob
Rico
Randy
Sak
Sport
SMS
Tucker
Vett
Wonder
dried
dads
ease
fever
fisher
gay
hier
hunt
jumps
jealous
junta
lion
ov
pover
ri
sor
sear
tag
tension
umpire
voyage
worse
##run
##rolling
##da
##mo
##math
##cel
##hr
##sville
##tovac
##fam
##éra
##esque
##anim
##elih
##ece
##etown
##olving
##oting
##otilla
stuff
##ayan
##employ
##immer
beak
fru
##agram
anonymous
##umped
##riet
202
projected
Inv
Information
##ardi
cha
chase
hadrosaur
spite
Stansfield
Chi
Chair
recalls
##plain
butter
arsenal
##quest
reserved
relating
Thing
Things
percuss
disorder
alliance
##itional
##iker
outcome
web
weighed
worker
Arr
Arbe
thanks
Comair
regiments
assign
assessed
##alsock
##ologically
interception
interrupted
intermediate
amazing
Anim
supports
monaster
Bronc
Seb
quit
adds
strain
strange
maintains
##elfth
##anche
directions
complained
Indeed
Indolence
carrier
##enna
##amedu
respected
provinces
##omanry
139
damaging
modes
Consequently
Trad
Truth
editions
Europium
drink
possessed
thirds
careers
##ambers
conviction
requiring
demographic
delays
termed
##leroderm
midfield
Abram
archipelago
victorious
Assist
Aires
observe
##ischer
readily
corp
Expl
Regard
Michaels
admir
Glas
##ogns
boost
facts
Eno
Moritz
summit
##uckle
##etta
##grim
charting
Megan
Security
identifies
1858
1853
farms
creature
Duarte
1888
1885
##stituted
rebel
Medical
fortified
Mostar
merged
conducting
Market
contracted
thinks
discussing
discussions
embr
1836
removing
cruise
dropping
literally
Strong
750
ensuing
celebration
ambitious
cannon
Italians
thickness
degener
logs
reflection
photography
salmon
Metropolitan
Commandments
seventeen
Archbishop
Bolton
investigated
taxonom
Damage
Avtovac
##ocratic
routing
snake
melod
Knights
Rosberg
legislature
Reviewers
panels
deployment
Finland
remixes
contacted
comprises
striker
strengthening
##swick
unusually
Sussex
Muslims
flee
cooler
Giã
fluor
Leonardo
Hyd
accidentally
Volunte
Melbourne
recruit
lawsuit
eldest
exercised
prosper
sediment
beside
repaired
floating
mortar
conquered
clouds
proceeds
Horiz
##levard
acclaimed
Production
APF
prolific
commitment
orbital
Jennifer
navigation
Nicholson
loyalty
Observatory
Mothers
nicknamed
##ught
frigate
Expressway
errors
imprisoned
megal
Sinclair
Veeru
neighborhoods
dodo
veteran
Jagann
Importance
NME
RIAA
algorith
Symphony
Brunswick
Harmon
hiatus
incursion
abnormal
clusters
relevant
Loyalsock
disliked
alcohol
confluence
Buenos
Arikamedu
Ojibwe
Vettel
poverty
##elihood
Broncos
Ach
Bun
Doll
Deb
Draft
Ely
Ent
Fitz
Fruit
Fischer
Get
Hand
Il
Ist
Imp
Kur
Kid
Kod
Lim
Lakes
Lyc
LED
Mann
Meth
NP
Neg
Pont
Roc
Rhy
Seg
Sovereign
Ted
Tanya
UC
Wa
Wey
Wany
Wemb
bite
bapt
cree
dil
es
fo
fet
fib
gif
hate
joy
kids
lock
lung
lighter
omn
pm
pest
pock
rand
rice
rows
rises
sinking
wire
##iel
##gence
##hand
##lot
##lore
##lio
##TA
##yers
##bard
##py
##LC
##hears
theolog
##onald
##oria
inich
inacc
##asian
##eley
##enting
##stick
##acular
Theater
forever
##idan
stiff
stanza
##emi
##imol
reject
albe
ank
proced
##isting
expense
sperm
spelled
traces
##ritt
Chamber
##ighting
##ogle
##outed
##quir
##assing
relocated
unemploy
enable
allies
##angered
manual
aftermath
##ensional
##amped
beta
flaw
##ugged
Marg
##obon
formations
assured
substances
accord
actively
Newark
graves
##ontane
##cedes
Shara
epit
monk
blank
Brigadier
highlights
##arsha
Scleroderm
158
metals
Indians
##space
instances
Austin
provisions
colored
warrant
maturity
134
neur
Trade
Aden
Adult
variant
Plant
Herbert
collision
topological
tracking
Ortona
captivity
trademark
inflicted
##eneath
eastward
##aughter
competitor
260
##uctive
terror
infilt
patients
Airlines
affection
equally
##atorial
cataly
admits
Glen
funk
settle
swing
Oliver
Hamar
traditionally
##eeper
cellular
separation
clearing
Henri
quarters
steambo
Khoo
width
honest
Drive
Olivia
dissolution
civilization
Squad
threatening
1838
physically
graduating
cruzi
1847
1840
educated
##irtz
participating
Laud
screenplay
concludes
Films
330
Catholicism
acquire
nuclei
Delano
shoots
judg
lifestyle
hairst
parks
harbor
suspic
suspect
Colonna
Control
synonym
manufactured
##market
Kentucky
neutrino
raids
belongs
remixed
troubles
mistake
tactic
tactical
dimensional
Revolutionary
Chapman
unpop
easier
Micro
protagonists
Critical
fluid
undertook
Borough
substantially
sailing
shelter
evacuation
evacuate
Royston
prosecution
Winter
coordinated
sweep
ecosy
warships
Hunter
jackrabbits
resignation
remembered
Felicia
traits
typhoon
imprisonment
sympathetic
Paralympics
elderly
Diego
barracks
welcome
##anagi
##uzzi
toxic
disappointed
Pierre
Yellowstone
Indonesian
Philippines
Carty
worsh
neglected
anticipated
Drama
Homar
luminosity
multiplayer
spawned
Assyrian
envelope
Destroyer
amphibious
Chopin
Brothers
Pokiri
chancel
Ferrari
bronze
wreck
telephone
extraordinary
Chauvel
inconsist
Muhammad
Lithuanian
Susquehanna
##acritic
Merrifield
Intelligence
Doofenshmirtz
Kusanagi
Wanyan
Wembley
random
albeit
ecosystem
80s
Boca
Cot
Cul
Core
Cost
Ches
Cred
Catherine
DJ
Escape
Fiction
Grey
Hoys
Happy
Harsha
Iber
Jai
Kem
Kap
Mole
Mits
Males
Mott
MCC
Nature
Pion
Pend
Powers
Qi
Sylv
Tro
Tow
Toy
VH
Voy
bush
bishops
cad
euk
furn
gate
gills
haun
hurt
jam
jav
lakes
m2
mast
mason
mating
masters
nons
opted
sank
salt
tet
upr
wart
ye
zero
##rent
##rance
##rained
##raine
##dy
##dings
##iens
##gow
##haw
##tures
##pe
##zo
##Cl
##35
##MC
##és
##heng
##inqu
##onium
##atisf
##aras
##iture
##asury
##asma
tough
##omon
##entation
##acco
##aceratops
##ivial
##utor
##usil
rework
##chan
conif
fres
frames
##agus
##agger
##avi
##esses
comics
##rific
##unct
##illon
##iffer
##arden
seam
##uded
shock
spark
Style
Stopp
tran
##ineae
##geant
Cha
lev
##oga
aren
##soft
reluct
Thames
scales
compat
compiled
##ucket
##ika
##ensa
upgr
##attan
teaches
##egosaur
endemic
filmm
regained
regulation
specially
Americas
basement
gram
buff
##anne
Analy
revenge
synd
blame
##ebe
##rowing
quake
empty
159
##ahl
signature
##llotal
brood
133
northwestern
Plensa
guy
drunk
southwestern
Prim
Pradesh
prototype
marble
possessions
progn
crimes
Beer
##elta
reprinted
viewing
issuing
Abraham
solve
Perth
lowered
confident
entertaining
terrible
survives
statute
introduce
Blackburn
villagers
keen
##araoh
predator
rocky
encomp
associations
averaging
##amaic
widow
Galile
illum
Capcom
fortifications
Odys
GameS
Quar
1876
Browns
discusses
embry
calm
Notting
occupies
visitor
##zzobon
##agonal
Offensive
Merc
silk
silent
Belie
Patriarch
colonists
ensued
celebrity
Surrender
accessible
analyzed
loose
judged
Metacritic
curve
Pozzobon
parking
incorrect
##limited
grandson
dressing
drummer
internet
graphs
chemotherapy
punct
peaceful
irrig
Large
wildlife
inscribed
Fantuzzi
turret
museums
RAR
definitely
comparable
Written
Jeffrey
Additional
coloured
moons
Apost
Susan
overlap
Greece
unpre
decreased
Marcus
Lowland
bowlers
optim
rubble
disturbed
Savannah
Huguen
predecessors
kingship
volunteer
Camer
consequences
Warsaw
conquest
Essex
##holm
navig
Laboratory
gardens
oriented
Babyl
Munich
Yugoslav
eaten
congregation
tackle
delegates
comedian
poisoning
Pleasure
innovative
expectations
Dahl
ghost
carriages
Nonetheless
climax
##otypes
Publishing
ridicul
Sometimes
swimming
reassigned
Mortimer
kidn
explicitly
aerodromes
Friedrich
quadru
Adriatic
adequate
therm
Pittsburgh
rehabil
Saginaw
Vaishn
contemporaries
Feldman
NFL
Peggy
discontinued
Fletcher
Viscount
percussion
Arbeider
Glasgow
Jagannadh
Microsoft
Mitsuda
Stoppani
Pozzobonelli
AOC
Bore
Berm
Bened
Candid
CAT
Dinosaur
Fear
Fine
Foster
Gem
Hus
Hew
Hous
JT
Kor
Kab
Led
Lal
Lands
Located
Labyrinth
Mess
Mult
Mick
Municipal
Nek
Nomura
Poll
Person
Price
Rat
Rou
Rear
Raw
Ranger
Raton
Sv
Typ
Tests
Uí
Vij
Wor
WCW
Zap
Zrí
bark
bunk
binary
bacter
biblical
beneath
cow
cov
cater
dent
dish
drought
drift
fabric
gamb
gaming
hack
hell
haz
joke
lod
lun
ma
mail
nests
pad
pier
proud
rh
sid
tiny
tube
vow
vass
##dam
##diction
##iat
##iating
##iability
##mons
##master
##col
##cairn
##hurst
##oft
##Eu
##yon
##bu
##HA
##Far
theories
##arious
##anj
##alo
##asant
tool
##icular
##ouver
##reation
##omat
##enton
##stall
##stage
##stock
##urred
##olulu
##acey
##rove
fore
##igo
stir
stair
stroke
beaches
##usions
##very
##uman
##odied
##opard
prose
suited
seize
chlor
plates
plateau
##arta
shoes
shipped
##ović
spo
Stokes
truck
trucks
##isham
Chanc
leaked
incl
contested
archer
unh
unity
unve
unaware
unanim
Thr
perf
perpet
scor
apprent
##acharya
agar
manages
manoe
afterward
##actory
##iki
user
outp
##overy
##acea
##ampa
Ono
##lesey
remaster
Aramaic
knock
consensus
decent
##tershire
undergrad
assume
subc
Newcast
gras
grid
##anner
Shan
syll
supporter
Braves
surprising
numbering
##ajal
Sciences
invis
empl
##ylogen
mete
##leys
warrior
slope
138
expecting
editors
Allmusic
Adrian
varieties
145
collective
collecting
versus
topic
topics
Byron
listening
commanding
engaging
authored
median
antib
demo
Ors
cameo
##mpires
imported
telev
217
Eddie
competitors
Polyt
patch
countryside
managing
sitcom
cultures
excited
##kii
coupled
insult
barons
barometric
tourism
activated
faculty
Anglesey
Townsville
favored
frontier
##lessness
circulated
identification
1852
1850s
individually
1883
hyper
hyphae
informal
Medway
copper
Drum
practical
violacea
##uku
chef
##force
escapes
composers
privile
privately
investors
##aphore
preparations
apolog
disputes
Steven
temperate
contempl
dolls
innocent
ensured
controlling
Kras
attraction
Solid
Robin
domain
darkness
Commando
Chess
financially
taxi
LiSA
angered
Pitcairn
Hindi
ironcl
Wildlife
altogether
contribute
Trials
pleased
Senior
manufacture
Josce
nesting
northwestward
encourage
illustrations
550
Level
prisoner
Karam
Idol
Evening
ode
Luis
Connie
speakers
rivalry
Phoenic
overlooking
Chapter
Crowns
adaptations
theaters
stretch
palace
descended
shelters
loaded
loading
software
galax
Prev
Yeomanry
Hereford
##ropolis
Robertson
Chenn
Hungary
collectively
Springfield
consciousness
Cooksey
Electric
hanging
songwriting
borough
puppets
astronomical
Holland
Cecily
Sidon
Albion
Azores
advisories
cytoplasm
frustrated
Confederate
discipline
nursery
papal
lambe
disagreed
Female
inferior
abolished
exempl
Franç
Support
ceremonial
pseudonym
excluded
Bulgaria
metallic
Lebanon
proclaimed
peckii
Harvey
Eguchi
brutal
denomination
Crystal
genuine
boilers
farther
Malaysia
juris
##ickenham
Complete
corridor
murdered
Timbaland
fierce
hurdles
Moment
Metallica
Epsom
Constantinople
Gandhi
Chairman
##usiliers
grammar
Zrínyi
manoeuv
Newcastle
Aval
Buch
Belf
Cou
Coss
Cott
Chester
CAA
Cavalry
Folk
Fusiliers
GP
Hil
Hast
Haz
Hương
Ja
Jas
Jill
Kashi
Lions
Mā
Must
Mason
Mead
Mobile
Nig
Norse
Number
Nancy
PS
Pad
Pap
Ports
Phys
RP
Ras
Rough
Rovers
SF
Sad
Saw
Sex
Siber
Tag
Tud
Ule
Ve
Vick
Wis
Yu
bub
cement
dors
diversity
eager
font
fission
fighters
golf
graz
hurricanes
iT
mould
mound
mansion
ost
pagan
paved
papers
rings
shed
tides
tensions
ul
vin
ware
##rome
##dish
##eem
##eux
##cach
##cade
##oos
##lets
##the
##bec
##piece
##feld
##wild
##woman
##zt
##40
##Down
##WC
##WA
##GA
##ński
##held
##erk
##inh
##inely
##instein
##onz
##onts
##atab
##orig
##orian
##esy
##enary
input
touc
toss
##rep
##reement
##amas
##amous
##amoto
##uras
##etical
##adv
##olor
##olete
##aca
##idy
stip
stained
stored
whit
whist
revel
reinc
##ulum
##ulators
convert
atoms
##ainted
fract
depl
##eworth
##akur
##abol
##abling
plac
placement
plasma
##arten
##antine
##ackDown
spans
spontane
Stay
Store
prices
notion
notices
##ellation
tract
##mented
##ostic
incumb
incidents
##pling
intrig
arist
wheat
##owned
##asses
resort
united
##rypton
Thakur
scream
##uche
##uclear
##izz
aging
##ibe
partition
prehist
sheet
##oina
##tef
fees
Armed
Arms
consec
flour
flatt
decisive
##terson
underlying
seasonal
regulations
submer
induction
buoy
##ificate
Aside
publish
monitors
blues
transm
eligible
invented
##erner
##inned
performs
meter
estates
estuary
##veer
parrot
millimeter
complaints
airing
airlines
Why
Whole
cream
##auge
discarded
Isa
militia
Blake
anywhere
slated
slavery
##hyd
Plains
Colin
idol
Guang
publicity
Pruss
protective
Novak
Flash
##pared
30th
trips
triumph
Proctor
crusaders
phases
breath
humorous
carefully
requests
medley
captains
courage
destruct
##urrent
##urrence
experiments
realize
realizes
telescope
Amun
Edmund
243
freely
membership
postp
obsolete
##neum
##afts
introducing
faction
Region
couples
insuff
facade
technologies
treason
superfic
circles
##marcach
1855
Money
devices
Antiqu
stepped
Brah
honors
1866
1860s
employee
fortress
fortune
merge
reasoning
1872
SmackDown
commercials
surfaces
Peace
Agreement
heaven
Various
embarr
1837
absent
determining
1842
Zealanders
keyboard
revealing
Meri
Mercedes
satire
Woods
Woodward
Woodfull
##uffs
##ortunately
Delhi
layout
##archy
Solar
photo
Salv
darker
Twickenham
Longacre
necessarily
prominently
precise
investigating
conception
symbolic
370
dresses
brownish
Hindenburg
websites
##inguished
nationally
struggling
farmland
Wayne
manufacturers
requirement
legislative
Reviews
Massa
Hibiscus
Historical
favoured
spectrum
molecule
##huveer
resembles
cleaning
virtue
Disney
Working
myths
Rowson
sponsorship
roofs
squadrons
Princeton
Hardy
Wyatt
878
explosion
crowned
ruined
varying
publishers
electricity
##ulsion
Domoina
scrapped
Rifle
WWE
sulfide
orchestral
Guybrush
supervis
Rhodesia
XeF
Stockholm
coordination
Tamil
owing
verteb
Semaphore
limitations
Palmyra
politician
manuscript
inherited
McLu
Recorded
Cobain
horns
tackles
Nobel
mycel
disciples
Ultimately
ceratopsians
fossils
kitchen
diagnosed
strictly
prospect
##unciation
confrontation
enthusias
tolerance
accomplishments
Huron
afraid
advocate
Ahk
accumulated
Fulbe
Proteins
Raghuveer
referee
Convention
Visual
Brighton
populace
autobiography
neighbouring
Echmarcach
compromise
Ltd
subordinate
Literary
desperate
warnings
Wednes
accusations
Hangzhou
vintage
##manship
##strong
symmetrical
absolutely
tongue
extrater
horizontal
dancers
fingers
metaphor
riots
corpse
Weyden
unpopular
eukary
javelin
Benedict
JTWC
Māori
Uleki
Aur
Bend
Border
Benson
Cave
Cox
Ceratops
Clean
Certain
Cherry
Eld
Erik
FC
Figg
Faith
Gru
Hi
HIV
IU
Ice
Jak
Kaz
Kling
Kaly
Lan
Lak
Liang
Ming
Numb
Put
Pick
Pitt
Peng
Qin
RE
Ring
RAF
Sep
Tax
Task
Woman
Wolver
aft
aisle
bowler
cure
cease
dwell
digging
e4
euc
fond
flex
foul
loot
laying
loses
mim
maj
nerv
niece
oak
oval
por
ram
rook
sizes
tap
tide
tended
tech
uprising
vener
wis
wield
##aford
##rus
##rator
##core
##lance
##upp
##nis
##ET
##bel
##pot
##pher
##wine
##xd
##xi
##zog
##zora
##Oct
##5th
##MI
##Music
##DP
##60
##ál
##ão
##hend
##hell
##inter
##ints
##atoes
##aron
##arse
##aning
##asia
##icz
##omorph
##elect
##iler
##eto
##etary
##adows
##olo
##oloph
##igations
stunt
stumps
rept
alike
alarm
##cepts
##osomal
##agne
##esthetic
##oded
##opter
deeper
##isto
##illance
Inari
##abilities
sealed
exh
exagger
shops
shirts
spher
spaced
trench
##ipher
##iah
Cham
Chase
Choice
lease
leaf
button
intent
artef
##ubic
##ffin
adul
adher
relay
reliance
##merie
Alam
Always
##ucle
##izards
overnight
imper
##ikes
##ensing
upstream
##inda
wouldn
##lesiast
##cestershire
Arena
consumed
flanks
##othing
underneath
Commer
retiring
accent
indie
indoor
amend
Anna
blown
##arson
##inski
transformation
pope
##ertiary
##erne
##elsk
##veillance
##flu
millimet
##ahu
continent
artif
Isla
instruction
distinction
downgraded
operator
provoked
advers
efficient
Claire
Tracks
edible
Allāh
Plum
Hermann
attackers
guilt
Colony
##renched
149
##auroloph
particles
Parade
detached
detective
marrow
phylogen
##ographed
explorer
##ambu
killer
sentenced
medic
delicate
persona
legacy
Manual
Above
##shop
realism
solutions
Battalions
Eliot
twelfth
refusing
Edin
Portland
24th
Churchill
280
posthum
Airborne
Reed
Reformed
affects
pressing
combine
sounding
Exam
##ooter
lighting
insert
primitive
declining
Env
Crusaders
Crusader
Angl
##lessly
knowing
masses
broadly
##ictionary
Madh
armour
RedOct
1886
Coal
costume
achieving
merger
lengthy
##olese
1870s
tribe
intensify
Arabia
Agricult
heaviest
Congolese
1833
properly
rails
minorities
Schol
touching
immun
Singing
deadline
Tomita
derives
Patterson
##ittees
##legiate
linking
progresses
progressive
celebrations
ambig
320
Oswald
loosely
marketed
Services
complexes
prominence
secretly
Kaiser
synth
##ocracy
displacement
Middles
wears
Turnpike
avoiding
rearguard
Engineering
Triple
remarks
mountainous
horsepower
narrowly
holotype
FAU
Levine
appealed
Armstrong
Steel
Steam
spectators
Using
odor
timing
mobil
mobility
speaks
bitter
actresses
Astrae
Llan
overlook
Adventure
Bruges
racial
firmly
Admiralty
decreasing
Phillips
Hyder
dogs
##chestra
supposedly
hatch
cabin
dubious
legendary
moderately
Lyric
strategies
ARIA
demolition
psychological
Winston
floors
instructions
XeO
etc
steady
grossing
cartoon
folded
escorted
Picture
liberal
orbits
Platte
satisfied
Dorothy
excessive
Sleaford
parasites
Ludlow
quantities
Something
ceremonies
outfit
Buckingham
##endarmerie
assessment
ladies
subdiv
zombies
Raiden
motifs
reagents
continuously
Colombia
##lamation
presbyterian
hypothesis
companion
Southeast
throat
Poetry
Kubica
Spirit
trunkline
relaxed
syādvāda
ineff
explanation
acquisition
Haddock
Sebastian
Assistant
Method
Credits
Pioneer
Voyager
Quarter
Nottingham
Bermuda
televised
Belfast
Tudor
dorsal
iTunes
submerged
McLuhan
Wednesday
RedOctane
Astraeus
Auck
Ble
Bud
Buff
Cz
Cort
Cove
Cinem
Chemical
Dil
Diana
Dangerous
Emb
ESP
Fol
Fly
Frost
GB
Gav
Given
HD
Hed
Hollow
HBO
IX
Jama
Lik
Luther
Mis
Mith
Mood
Mode
Mumb
Nation
Nina
Ngu
Opp
Py
Por
Pav
PSP
Pagoda
Ri
RF
Right
Rather
Side
Try
Vert
Vinc
Wally
Winn
aug
bic
bern
cro
cant
d4
dome
erosion
fitness
hast
heter
haul
kun
lasts
lamps
ment
nam
pile
podium
ris
sided
tier
umpires
wake
Åles
Æl
Ōzora
##ais
##ioc
##iya
##gon
##gate
##mith
##chel
##chester
##horn
##hagen
##hattan
##oa
##oors
##list
##numbered
##bone
##front
##zher
##zens
##CN
theology
##eros
##atro
##athed
##arat
##armed
##itational
tob
##icating
##iches
##ouk
##ilian
##iliation
##eces
##ecess
##urbs
##irmed
foraging
##idas
##emics
##uto
##thms
rehears
ally
##andis
atomic
##avor
##oped
##riages
proph
suite
dean
##istically
##ews
##ocrat
##uding
##ghan
plaster
plastic
shorts
spill
Stead
Standing
prince
noticed
trilogy
trivial
##ipas
##ineas
reclaim
recipes
incomp
##ogenesis
intimate
arena
heroin
resolve
uneven
##ounded
##iley
Alonso
compact
compares
disg
disrupted
##lude
overth
outs
ups
##wego
Unf
whenever
knight
knuckle
consort
flame
newer
underwater
Comet
endangered
retaining
Newman
intercour
somebody
##oleum
##annon
daylight
Anat
Anfield
Shin
Shapur
blog
Bruss
Bridges
founders
128
locals
preservation
Screen
Leading
contrary
invention
strings
performer
brass
complaint
##spective
critically
Ishm
caravan
distress
##tym
matrix
designing
Warner
Warwick
Convers
editing
Allies
Herbie
148
##ometry
Grisham
crashed
reviewing
governmental
handful
promising
Orthodox
courty
Manhattan
##attering
solved
telec
Amanda
politically
everybody
23rd
proposes
##bee
churchyard
Portable
Portrait
##yne
config
##appeared
freed
defeats
totaled
postseason
##aulipas
nevertheless
Suz
femin
Century
ordin
societies
275
catalog
castles
watches
Glam
Richie
puts
Moray
Moravia
##official
Hamlet
Swamp
promoting
frontal
processes
Monte
Gods
Rockstar
specialist
Berlio
##rington
devised
bias
Antilles
reasonable
Bayeux
Emily
Torch
availability
renowned
1879
effectiveness
businessman
penis
1834
expressing
Appl
##achelor
independently
determination
economics
##ophone
authent
Resp
slowed
observes
observing
Underground
Belle
screening
ensuring
accounted
Ottom
morale
meantime
voting
kilogram
naturalist
envision
emerging
athletic
portraying
necessity
Erzher
harvest
pursu
pursued
##ochond
##ointment
1821
angular
enjoyable
480
advantages
AIDS
walked
thriller
##ographies
Larwood
muscimol
contributing
concentrate
1801
missionary
Senators
Loft
doubled
worried
shrub
shrines
hunters
fragilis
Nevers
fixtures
Bullet
Normandy
elementary
Carlisle
addresses
odes
Megal
Watch
##ighthouse
57th
Gardens
Dunn
robust
hammer
sends
Ghat
Memory
##kinson
coalition
Freeway
Barbours
negotiated
Rowland
##avern
rebuilding
depictions
Broadcast
##realm
Legisl
crypt
crystall
feral
licensed
Fairies
consequently
talented
##aguar
CEO
Junior
trailer
ancestry
ancestors
instructed
culmin
Stockwell
preceded
patronage
accommodation
Tamaulipas
allegations
rumours
Pictures
Platoon
utilized
Snake
herds
Combined
persuade
enhance
enhanced
frustration
categor
Ambassador
Dahlan
axis
coincide
clinical
sentimental
refugees
Diamandis
Ivan
appreciated
Typhoon
jewel
sectors
disappointing
virus
happens
constituency
mathematical
Ostend
staple
Besides
Hubbard
Sugar
Arnold
monitoring
Beltline
Representatives
sacrifice
Uyghurs
Puppet
Diane
festivals
inverte
conclusions
PopMatters
culminated
Affairs
Scheer
broadcasts
atmospheric
echoed
Pompey
dreadn
Scandinavian
prevalent
summoned
##orrhizal
Kumar
Lycoming
Hoysala
wartime
Odyssey
Huguenots
gambling
##building
undergraduate
invisible
Polytron
##atabase
reincarnation
incumbent
Salvador
nervous
##lesiastical
Edinburgh
ESPN
Mumbai
Nguy
Ålesund
Ælf
knuckleball
intercourse
Brussels
Ishmael
Berlioz
Erzherzog
Amy
Bess
Baja
CC
Dy
Dow
Dup
Darden
Delta
Era
Emer
Fac
GM
Gay
Gut
Gaga
Gonz
Hors
Hood
Herm
Hyp
Hundred
IB
Kess
Kinn
Kakapo
KPA
LN
Lion
Member
Meas
Mons
Mansfield
Minsky
Nol
Nir
Nail
Nothing
Oil
Oric
Owego
Pall
Peck
Panther
Ran
Raph
RCA
Sut
Self
Soir
Tric
Tyr
Tapes
TOT
Ud
Utt
Vers
Voice
Venge
Wool
Wii
Zo
bent
cra
coun
cott
dun
diving
dinner
easter
etym
fro
feas
fals
fighter
gest
gale
glee
gauge
gendarmerie
hes
hollow
jail
jokes
lon
lav
lord
mant
mans
née
pac
rer
riff
seller
saints
tying
tears
wines
wages
ét
##aque
##raged
##di
##drop
##iott
##iastic
##gs
##eenth
##eapolis
##cat
##cot
##hor
##sa
##oT
##oan
##tical
##nut
##ked
##vet
##view
##vara
##bot
##pit
##part
##fast
##fraid
##SE
##22
##OR
##OL
##NS
##atories
##arts
##enstein
##isi
##isch
##ouche
##omo
##elly
##urp
##urally
##etr
##etter
##ivor
##idency
##igm
stance
stays
stolen
##ayette
##umm
##opic
##riers
heated
organs
chore
chains
plural
shame
shafts
shooter
##anted
spinning
pray
##astrum
trace
intim
conting
contents
contests
##okan
##aternal
adorn
relates
perm
dispar
disadv
appeals
##angs
##actic
attain
##osevel
##oining
Unlimited
##ported
Ard
Marvel
##obia
##ftime
##egu
subsc
submit
suburbs
academy
Newell
interim
interven
gren
##ificant
Shot
##resc
monitor
Brom
coaches
124
##eback
##ression
##ooley
capitals
Britt
backwards
empt
##erton
performers
teammates
paran
mills
signals
##ancouver
Isis
carriage
Blair
proven
generations
##enger
slower
Gerry
Forg
##ossy
smallest
Cla
##identified
Training
Place
guided
drains
Prison
protector
protecting
Gran
Grac
Flag
##retion
Anders
McA
shortage
crack
Geastrum
periodically
organize
storyt
monthly
convicted
halftime
Orchestra
##otta
Manager
midnight
solic
referenced
Edg
confined
timeslot
##osphere
Reformation
eighteenth
Evil
##aunton
Exc
Jackie
limbs
admired
Glitter
Gladys
##ogna
Calder
Palm
Roads
Crist
Crane
novelist
nationalist
##idding
likes
317
##ouncill
##ompany
strips
##umbled
##umbria
broader
argue
Madres
hosting
1884
1867
Reports
MacAr
merging
##uka
lengths
Butetown
escal
Acad
Across
Valuable
Helm
Feet
1830s
keyboards
diary
immortal
Single
Jeremi
deriv
FIBA
labelled
Campus
Upd
granting
ambition
commissioner
commissioning
Meyers
judicial
Minneapolis
flightless
lift
Google
Gofraid
healthy
Garth
Franco
payments
talked
Basket
taxes
Conserv
Conservative
disappointment
verdict
Julia
routine
irre
demonstrate
Annual
struggles
scientist
Haitians
Breed
spreading
muscle
Defensive
##brates
exhibits
650
yellowish
encouraging
mechanics
adjust
repeat
Craig
Lisbon
Liszt
Fourth
Huai
targeting
shrubs
micro
geography
resembling
Connor
Duncan
utter
flanked
Collins
Coldplay
Phoebe
Urn
dialog
NHC
surveys
mushrooms
negotiate
Movement
theatres
fluores
legends
1769
sanction
Roosevel
litter
Democrats
Bosi
ruin
exercises
unnecess
Diarm
volunteered
Tribune
leukemic
jointly
Biographer
Cabo
Cabral
constitutional
Islam
Casey
Sheridan
Testament
recreation
ticket
owed
inauguration
integrated
customers
consultant
feedback
attribute
dreams
Fernando
enforce
Observers
relieve
interpretations
inherit
iconic
reproduction
Universe
wrestling
teenage
Shelley
Shelby
bulkhead
adoption
diagnosis
Eye
Condoms
McDou
validity
Viaduct
sewage
Planet
facilitated
neighboring
compensation
Indonesia
Flem
Picard
subsidiary
Bulgarian
Authority
##understood
reunited
insurgents
persistent
juvenile
juveniles
mathematics
Reading
Vermeer
editorial
Kristians
ecclesiastical
nutri
pledged
Eugene
surpassed
airfields
antagonist
Ricci
inventory
Bootleg
##houser
Seym
guerrilla
Gambia
mosque
pianist
Feelings
skeletons
satirical
libret
Thanhouser
##issartensis
differs
Peronist
Honduras
Tripoli
clever
Harmonix
epithet
worshipped
Vaishnava
Zapata
Orsogna
Cottam
Siberia
##uchess
insufficient
Woodsboro
wisdom
artefacts
Islais
Environment
Hyderabad
Moody
bernissartensis
namely
Torchwood
Neversoft
Ælfric
Oricon
disadvant
MacArthur
Roosevelt
Aber
Agg
AoT
Bile
Boo
Break
Cd
Cai
Cedar
Currently
Din
Dare
Danish
Duchess
Fass
Gros
Grec
Hat
Hab
Hank
Hunt
Horus
Kiss
Kitty
Lov
Lex
Mind
Moth
Maine
Nambu
Oro
Powder
Rol
Riv
Rum
Ruf
SP
Sank
Sector
Soul
Siege
Totten
Tresc
Taunton
Uprising
Vel
Vene
Vancouver
WH
WR
WA
Wid
Wied
Wever
Wint
XV
Xin
Yosh
Zone
Zimmer
bare
cav
cubic
dred
dirt
ect
fa
fins
finger
gues
hub
lingu
mock
misc
masc
mosa
nu
oh
oath
omitted
pent
pist
penn
pipes
panther
pneum
rod
ridges
sins
tab
vi
vest
vague
witch
ylide
##afer
##iob
##gent
##gio
##mare
##mother
##cr
##cles
##care
##nery
##vae
##bied
##bons
##brid
##powder
##finger
##wing
##zuel
##RS
##Ch
##jection
##10
##1st
##DOT
##LA
##ća
##ów
##ür
##inoc
##onies
##atos
##ataka
##aris
##anic
##anium
##aline
##iti
##itime
##ioned
##omy
thunderst
##ecca
##ecompany
##ampton
##aden
##olate
Theodore
##irp
##irable
##ivic
##othe
##otenic
sto
staging
bend
whites
whisk
rejects
##ulous
confer
##ceph
##andering
framed
anal
analog
##esty
comeback
##rium
##rians
##apper
suck
##eward
##ectives
choral
sharing
sprit
Stage
trap
trigg
trunc
##orde
##ishna
leased
##plant
intro
arrows
##qual
clip
click
abrupt
rely
unsp
unidentified
enabling
Thirty
##pring
outnumbered
Online
##eville
Friday
Armen
knife
knights
decree
##othick
charitable
underway
enduring
regards
assets
subpl
retains
basal
soap
soils
Ans
revolt
Shi
Sho
Shah
Shiban
surveillance
capped
goat
elong
longtime
##innati
metropolitan
smoking
##azed
##azon
Individ
critique
runner
discern
carving
milit
finance
generate
designers
openly
Augustus
Claws
Trent
AllMusic
Advert
guards
guys
##ientious
##renadier
##oxide
entity
Pras
reddish
Nova
Flood
differently
eleg
reporting
portico
Beet
Beeth
pharaoh
Byz
organisms
convective
convoys
demons
demise
markings
replay
Barr
Barn
Charmed
Battles
refurb
everywhere
Edith
communal
confisc
Compet
profitable
##appropri
##ipper
infant
patri
managers
reads
50th
sounded
glam
insect
bohem
Recreation
lawyers
declines
activist
activists
Ennis
Crom
Crush
Crisis
##oids
campaigned
Harbor
##isticated
Antar
sawm
Minh
motivated
burnt
hybrid
##ancholy
Montagu
accepting
Meddings
meanwhile
1869
probable
qualities
negatively
Moors
cheap
cheese
Indiana
hardly
embro
embark
1831
calib
billed
Thatgam
1840s
Notes
transporting
failures
immense
semen
priority
Fortune
Underwood
Lightning
radioactive
Earthrealm
testified
accounting
Filming
attracting
logo
logical
logistical
Tennant
Treasury
wounds
Temp
Ramon
Ern
precious
investigations
1825
Democrat
maxim
constituted
Hears
Julius
##ascar
modeled
Transit
elevations
sustain
Ferb
Locke
withdrawing
illustrate
Protection
Commissioner
sensation
Finley
seeks
beneficial
momentum
councils
Soft
custody
Connectic
bankrupt
moored
virtu
Disappeared
drops
fictionalized
Ellen
Barbie
Rodrig
stretches
sponsor
imprint
##iciency
##boat
Incre
deposit
deposited
loves
Survivor
910
update
Legion
Tsub
licence
outlets
outlined
prosecut
Marshall
##nellum
synthesized
Napa
sulfur
sharks
ancestor
Cornwall
lobbied
allegiance
diversion
tightly
goddesses
DAGs
enforcement
Bloody
advisory
fantastic
teenager
Ultimate
Autom
uncertainty
commemorated
Michelle
Baldwin
dictator
diverted
battlecruiser
Females
Satake
pedest
suburban
Laura
Veerasha
enclosed
Lindsay
Andrea
devastated
Boulevard
Bronze
zombie
comfortable
pronounced
Bosnia
physician
exceeding
accelerated
Covenant
Culture
Viking
Kicking
stallion
plagued
praet
Mycena
Gabriel
Grossman
olive
oxidation
stealing
convenient
Montenegro
Prair
Tunnel
enacted
abstract
granite
philosophical
Gryllotal
PDR
Wilfrid
Hydnellum
hairstyle
Towards
bacteria
hazard
Chancellor
unveiled
agaric
Phoenician
jurisdiction
flattened
IUCN
Numbers
Scholars
overlooked
Auckland
Czech
Likewise
Vertigo
tobacco
Ottomans
Basketball
Breeders
unnecessary
Ricciardo
Seymour
Bileća
Fassl
Grecian
Trescothick
Venezuel
Wintory
Beethoven
Thatgamecompany
Connecticut
Amede
Bever
Crow
Cinc
Caen
Dre
Denn
Dhang
Dictionary
Eff
Esc
Fing
Fun
Fab
Fork
Gle
Giant
Glee
Hits
Heller
Hinge
Ic
Iss
Kin
Len
Lano
Lulu
Lerner
Ment
Mum
Nas
Num
Pike
Pau
Piano
Piper
Rus
Rab
Rous
Sons
Syn
Sipp
Tull
Tina
Too
UP
Uday
Vocal
Vernon
Wes
Wake
Wins
Wern
Wica
Xu
XI
Zomb
aims
bou
bot
bells
bugs
curric
erod
fret
fitting
gle
gases
hur
hab
hilar
ironic
jih
luc
laps
locked
maid
muzz
nost
nights
nude
natives
pes
pav
peas
pamp
porn
pays
pagoda
surn
sovereign
tin
tired
tabl
vit
vap
##rub
##doms
##iago
##mire
##cu
##hot
##hill
##hall
##hink
##oqu
##lake
##uity
##nam
##kind
##yards
##vor
##vas
##vana
##pah
##fu
##wer
##zing
##SS
##19
##ém
##BI
##Wer
##hett
theft
##inas
##onance
##atri
##orrow
##enque
inappropri
##icuous
##icherry
##omed
##omore
##omics
##elong
##urated
##eters
##rock
##leased
forested
##idg
##idity
stake
##imm
##imp
beque
befri
##thane
##usz
alert
##ulance
##chair
##oshi
##agh
##estial
##apet
##apul
##akh
seap
seeds
chip
chron
chambers
##ppe
plague
##artet
shocked
##oval
##ovsky
splin
##astrous
notor
traced
##ptide
Chas
Chay
intric
##raught
##urethane
hered
##oker
##okrat
cluster
adoles
##assment
relat
Hey
##onde
##rying
Thom
sciences
scandal
Alt
Altern
compuls
##enders
##ucts
disastrous
desp
desires
deserted
despat
outages
preference
betr
María
canopy
##obl
##arez
Complex
lateral
##orne
regulate
assignment
substituted
accidents
larvae
##phs
define
grants
##cedented
##hesis
revision
Shop
##resist
noct
##aji
presum
presumed
Scar
episc
backup
backdrop
##erness
1500
develops
smart
##ramer
##ahar
extrav
airspace
maybe
criteria
creates
discipl
operative
generating
warriors
successes
##ashing
##ervisa
Spect
Trin
Playing
entrenched
collector
Prism
deton
reduces
Graves
servants
differed
Andh
possessing
visions
triangle
waterway
furs
Europeans
Musical
convinc
conventions
halt
Phineas
Orn
Bros
viewer
##ungle
##akening
Weber
solving
Amateur
Perhaps
findings
Canadians
##ynes
Afghan
Poles
professors
##alypt
Counties
26th
##lett
28th
patient
Reub
Reign
Suff
##aunch
##afe
##ieces
presenting
factions
fathers
Richards
Palenque
Reclamation
Crusade
swift
pitchers
Olaf
Highlands
##etto
Swan
Grande
letting
fifteenth
farmer
recognise
devil
358
steals
burst
1887
missile
1864
employing
Capilla
Moham
regardless
treatments
dissolved
1873
footballer
tribal
purple
intensification
ideology
hardcover
professionally
Agust
exceptions
exceptional
Variety
travelers
calendar
1844
Resc
celestial
immature
imminent
Terror
##iosity
Strat
Strange
Students
FISA
examine
screenwrit
##gnine
concluding
unders
celebrating
Otto
objections
Surrey
counterparts
dramatically
Krishna
analyses
emerge
kinderg
unsure
lifes
photos
Robot
portrays
experiencing
payment
Roseberys
picking
Secondary
textile
architects
taxa
##ishers
Alexand
magnet
Radical
corners
questioning
narration
displaying
crowded
Breese
Burnley
incorporate
grassland
Andrews
candidacy
voters
ranged
folklore
doubts
homeless
##udders
hunter
hunted
Penelope
Stein
sandstone
benefits
Opéra
doctors
heroic
customer
comprise
Lester
##addy
Luke
Writers
Rogers
columnist
parallels
Elliott
migrate
##rophic
arcade
faithful
fleets
Motion
racist
##BSA
researched
##OCA
sleev
Borgnine
1759
subtle
Windows
Qedarite
galer
explosions
Stevenson
harmony
Rooms
colleges
outlaw
bonds
disappearance
accurately
carbonaria
scholarly
##utta
##uttle
decorative
citizen
shifts
shifting
lobster
implied
Passion
owl
Joyce
answers
obligation
Pictish
##changes
enforced
divorced
delivering
bordering
ingred
Santiago
funerary
rejection
dwarfs
garage
Lambton
coincided
quantity
nomine
abolition
enthusiastic
Laurence
supplemented
##feit
facilitate
devastating
Ibrah
compensate
interceptions
tutor
Hitler
Protein
forgotten
##ocyst
Lesser
guarantee
André
Kleine
Investigations
legitimate
sophomore
Standard
moisture
Eleph
Hemisphere
Ukrain
Ukraine
mitochond
Heinrich
summarized
Nf3
Sicily
##ière
counterattack
pioneering
inexper
switching
reconstructed
Pearl
Trafford
Cruiserweight
##apteriscus
superstructure
Approximately
prolonged
monastery
melodram
Sclerodermat
Sylvia
nonsense
##ifferent
GameSpot
unprecedented
Hewitt
Vijay
archery
unhappy
scoreless
remastered
emplacements
lambeosaur
François
Jasper
Portsmouth
##original
touched
prehistoric
superficial
##aurolophus
Glamorgan
envisioned
Broadcasting
culminating
sanctioned
McDougal
Powderfinger
guests
Individual
Prasad
praetervisa
Amedeo
Cincinnati
Sippy
##Werff
extravag
Afghanistan
AU
AV
Aret
AAA
Bg
BP
Bard
Bomb
CB
Cod
Cool
Dim
Dante
Ethi
Find
FOCA
GC
Gel
Gam
Gene
Gaming
Hass
Hence
Jazz
Kay
Kant
Kai
Kurst
LP
Lon
Ling
Landing
Lemon
Make
Male
Manning
Nx
Nos
Nich
Nike
Pent
Pars
Prec
Rank
Roch
Rena
SU
SK
Sue
Said
Sier
Seth
Tanz
Ving
View
Very
Vatic
Wł
Wanna
Wuz
Wadi
Wizards
Yah
auction
aux
bag
bests
coy
civic
dy
dw
dan
ditch
eS
fuse
gig
gear
gust
gully
gym
haw
hole
hides
hailed
hiding
je
lined
laser
lunch
mates
nem
nomen
packed
rim
ros
rag
rab
ruth
rats
sab
spp
sque
ske
tips
tables
veto
zoo
ال
##aig
##aum
##rative
##rink
##rades
##ienced
##gge
##mary
##cans
##had
##oi
##li
##len
##long
##ui
##uarius
##taker
##kok
##vous
##fold
##world
##wyn
##wright
##waters
##zan
##RI
##Cd
##CP
##28
##55
##FC
##NH
##Der
##GB
##ème
##hea
##oning
##atem
##atile
##orers
##eni
inade
inev
##alid
##itul
##isse
##isaurus
##asi
##rea
##elbach
##urved
##eting
##aders
##olent
wasps
##roqu
Thea
##irs
##lez
forem
##ido
##idium
##otation
##igouche
##owitz
stom
stressed
beast
beads
##tha
##usher
reel
alk
##ulan
##child
##aines
anx
angl
##estine
##oding
##opia
##illion
Insp
##ewrit
##eways
##oco
seal
seaw
orph
##udding
exceeded
##artments
##anthe
sple
spare
spanning
spiders
sparked
Starr
Strait
##orda
##orders
##ustrated
lend
firms
incon
##ogamer
##outing
intentions
contam
##ieg
arise
arbit
arsen
##hedon
cliffs
relate
unite
unused
unbeat
enlight
Thor
Tharp
permit
peripher
Alien
##endra
##ucer
disin
disemb
##angled
##achi
##luded
manor
overly
##actor
attitudes
##urnal
outg
outrage
##icea
evid
##epe
consoles
flocks
deceased
##uga
##atty
Coming
posed
regener
assists
subm
retaliation
peers
interm
buying
amber
revis
Shield
Shawn
dozens
epid
monks
Brent
Bram
foundations
coasts
##irdelbach
##ajuku
Scapa
Scratch
##irected
quotes
elbow
##yla
minim
receiver
poles
concolor
param
parodies
paratro
discrim
discretion
caret
Blof
downs
slot
slate
deprec
occurrence
openings
expans
##essional
##onyms
##asht
counted
##gged
modest
grouped
Clar
Clive
governors
Conrad
Spy
Spector
neon
Alliance
Coler
Eurogamer
drained
##ometer
Primet
protested
marriages
builds
gunnery
possibilities
visibility
crust
Hispan
exploring
typewrit
promises
commandos
antimon
Broward
captures
destinations
##keeper
terminal
Manheim
republic
debts
similarity
differentiation
totals
refusal
halfway
##appers
enterprise
terrestrial
poster
patrons
patriarch
criticizing
genius
gliders
structured
Regional
DeGrom
Described
barriers
declare
facial
swamp
Moroc
Toirdelbach
religions
casuarius
likened
trophy
##grass
massacre
sexy
busy
Harajuku
Iran
creatures
biographical
volley
launching
hymen
##alties
##grounds
Coach
Galentine
probability
Slav
Household
copyr
Macl
##ihan
cheek
Toro
##urti
contracting
Quite
goalsc
1875
Quebec
penalties
privacy
Feast
harder
opener
Arabian
professionals
Schools
rapper
cruel
surroundings
1845
automatic
disputed
keys
Everett
Laws
diagram
##zzi
Artists
applic
Frankf
Undertaker
dominate
testimony
Nicol
Benadir
premises
ambushed
counterpart
##yche
Teams
reachability
acquiring
dismant
reinst
boxes
judges
Twice
salts
Louise
seventeenth
texture
Boliv
##liminary
1824
Demokrat
recovering
Better
reliefs
interactive
48th
Aviv
AIF
paperback
Julie
demonstrating
Casting
Baltic
sculpted
Knight
Doug
incorporating
narrower
thirteenth
illustration
VanDer
raiding
##iji
Huizong
fungal
sandy
Historically
doctr
Ryder
Fields
troubled
definitive
happening
resemblance
comparatively
comparisons
mistress
robot
strikes
Liberation
virtual
Cardinals
1794
bassist
globe
cooling
Jacques
tallest
tendency
Persians
Hyde
Brooklyn
fashionable
gravitational
ignore
Reala
Lowe
Principe
intentionally
Abbot
recruiting
courtship
Grammar
MLs
crystal
Tribble
accuracy
criminals
supervision
lobby
anthology
sightings
agreeing
Ancients
oblig
superiority
Bangkok
purely
satisfy
Forever
Jenna
Panama
Motherwell
merchants
##roscopic
Sleep
Recordings
trauma
vulgar
Restigouche
rejoined
allegedly
installation
mycologist
Magdalene
drafts
##ergrenadier
##aksin
Global
ceratopsian
offspring
Eyes
Sayid
##breaker
grayish
principally
##idelity
Panzergrenadier
mirr
mirror
enzyme
sketches
semifinal
Natal
depressed
Travis
Andreas
Immortal
intercepted
Kauai
Dodge
##court
Beauf
recommendations
gorilla
Harvard
Honorary
Mongolia
antiquity
unwilling
eclip
rewarded
executives
affiliated
gentleman
sophisticated
plagiar
prestigious
autonomy
enrolled
disguised
Bodø
forecast
conspiracy
wonderful
incredible
paradox
repetitive
Awakening
outdoor
Forbes
maneuver
Maple
cylind
sporadic
confronted
digitally
besieged
mammalian
Kendall
Meteorological
Ptol
pirate
discharge
annexed
Karnataka
##family
midfielder
algorithm
pocket
theologians
ankle
unemployment
Squadrons
masonry
transe
embryos
irrigation
Cameron
rehabilitation
Boreas
maat
vowel
vassal
subcont
galaxy
Nigel
postponed
vertebrae
Pengu
majors
Anglican
Foliot
RFU
invertebrates
Nailz
Vengeur
crazy
Diarmait
pistols
pneumonia
bohemica
Tempest
Veerashaiva
Prairie
Beverly
Lanois
Numerous
muzzle
Reubens
Stratford
kindergarten
galericul
Elephanta
Aretusa
Kurstin
Sierra
Wuzhu
skept
inadequ
unbeaten
Blofeld
Primetime
copyright
Demokraten
VanDerWerff
Aj
Achie
Bj
Bread
Burg
CH
Cock
Cake
Creat
Croy
Counter
Caval
Coul
Casc
Dere
Dock
Diss
Draw
Dana
EMI
Fa
Fi
F1
Fland
Farr
Fighter
FCC
Gaz
Gren
Gama
Has
Hig
Host
Hull
Hamb
Jut
Jov
Job
Jains
Kot
Kress
Lic
Liv
Lod
Lib
Lact
Lone
Lines
Lope
Lights
Loud
Liga
LSU
M1
Mold
Murch
Mau
Malt
Mills
Mental
MAC
Mullen
Nan
Nord
Nile
Ou
Ped
Pain
Pred
Piet
Paper
Range
Rash
Rights
Ritual
SA
SN
Sold
Sett
Sihan
Tatt
TBSA
Tepe
Vă
Vent
Vig
Wies
Wak
Whedon
Zh
Zinc
Zero
aqu
bred
bars
bio
cig
dole
database
faint
fused
frog
fonts
gly
gems
halls
jar
jaguar
ling
lords
labyrinth
nym
pel
paternal
rent
riv
rav
raw
rational
riders
rowing
roster
rushes
sou
sap
sits
tum
tents
upl
viz
venge
wond
##dick
##gil
##gone
##matic
##cons
##she
##sore
##sby
##lu
##lain
##lip
##ucc
##tic
##top
##tze
##tender
##nected
##yg
##yuan
##vent
##ben
##bus
##bage
##pur
##fa
##wig
##walk
##zel
##zco
##2O
##just
##38
##MP
##ète
##ška
##ễn
##erget
##inates
##inator
##ede
##atitude
##esa
##esby
##arin
##alyp
##itement
##isev
##isbury
toys
##icles
##icious
##rehend
##eles
thumb
##entric
##eches
##stand
##amine
##ados
wash
washed
##roe
##rox
##rogen
##iris
##idered
##otion
##otations
stems
stalled
sticks
stunning
stegosaur
##emas
reef
reint
reapp
aliens
##ulus
##ulatory
conced
ations
fright
fraction
fruits
##umas
##este
##odus
##opian
comrades
healing
##ista
Inform
Inocy
##abi
##abolic
##abouts
##allus
plains
##arted
##artan
shapes
##ovE
spine
sprin
Stup
prayer
##aston
##ellular
traw
traps
trusted
##ptive
leve
intensive
contacts
##ollo
##ubile
abort
reside
unim
unions
unpr
energet
Thous
Thaksin
##anson
compare
compartments
dishes
##izar
manned
##ultimate
##ikopter
outright
##overing
##ensahl
upcoming
##tex
##manuel
##ixed
##ssen
Frances
ears
##eps
flint
Marse
canyon
##obic
underm
##raltar
##eger
Comic
numer
regulated
subgen
accepts
Newmarket
defining
defenses
grapes
Anime
Sham
##ounce
Joey
Brandon
noitul
##ioch
Carlo
Carrie
##ronom
##iett
LeCh
transcend
transplant
singled
invested
##itsune
strained
Shear
Sheen
brush
smell
neared
##ancer
##ancement
airborne
##raphic
runoff
distract
##ittings
Blaine
Bluffs
financed
warming
slipped
136
expired
##ervois
efficiency
Clan
Spisev
Troms
Adolf
Plaza
imperson
impacts
array
dragon
Guest
Guerr
Guatem
Paras
detection
builder
worlds
justified
gunpowder
shortest
shortened
approve
triang
ported
crushed
breach
Phon
Orb
Broken
viewpoints
captained
localized
Barre
Barrett
midst
##inta
realm
townships
inflict
Amend
Amps
Amazon
refit
magist
Edu
Edwards
skilled
propeller
communists
speeds
221
freestyle
infections
posters
posture
patrolling
Reich
Report
pressures
ordnance
shoulders
programmes
corruption
coronation
excitement
Exp
Exchange
limiting
radial
traverse
Glorious
inserted
barrow
Recovery
electro
##verse
technically
Ens
Enix
Crime
Moresby
Hamel
likelihood
certificate
319
rankings
treasure
##ommon
stripped
mothers
associates
goaltender
agreements
buses
Harper
Syb
inspir
volunt
volcan
Antioch
Myers
Mysore
hostilities
burden
1868
Slant
qualify
Dragon
MacD
violated
violations
responsibilities
Butter
##forward
Virgil
rulers
Acre
Acapul
1871
composite
surfaced
Helikopter
penultimate
uncommon
450
quarterf
1839
cruising
Bohem
deny
denial
accordingly
diable
deadly
mentioning
Norton
observers
frequented
examining
dominance
Miles
Milan
Militia
Devon
suggestions
Osiris
environ
Solomon
lifelong
Robbie
Salmon
Salisbury
pilgrim
husbandman
divisional
Basin
safely
Bolet
pursuing
suspension
1820
516
benz
sync
irony
##uxe
##uxt
irrit
oversaw
rescues
Burnside
backgrounds
planted
plantations
1818
misunderstood
excavated
reigning
Boyz
bridgehead
Distinguished
Maxim
Lohan
attendant
##block
fixture
Steff
Stephan
mineral
##raints
conversations
rolled
trout
##nesty
timed
alteration
Friend
geological
Denis
Burton
fatig
preferring
1790
Dominion
dimin
migrants
Jainism
synthetic
Aerosm
Retaliation
racism
unfinished
Judge
slender
assassinated
##atoire
Volume
hatred
##audeville
choosing
glasses
rebuild
1766
survivor
worthy
Midway
monumental
Tsar
license
cinemat
resource
Diocese
Cruz
Initial
Balliett
absorption
besides
collectors
psychiat
Juno
ibotenic
bigger
instructor
mortars
spaceship
retreating
sampled
vacant
Tonight
grossed
proceedings
Gibraltar
integration
##ytic
Producer
Geoffrey
Divisions
commitments
Ericsson
conjoined
improvised
Batou
Romans
shopping
cytogen
Bahá
Bahamas
theoretical
comedic
trustees
earnings
flashback
sympath
exploits
Groening
sharply
supernova
NLF
prefers
commemorate
COs
ghats
pulling
Iraqi
renovated
pedal
##idelines
nomadic
forthcoming
stimulated
Vienna
depressions
neighbors
Mitchells
Tanaka
Citra
subsidies
fulfill
referend
Dharm
Owasco
Bronx
penetrate
##brook
prefectures
morphology
endorsed
Beatles
Takumi
Vermont
antiquities
Finnish
consolidated
obscure
autobi
Cultural
Klein
eccentric
staples
reagent
contradictory
Kerry
prestige
reconcile
deteriorated
Worthing
Yangtze
microscopy
Gabrielle
Propag
weighing
Legends
Experience
Continental
Nueces
Safety
forbidden
unreleased
casemates
spokesman
barrels
redesignated
A48
memoirs
dynamics
Amylostereum
dignity
Expeditionary
hemmema
Traditional
##ognselsk
Volunteer
Homarus
Corey
Mottola
Believe
punctuation
thermal
bunkers
lunar
staircase
Avalon
GPU
Hastings
destructive
supervisor
enthusiasm
Borderers
Elder
eucalyp
rookie
spherical
Methodist
Dangerously
augmented
risks
prophète
courtyard
configuration
Nguyễn
lavish
contingent
adorned
Brittany
Claude
Conservatoire
Kristiansand
Orozco
WRU
Wiedensahl
ectomyc
##iobook
elongated
Byzantine
Software
Iceland
Werneth
gleba
jihad
vapor
inappropriate
##resistible
Rescue
Sclerodermatineae
Kantara
stomach
caretaker
subcontinent
Achievement
Croydon
Cascade
Derek
Jutland
Lopez
Sihanouk
noitulovE
LeChuck
Spisevognselsk
Tromsø
Acapulco
environments
Aerosmith
eucalypts
AM
Aaron
Bac
Bog
Boad
Ci
Cay
Cand
Could
Cres
Craw
Cyn
Cushing
Cunning
Carson
Dat
Dell
Element
Eighth
Elements
Fford
Fanning
Fighting
Gat
Gra
Gaul
Gospel
Giger
Gamer
Hilda
ID
Kw
Khe
Kav
Kart
Kree
Kids
Lif
Log
Lans
MS
Mine
Nab
Nant
NSB
Ogh
Outer
Oahu
Ply
Pond
Puck
Poven
Payne
Ratt
Rao
SM
Sou
Sister
Sabor
Soph
Sisters
Seph
Tac
Tate
Tade
Tank
Tale
Term
Taking
Tourn
Tuf
Toso
Tampa
Vl
Vision
Viol
Vasco
Wel
Wyn
Zion
Zack
bench
cir
cass
caut
cros
counts
croc
councill
dre
dive
dip
dangers
gill
greet
griev
hire
homet
iod
jungle
lip
lub
lamp
lady
lieutenant
lighthouse
mas
mour
moth
pall
pores
punk
rust
rope
risen
till
tann
vibr
wise
##rential
##ratory
##dong
##deen
##mind
##eing
##eeling
##cts
##cott
##hard
##hope
##oque
##lace
##uj
##yi
##van
##varez
##pin
##pine
##punct
##folk
##function
##HE
##ST
##Sb
##FI
##ér
##DA
##qq
##GS
##erdale
##iners
##oro
##orpor
inability
incend
##alg
##alu
##aler
##itans
##itative
##isan
##isure
toil
##repr
##omfort
##elic
##elage
thief
##amis
##eta
##acomo
##rob
##irk
forwards
##terial
##igators
stup
stops
behead
##through
##verage
fraud
##agar
##agree
anatom
##herent
##avier
##estones
##opot
##opers
##opus
##essible
##riuc
##aparte
sued
succ
depr
Inver
##ewater
##ocate
chin
champ
chords
exchanged
##ghai
plating
plaque
##seen
##antically
spru
Stri
##ellery
##ipoli
##rities
Chin
Chall
incap
##ieu
##iev
arches
herald
##okho
abbot
resupp
reliable
unac
unified
unchanged
Heid
Heath
Thir
scratch
compose
compartment
disgr
disruption
disqual
disagree
allied
##izhou
##anges
aground
attaining
evangel
intox
##weig
Unic
##athlon
kneeling
##ausible
flaws
newborn
##eldom
charm
undergoing
undergone
asserts
whereby
induced
indication
##ologic
Newton
speck
specified
##ankar
interference
grab
grades
##anni
revisions
##ificent
Shang
Shao
Scribe
Carly
##ronym
capabilities
wells
quote
goalk
transports
backward
ellip
eminent
1100
concessions
bride
smugg
##flies
continuation
extract
extras
airst
airplay
Whig
Whilst
##spe
beloved
instinct
downed
preview
prevailed
landown
matched
depot
expelled
expenses
Augustine
##erving
modelled
governance
Spot
Trunk
variants
Plain
imposing
draining
drives
Guards
collided
statehood
restruct
lineup
##axill
marching
Novel
251
##aeus
Flotilla
##hampton
##lington
elegans
triangular
Proto
Beaut
waterfall
humour
explores
periodic
bestowed
engr
##affected
antis
marker
delivers
##incher
captive
Barra
terminated
additionally
##shine
##intus
solitary
Charter
takeoff
Elvis
210
Willie
refres
propose
propelled
propriet
##rawl
##encer
##ursor
eastwards
Portage
confusing
Poly
##vesen
popularised
obsession
##works
Suf
feminist
matching
soccer
catches
catching
Exit
limb
admission
Glou
Glenn
variously
Calc
lightly
insight
insign
##fields
nightcl
electoral
valued
rocket
peaks
sexpunct
audiobook
Monster
Sergeant
Presbyter
averages
improper
clearance
veil
steamed
burrow
hym
fundra
Immedi
Jewels
##selaig
Slash
Drake
merit
mercy
pastoral
Button
constructing
Acts
treatise
composing
36th
donors
##ectoral
hitter
embodied
reactors
##quartered
1846
Notable
auto
foods
Malay
Malone
personalities
Northeast
Jerzy
urging
Tomorrow
Mercer
examines
Woodstock
Ottawa
Hawks
Milton
Sovets
earthstar
premise
Beck
girlfriend
Scotia
Deputy
torrential
Going
Bobc
Treb
Trevor
420
abandonment
seventy
Queenstown
amounted
440
Petit
1829
1823
##roly
constitute
essays
filling
Younger
verbal
Jules
narrated
interned
rhymes
rhythms
royalty
snakes
demonstrations
alternating
Larssen
shelling
typeset
Groups
melodies
plantation
1817
Match
assaulted
assaulting
Communications
containers
adjusted
Bhai
Bonaparte
minds
minded
chiefly
converting
Levi
##blad
Armoured
fragile
Gallipoli
polygam
polythe
microl
microsc
doctoral
spectral
visuals
definite
Hartley
##addon
flowing
elimination
eliminating
Collabor
bowled
calculators
isolation
academics
Giacomo
jacket
Dreams
doorway
Released
Astonishing
Timor
segreg
choices
3DS
assemble
explosives
fairy
deposition
cardinals
##yclone
highlighting
valleys
pupil
vicious
Stefan
Construct
halluc
##opposed
1224
aggressively
Tribbles
vegetarian
scrapping
Mozambican
Ashley
Biography
bleeding
municipalities
consumer
ancestral
Selen
proportions
ornament
chronicle
serialized
Everything
ecological
thinly
##utzpah
shutout
Hunters
obstruct
Laborintus
Snelling
Snapper
Romantic
VIII
substrate
congregations
reproductive
checked
tissues
##tième
rendering
Petersburg
errone
erratic
Confederacy
Restaur
rejoin
Stalin
Talent
deliberate
Kitana
Renault
asteroids
Webster
nursing
carriag
prospects
disagreement
overturn
surgeon
renovation
chestnut
fascist
exempt
exported
Magnolia
Dubai
jewellery
sewer
feudal
advertisement
pioneer
outfits
Ruwan
Berkeley
Circuit
recommendation
nineteen
Shipbuilding
springs
ppg
pronunciation
residues
Heavyweight
homosexuality
odds
Bosnian
Mongols
retrospective
Highlanders
physicist
aerodrome
BMW
climbing
stereotyp
Polehink
crests
crescent
Guildford
corporate
Chandler
monitored
caes
mortality
Political
octagonal
terraces
conspirators
Axis
Nf6
Sitriuc
Tatanka
Occup
distortions
provisional
Forbidden
marginal
Johannes
nasals
thoroughly
mistakenly
Amylostereaceae
Source
ANZACs
unreliable
Alpha
outflank
Hospitallers
butterfly
Abrams
prosperity
Horizon
##quiry
Lauderdale
VHS
furniture
coniferous
upgrade
Mercury
ridiculous
Arbeideren
covenant
drifting
outposts
Shanghai
meteorological
ironclad
Karamokho
Chennselaig
Hilo
RPG
vinyl
revelation
Isaac
Kalyanas
Wolverhampton
Alamos
##fluor
millimeters
artifacts
phylogenetic
ambiguous
Lyrically
Unfortunately
Conversely
ordinance
jewelry
Hubbardton
Nirvana
Raphael
Uttar
counsel
paranormal
storytelling
Edgeworth
Environmental
Aberdeen
Rivière
whiskey
sprites
Beetons
confiscated
Automobile
pesos
bequeathed
intricate
ingredients
inexperienced
Rochdale
Tanzania
Vingtième
Vatican
ruthless
arsenic
intermitt
inadequate
Lactarius
Văn
Inocybe
##ubilee
energetic
Sybil
fatigue
referendum
Boadicea
Kreeft
Plymouth
Povenmire
Tadeusz
hometown
lubric
mourning
resupply
sexpunctatus
Immediately
Polehinke
Bant
Bian
Bung
Beller
Cash
Caught
Cotton
Census
Dual
Digg
DNL
Dooley
Eat
EASA
FM
Fellow
Fél
Gonna
Gaza
Hale
Hert
Jet
Jump
Kl
Kas
Kow
Kies
Kath
Kilm
Kung
Kramer
Lem
Lie
Lomb
Langu
Lucky
Ms
MT
Mw
MM
Mü
Mek
Ng
Nc
Ny
NR
Nest
Nak
Name
Nost
Nub
Nurs
Og
Oz
Pow
Pod
Pun
Pong
Piz
Pied
Pett
Pigg
Points
Payette
Rice
Rise
Rama
Sed
Sah
Sales
Salt
Saga
Taj
Trap
Teng
Turt
Um
Ved
Vor
Vest
Vab
Verne
Wit
Wend
Witches
Ya
Yat
Ying
Yuk
Zen
Zyg
ais
aven
ber
boring
bucket
bidding
cis
cage
cents
cute
cogn
cites
fool
faun
fuck
fumble
gag
grou
garr
gait
hay
hect
hug
juxt
kel
lign
lens
lone
lots
lovers
lux
locks
libr
mural
nan
neb
pour
pond
penc
pumping
panthe
rolling
riot
ramps
rugged
sage
sax
sights
socks
seldom
tear
wakes
wrought
wishing
wagon
##rr
##rn
##ride
##rera
##gement
##mett
##eut
##cano
##croft
##oing
##oise
##lund
##litz
##lining
##uer
##tes
##tage
##Paul
##kward
##kick
##kaz
##yster
##vacharya
##bey
##bling
##bodies
##pro
##film
##foss
##fleet
##frey
##with
##wetter
##ān
##āv
##50
##16
##DTV
##GO
##ID
##ño
theological
##erun
##erman
##edict
##edience
##nders
##atars
##orously
##arine
##aned
inund
##alation
##isely
topping
##icant
##elia
##eliness
##ilated
##ilib
##stead
##amation
##etically
##adors
##olus
##oline
##robe
##leaf
##lewine
##ivating
##idt
##idays
##otive
asym
stow
stun
stib
##emus
##emary
##emani
##emaker
##imir
##utors
beaver
##thood
rewrit
conical
##andi
##oser
atom
##agles
##estown
##uns
hex
heights
##istence
##illan
##illusion
Institution
##onga
##akut
##allathus
ores
chasing
##udy
plenty
shar
##acking
##ovo
##ovanni
##ourse
spy
spike
spines
sparse
Stam
Stoke
##ellations
Chul
Chick
Chuck
Chasing
Chutzpah
leisure
##ogg
##sover
clan
clade
clips
##perors
abbre
##rup
unofficial
unopposed
percept
##ounding
scutt
Alleg
Alaska
Alicia
disillusion
allot
##izard
desk
##pras
attested
preliminary
uphold
##ointed
##tees
Uncle
##olding
Fringe
feeds
knot
##epec
##ublished
flock
##onsc
Marqu
Marina
Marvin
charming
##egie
##orns
regain
regret
assaults
indec
indul
indemn
basically
defines
grun
amended
Anup
Shand
Should
Shannon
##ounge
suppressed
Joanna
monkey
blast
cohes
surreal
##eke
locate
##aires
presidency
##resses
##ressive
1600
capability
León
transitive
backst
invas
invites
invalid
emperors
strum
stranded
stranger
concurrently
brack
##elfare
##azor
##azar
obey
objected
millennium
complaining
##llister
##ypes
##ypse
##auhor
discred
caric
downward
prevents
provoke
generic
generators
##ructural
slots
##pora
designations
132
Forge
famine
expose
exposing
Warriors
##ceptable
modifications
Train
Colton
##rency
141
##atsu
drill
southward
Southwest
resting
detachment
redeveloped
marine
maritime
##cliff
justify
gunfire
shortages
visor
Proper
crush
crusade
Beij
organizers
listened
##gett
sentiments
##affo
markers
legally
Manit
debates
winters
Weird
soluble
differentiated
differentiate
Charity
Willis
Percy
Edwin
Edmont
communicate
westbound
##enches
speeches
##ebrugge
Westm
285
influx
equilib
Simultane
combines
establishes
readings
cultivated
270
excommun
admiration
funnel
Desert
Palin
lightning
insane
barb
ballot
nightfall
declares
settling
Crass
prizes
summers
prediction
##etti
Swift
figur
rockets
310
treas
encycl
connector
290
29th
##ommel
campaigning
identifying
402
cello
Monuments
mounting
Sergio
Present
specialised
Flora
devout
roundabout
biographies
currents
selective
selections
##stitutes
hyg
Image
probes
qualification
Heroes
fortunes
MacFar
practically
engineered
Holmes
Holiday
Moh
##meny
learnt
Valentine
painters
Caroline
Superior
specifications
Helena
uncovered
368
Mosque
Need
Agnes
transferring
Cardell
wooded
woodlands
1835
breakfast
reacted
chapels
##unker
denying
1841
apse
##ophon
##ophagus
Notts
occupying
Malaya
literal
Associated
##eteer
semic
urn
birthplace
Sampras
Lao
staffed
Below
Patric
undef
undeveloped
colonel
progressing
celebrities
controllers
##weller
Martel
premier
premature
commissioners
attractions
acquaint
Delia
bombed
dismay
suscept
broadcasting
Sala
Twitter
90th
Norfolk
curves
Garrett
translate
Basil
Erlewine
448
Bollywood
badge
kicking
cancel
winged
Greenwich
##umbering
synonyms
awa
awkward
intersecting
Middleton
nationwide
thrust
##ographically
Wilder
snap
oversee
##iroth
hearted
1816
Rosey
Rosemary
murderer
Civilian
sacram
adjoining
460
waited
##writers
640
wintering
mastery
Built
appealing
dismissal
Finance
roost
polyurethane
Historian
microph
##iotic
favourable
problematic
devote
devotional
distribute
distributor
imagine
campuses
geometry
resembled
criticisms
Astronom
Apollo
Nazis
1795
NHA
dimensions
diminished
prints
migrated
Coastal
72nd
Creed
Cuban
Rodman
Roddick
##ezvous
##rolled
Ronnie
Romeo
beachhead
1648
Critic
Motown
Springs
plums
guardian
chapterhouse
Giovanni
sponsors
researcher
Marcell
descendant
Franciscan
ignor
astronaut
astronomer
galleys
Patty
Patton
1127
Honolulu
Mahar
1761
Katie
Soundtrack
congress
##anthan
disturbing
Savoy
monarchy
Lyd
colleague
ferry
nobility
Camel
##agua
Cabinet
##enzie
##ocalypse
batters
pageant
conscientious
0600
bayon
pollution
acknowledge
catchy
catchment
Saqq
censorship
perspectives
sighted
Hunting
Rainfall
Tiger
Concern
densely
simultaneous
skulls
transitioned
bedroom
congregational
Vulcans
iconography
sadness
parasite
tyres
fertility
wetlands
conspicuous
Ludwig
rendezvous
revenues
Autumn
succeeds
lambs
##breaking
chromosomes
promptly
Publishers
Whereas
masked
maskray
appreciate
Privy
Citiz
Fleming
clerk
excluding
Circus
anchor
automatically
Twenty20
hindered
torture
Gracehope
Dalmeny
Future
endorsement
insurgency
Jessica
Carnival
Carnegie
guaranteed
Zeebrugge
eclips
grip
clarified
amidst
legitim
contradictions
Griffin
Jarvis
Mondlane
##rovite
autonomous
Bourbon
vaulted
companions
disguise
Sterling
##houses
suppression
sacrifices
Uyghur
buttons
resurrect
Scouting
guerrillas
terrace
##adysław
exhaustion
Bryant
incredibly
confirmation
unexpectedly
herbiv
annoying
margins
Economic
Kanata
Rookie
Trouble
Taiyuan
##opolitan
spearhead
maneuvers
Clayton
Cannes
recaptured
cladogram
outflow
contraception
drowned
Diamonds
Hospitaller
Obama
ovation
fruiting
chaos
Regarding
megalithic
Kodokan
gifts
inaccur
flawed
accordance
steamboat
Culver
Kemal
fresco
compatible
prognosis
illuminated
incorrectly
##anjing
spoiled
unanimously
syllables
exemplified
Buchan
Vickers
grazing
depleted
spontaneous
Guangdong
Prussian
Klingons
exaggerated
Champlain
posthumously
Examples
Madhvacharya
ineffective
Dilke
telecommun
pursuers
Megaliths
Kinney
Gracie
McAllister
inheritance
Flemish
libretto
faç
mosaic
truncated
Barracks
calibre
virtuoso
Tsubame
prosecutor
Venezuela
Mentmore
Mumia
curriculum
surname
notoriously
hereditary
compulsory
presumably
Agustín
Ibrahim
Ukrainian
Renaissance
Władysław
foremost
Hispanic
doctrines
cylindrical
Ptolemy
transept
galericulata
Flanders
Hostile
Hamburg
reintrod
Informer
unpredict
##izarre
Marseille
Guerrero
Guatemala
MacDonald
Crescent
Cunningham
Ffordd
Sephiroth
Tufaro
crossover
incendiary
Inverness
unacceptable
restructuring
hymns
Trebinje
microscope
Kalyanasund
Félix
Kieswetter
Nostrovite
Piggott
Vaballathus
juxtap
abbrev
Beijing
MacFarlane
Saqqara
60s
70s
90s
Ather
Aki
ACE
Bub
Bury
Beng
Burt
Bishops
Banner
Cil
Came
Code
Caster
Cinqu
Cumm
Dand
Dame
Dors
Dund
Dirt
Dipl
Eth
Eisen
Fult
Farn
Firth
Fashion
Fiji
Gust
Gates
Gany
Gys
Gentle
Het
Hir
Hut
Hour
Hight
Hann
Homs
Hudders
Io
Ign
Jian
Jell
Jake
Java
Kỳ
Ked
Kud
Kass
Kens
Kash
Kedar
Kajal
Krypton
Koval
Kitsune
LA
Lé
Lil
Lac
Look
Lars
Layne
Logan
Mi
M4
Moin
Mered
Mouse
Mech
Mask
Mudd
Miy
NT
Nin
Nem
None
Nico
NAT
NWA
Oss
Pos
Pill
Pack
Pia
Panch
PFA
Pasha
Qx
RN
Ref
Ramb
ROM
Riker
Sig
Save
Sire
Stern
Spen
Saff
Sidd
Sites
Sosa
Saints
Tas
Tet
Tab
Tog
Tact
Take
Takes
Tata
Tiber
Trot
T30
Tjo
UH
UF
Vin
Vai
Vidy
WS
Wad
Wear
Word
Would
Wick
Wilm
Winc
Yuc
Zimb
Zoe
Zweig
az
aston
aesthetic
bun
bure
bru
bald
bounc
cob
caf
cults
citation
dances
dots
e5
esp
eternal
fog
file
foli
gel
gut
gast
gra
gend
hated
haven
hinted
ions
jets
jersey
les
lent
lust
leth
luck
lining
lanthan
mes
mang
mice
mash
moor
nect
niche
ot
oars
pard
pore
pub
pests
puff
poured
pectoral
rip
rented
ridd
sar
tens
trop
trem
tertiary
uter
viv
vain
vib
viable
worms
welfare
##rag
##rary
##ragon
##roleum
##daur
##iw
##iative
##gau
##gae
##guez
##grove
##mm
##mph
##moon
##moor
##ea
##eosaurus
##cad
##hlet
##ofield
##ozo
##lah
##uke
##tor
##niest
##PC
##Pro
##yat
##yan
##vention
##bul
##pend
##pani
##pić
##wll
##HL
##zew
##SC
##91
##jm
##12
##BD
##Ds
##DT
##īra
##hero
##inac
##edia
##atial
##atán
##orum
##orge
##arial
##areth
##aragua
##enhagen
inact
##alers
##alore
##algam
##itr
##itol
##itory
##icle
##ombe
##eli
##entiful
##eco
##sted
##stad
##amia
##urable
##etes
##eterm
##adu
##oler
##olith
##olera
##olatum
forel
forts
foresh
##idian
##terranean
##otus
##igma
##igatum
ashes
stub
stole
straw
static
stee
stipe
##ayas
##imo
##imated
##utory
##throp
##ersion
##usir
wholly
reiss
reunion
##ulent
##uline
##cha
##agl
##agascar
##umer
##estre
##opoly
prow
##abe
##abwe
##allah
##ichi
##ocence
##ocarp
chant
chased
plausible
plentiful
areolatum
shor
shattered
shadow
##anton
spous
sphere
##ianus
Stol
Stela
pride
prone
Chong
Chak
recall
##ogie
##ogene
##oguan
intending
contention
##ieff
arched
##urel
herding
##ubation
cliff
##ffen
##ffman
##idea
##atern
##ateral
##assi
##assic
##assion
relying
relocation
unhe
unlock
Heat
Heine
Hebr
##oughts
Thurs
scout
screw
scrut
Alec
Alvarez
compelled
##endium
disass
dislike
##izable
##ricks
##ibu
##ibars
overc
overpass
##ulture
attachment
outc
##oyne
commended
##mania
weaker
##ribes
##ribing
centred
Unas
##evigatum
##athing
secrets
remembers
Archie
Arrom
Arctic
consume
decomp
##atti
##iewicz
Compared
endured
endurance
assumes
suborder
acronym
index
peat
speculates
##enery
interrog
interface
somehow
basins
defens
Ancon
Anekāntavāda
Shab
Shore
Shane
meals
syph
monolog
monastic
blows
Bring
coil
prescribed
Scenic
Scrant
##ietta
contrasts
transf
backs
singular
emitted
##ernacle
mined
minig
##ermo
polished
##tones
showc
##vez
concurrent
brig
##aziland
##flix
continually
complications
Whatever
Indo
Indoor
##spur
belly
##raper
discus
##ullo
instability
Block
prevention
operatic
respects
finishes
warts
warns
slabs
slaughter
13b
constraints
occult
Augustan
modification
headwaters
Clown
supportive
neo
Trigger
Trudy
Ador
Commanding
guess
guidelines
Column
entrepr
drag
helm
Prayer
Prpić
rested
lineage
lineback
prototypes
redoub
classify
builders
Grims
olds
305
Pros
portal
portable
crab
tops
Bee
Beaver
Geological
careful
explorers
listener
##avya
deleted
deluxe
viewpoint
localization
Barron
Baroque
destined
fewest
midway
midday
Abusir
##shires
Frenchmen
Weiss
archaic
Election
Amster
refuse
confessed
Afanas
Polka
Countess
262
##pressed
freight
freighter
Assault
patches
Refl
Reese
affirm
Success
##iscuous
cultivation
Evan
gluc
glider
##aunt
grounded
socially
catal
catast
Exodus
facto
cyber
Deacon
DePaul
admit
Desc
insurance
barge
barges
primaries
Recent
##icoe
Croix
settings
Enri
Roadblock
pitches
summary
discovering
Swaziland
##grat
certification
Meh
MeV
borne
##umbling
broadside
Monc
##iolet
Harih
Syrian
separates
Berman
Madagascar
creators
Reds
motives
Myth
steering
##riptive
Revival
informs
floodplain
honored
Coaches
Jewell
kingdoms
sequels
costly
employs
crewmen
Emil
Moe
freeze
freezing
conductor
planners
##borg
Quest
Valentin
treating
treaties
##onstruction
dissent
dissenting
dissatisf
persecution
##urban
nominate
Supermar
penal
unconsc
Mosc
Neither
Neosc
donation
Feeling
Congreg
Goldberg
embed
Scientific
Boeing
towed
Resolution
Angelo
Peterborough
diocese
Terri
##autla
Starb
journals
##urga
##urgical
urgent
uranium
silence
Woody
undirected
testimon
Nicaragua
Soval
understory
ambitions
ambush
Devil
Bradley
32nd
consideration
loops
thicker
boxer
torso
470
domest
Victory
##ratina
battered
Norbert
##itchf
Gareth
Poeh
Innocent
Basel
Cheese
Archit
Illustrated
precisely
1828
1826
Sirius
angles
Colonial
casualty
interacted
Consc
verb
synonymous
modeling
dupl
soundtracks
boarding
Catal
muscular
1813
1811
northeastward
combatants
erad
misle
forestry
1808
plea
Rosen
Matag
Matilda
Communists
bottle
splits
splash
splicing
holy
nestlings
horsemen
container
Directors
neutrons
federation
waist
Protoceratops
yourself
Lois
emphasised
productive
homage
depths
FAB
Venice
attendees
Palestro
Jurassic
Idyll
lauded
laevigatum
spectacular
customs
straightforward
Kiryat
timeline
Hartford
Daniels
Jefferson
accompaniment
##sworth
concealed
##hmin
USACE
Disston
Nazareth
Cauc
reformed
impressions
Moreover
##rinos
Rodrí
##uliar
calculations
flags
Marlene
Hanover
freshman
freshmen
1643
1646
Providence
Motoko
Shaoguan
Bernstein
Babyface
stretching
1776
77th
Bonds
Dreamers
##jeev
Boris
Relief
Religious
palm
gravel
empires
assemblies
Mahāv
Prefect
690
Muldaur
bulb
Yeah
cardiac
loving
##anthrop
##rella
hearts
motorists
Copper
Copenhagen
Farley
Midlands
Plunkett
Seventeenth
exceptionally
Domestic
Netflix
nobody
galleries
##rified
##raphs
Naples
talents
municipality
martyr
trailing
consuming
detailing
Pulse
supervising
Casa
polls
proportional
1625
Bassline
balanced
implications
transcribed
convinces
Gibbons
##worthy
Manders
Semin
answered
consulted
willingness
Narvesen
Rainbow
1616
Concert
liberation
##iyah
##changing
1660
biographers
diplomat
obstacle
packaged
1234
orientation
phrases
##ECT
marrying
Buddh
Buddha
remembering
1650
Bahrain
Nobody
wrestled
Hayes
Restoration
comedies
poisonous
Hansen
exploit
exploited
Kamal
René
succeeding
##osynt
uniforms
carriers
Michelin
intellectuals
prospective
renovations
Against
McDonald
Farmington
Knowles
inferred
magician
aggregator
Ivor
bomber
##raviolet
scarce
Nagar
afric
sociology
Extinction
Kauf
Kauffman
accumulate
Berkshire
phenomena
Dodgers
laughing
reopen
##ontinental
Ravana
gorillas
simplicity
McMaster
excellence
Callisto
peculiar
Futa
boots
##édé
conveyed
denominations
salvation
Ordnance
intrud
abdomen
consolidation
executing
continuity
Colombian
Psych
reconciliation
reminds
vigorously
enrollment
Coward
##iphany
Leader
Continuing
petitioned
Pandu
Randolph
repetition
emotionally
Bachchan
Rutgers
Voices
gamma
counterattacks
anthropomorph
Pilot
cockpit
assumption
switched
Oklah
Roundabout
cylinder
##aucr
##occup
Statistics
wheelchair
myeloid
confronts
Schmoke
recapture
Templar
philosophers
hemmemas
Hernan
Nameless
##moil
Animals
abnormalities
Rhymes
gifted
lungs
inaccessible
ecosystems
Coty
Iberian
Iberia
Pendragon
reworked
reluctant
Analysis
Babylonian
Candidature
Gemma
Kaboom
Municipality
Worcestershire
inclined
Krasinski
Cossacks
whitish
consecrated
Bendis
Qinzong
flexible
porch
Agricultural
Vincent
hastily
Anatolia
kilograms
Legislature
dreadnoughts
Dupri
Horses
Measure
rerouted
état
intimid
Granada
Andersons
Dareus
Grosmont
Rufus
triggered
subplot
elegant
Antarctic
bankruptcy
Rodriguez
Gryllotalpa
Zombie
eroded
hilarious
pamphlet
Chasuble
episcopal
convincing
sleeves
mitochondrial
GCSE
Parsons
ragale
sabot
contaminated
disembark
paratroopers
Morocco
hymenium
Frankfurt
dismantled
Penguins
Gazette
MACV
cigar
conceded
pilgrimage
Propaganda
Spisevognselskapet
Oghratina
Tournament
tannery
goalkeeper
Collaboration
carriageway
Bungie
aisles
cistern
fauna
indemnity
Manitoba
equilibrium
Crassweller
susceptible
Kalyanasundara
Casterman
Cinquemani
Cummings
Fulton
Ganymede
Gyswll
Huddersfield
Jellicoe
Moines
Meredith
NATO
Piazzi
Spencer
Saffir
UHF
Zimbabwe
bureaucr
foliage
nectar
Arromanches
Ancona
Scranton
entreprene
Grimsby
Amsterdam
Afanasieff
Neoscapteriscus
Poehler
Idyllwild
Rodríguez
Mahāvīra
Oklahoma
Gyswllt
AQ
Avery
Bak
Bree
Body
Balk
Brew
Bisc
Birth
Banning
Béd
BSU
Cly
Cut
Cher
Cage
Care
Cald
Cyclone
Dion
Dol
Dul
Dix
Dillon
Equ
Esp
Fate
Frey
Fanny
Fincher
Gur
Gir
Gud
Gast
Gins
Hands
Huff
Hitch
Hym
HMC
Ich
Ips
Ick
IRA
Iroqu
Jing
Jig
Jorge
Kest
Kill
Krit
Kurd
Lip
Lia
Lens
Lanka
Mt
Mf
Mig
Mast
Mang
Made
Mane
Mansion
Mét
Mecca
Ned
Nass
Neal
O2
OK
Osh
Pis
Porn
Pale
Pfl
PML
Pipe
Paste
Rb
Rac
Rot
Rim
Rip
Rover
Ried
Rever
Rule
Raven
Sz
Ses
Spl
Sogns
Turing
Tah
Tyn
Tomas
Tuls
Tarant
Vall
Vish
Vale
Wily
Xion
YM
Yard
Yanjing
Zel
Zong
Zartan
akin
ba
biting
buck
britt
cere
coc
ceas
cope
cries
dorm
duck
dys
erot
fence
fake
fades
fancy
footh
faults
fumbled
fittings
gum
grief
hen
horm
hood
hench
iguan
liver
lucky
mott
maker
marsh
pip
puck
pawn
panned
pipe
pews
rp
rick
ranc
rector
rods
raft
sails
sodium
sarc
tart
tails
tipped
umb
vivid
wording
woo
zo
Île
μm
##rans
##dress
##dych
##iwell
##ei
##eption
##cope
##hong
##hange
##ska
##lé
##uil
##uably
##uaries
##tail
##thel
##tropical
##nia
##TP
##EF
##PS
##kang
##kovsky
##vir
##vig
##vings
##vann
##brough
##bane
##pes
##pers
##pius
##peck
##fr
##fo
##fried
##will
##ximate
##āry
##RPA
##SO
##25
##jas
##jud
##ján
##32
##ME
##FX
##NT
##11
##égé
##ès
##ère
##XX
##ás
therop
##eri
##inite
##inities
##edd
##onn
##nds
##ndle
##atar
##atics
##esel
##arh
##aru
##arms
##anist
##aney
##alas
##alment
##aluation
##itas
##itations
##isine
##icon
##ouw
##oufl
##omial
##elae
##elids
##ilion
##ilies
##entful
##ecom
##stars
##amus
##adin
##olon
##acious
##acters
forbs
##ivism
##idar
##idable
##iduous
##igi
##igy
##igen
##igall
stad
stew
stuck
##emorial
##emitic
##imier
##imbs
beer
beet
##thor
##ersal
##usk
##usement
whip
aligned
alumn
conformation
##andro
##anders
##osome
##osures
##ainen
fring
friction
##agements
##aghan
anom
anekānt
##avo
##avis
##odic
##oplan
##esse
##rio
##rials
##unami
hears
208
205
206
prostitute
##ifier
##ewhe
##arding
##oces
seizing
##ppen
exert
exotic
plated
plumes
shocking
##anto
spun
spars
spanned
spikes
Stre
Streets
##elles
tram
trim
truce
tricks
trenches
##isha
##ptu
Chun
reclass
recounted
leap
##ousness
incense
##pler
##plech
##ogs
##ogly
intend
intake
intends
intoler
contex
arising
arterial
##rax
##quer
clash
client
clutch
clients
abl
rests
resisted
residing
resonance
##ignant
ung
unic
unev
unreal
Heather
##oughby
##ryl
scenery
Alm
Alma
disorgan
##itioners
##eytown
##achan
agon
yearly
manning
##ibal
##ibles
overd
overg
overhead
##actions
offseason
imaging
outlet
##ensation
sheer
commod
committees
##tegr
##manent
##ternish
workshop
##evil
##evolent
##atham
thematic
remade
remission
remedy
Fresh
##icki
earnest
Arish
knocking
fluct
flux
flotilla
deciduous
##attled
Mara
Margin
Marquis
##oballus
tea
charities
undercover
underparts
##hna
Comment
##ornis
regurg
regulatory
reggae
formidable
submission
accession
grind
ampl
amalgam
0000
Ascle
Shir
Shrop
Shula
Sharma
meal
suppose
monsters
monopoly
blowing
Brest
coached
##aired
##tenham
presided
preserving
Sched
Carrington
##rowth
quartet
quotation
##ietal
Leaf
invade
invoked
strive
##yler
##ylus
minus
ministry
Sheikh
##azaki
Afterwards
##flow
millimetres
signaling
##anca
##ancies
##anched
broods
##roupe
discl
cared
Mays
Mayo
Mayer
instantly
##inks
prevailing
operators
finances
generous
landsc
slam
##porters
deposed
constrained
##ismo
##ismatic
Warning
sixteenth
headquartered
Clamp
Confl
Spin
Spart
Tran
Trim
Trach
Adel
Herod
impending
Northumbria
starboard
entries
arrange
Janelle
particle
##blem
publicized
Pré
##agedy
Parts
protr
protégé
nowhere
253
##aea
##clusive
Canon
servant
camped
approximate
trium
trioxide
crude
phones
humidity
Geffen
Byway
careg
explode
handb
handic
promo
originals
Mush
convince
oppose
engagements
medioc
democratic
Phot
Orange
delaying
Brod
Broom
replica
destiny
standout
Mana
Noel
##shi
realise
township
Characters
inflamm
Elaine
twist
Amiga
Willoughby
refin
refined
fieldfare
##itaries
232
prophet
##rawling
##encia
confeder
Polynes
Romano
Romanesque
##uctory
patent
Airways
Africans
Reuter
Reaction
affinity
equated
Simmons
combinations
Centiped
geneal
##iscovered
howitz
announce
correl
27s
divinities
introductory
Blackstone
cycles
caste
Glory
funnels
funniest
Richter
ballads
Crowe
Croats
swords
Morhange
Hammond
##grave
##grims
superb
squat
commentaries
identities
animations
Monroe
recognizes
inspire
Berio
Berdych
arguably
biased
vein
volcano
intervals
35th
motivation
launches
walled
burgh
missiles
Khmer
hymn
Montagne
fundament
widened
Medic
costing
employer
Slov
Sloan
fortification
Bayern
Emmanuel
McCay
McCoy
violet
Butler
cheer
cheaper
lymph
multip
escaping
renumbering
Sanford
muster
threaten
Help
purported
uncont
##AFTA
Halliwell
eyed
eyew
##glomer
changeup
hardware
Agassi
Goldman
woods
expresses
expressions
gradual
graduation
breakout
Appeals
memor
cruc
denoting
economically
potent
assisting
##denberry
blocking
Malcol
Schafer
immune
Strachan
Hotspur
Jeep
Jerome
Jeremia
urine
Mercy
conclude
pairing
undoub
keepers
morel
morels
morality
Marty
ambient
dramat
accessories
Osato
bounds
bounded
##restrials
nucleolus
3000
Interior
photographer
Goose
Salon
hairs
abandoning
Tourism
Poems
Cheers
Crossing
scripted
necessitated
##ridged
##ridges
precursor
Somaliland
Petra
kicker
spirits
Damietta
Sixteen
1827
1822
magnificent
Avon
institute
entrances
drumming
##achers
apparatus
Charlton
irresp
demonstrates
altitude
Annie
Largs
melting
1812
camel
camoufl
1803
Doub
49th
grasslands
65th
Weekend
encouragement
universally
Specific
neutrinos
Maxwell
folkt
repeats
functioning
Reviewing
##ija
doubles
emphasizes
533
Build
attendants
Birkin
Levy
turmoil
Armored
##rels
Banaras
romantically
alterations
requesting
Hartman
imagined
Congressman
mistakes
Doct
Athletes
1793
parallax
Dominic
Susanna
Mugh
Greens
Greco
Advis
Cheltenham
Freeman
Brienne
Roddenberry
Isabel
Hanuman
Dubliners
tender
unfair
Shaan
Shaiva
vertically
1772
1775
1770
660
Relations
##comed
fashioned
toned
shelf
necklace
Volumes
rooted
rotating
chooses
Hardcore
intentional
Kelley
Runway
recruits
vicar
resistant
Hugo
Midland
Tsung
licensing
pounders
cinematic
##intendent
Sori
pools
1219
DARPA
Fairy
gallons
##deacon
souls
blew
hydrox
optional
youthful
##CAP
brightness
consumers
Alden
float
supervised
Territorial
precedent
infrared
Cooke
nickel
sampling
serialised
proceeding
schemes
inaugurated
Clem
Semitic
hemisphere
consulting
stripes
folds
Concerto
Mirror
juj
rectory
Doremus
1553
Sidney
predominant
merchand
perceive
Bowie
Bowman
cooperate
##önig
latitude
exploitation
innovation
therapeut
1170
Puritans
Tuo
Webb
Webber
dictators
yielded
##ineyards
##ablished
Lincolnshire
hooked
noticeable
brainw
expertise
Programme
Gillian
Hopkins
Ricky
grooves
welcomed
enclosure
Supplement
Birds
Linda
Significant
neighbours
Ibari
Mesolithic
Mesopot
Taneytown
sociologist
##wanath
1150
clerical
Titus
Lebanese
cosmic
gorge
echoes
happiness
auditioned
Mantellisaurus
Bossy
Lynch
lectures
luminous
##patrick
Important
evolutionary
Crabble
Fatality
Lamar
accelerate
possesses
LucasAr
Lucasfilm
rigid
savage
wardrobe
pledge
McKay
Monday
deterioration
Heinz
129Xe
inventor
genuinely
microscopic
IRB
Insular
Constitutional
CNN
Sacred
hunger
1800s
Axel
conformity
paradigm
Tobias
Talking
##ières
skeletal
Majesty
Troubles
nasal
Henderson
Clearwater
Maids
lamented
swallowed
honeye
Schmidt
Traffic
Mutinus
Meteor
recipient
manifestations
Kettering
Namco
hadrosaurids
degenerate
taxonomic
Horizons
NPR
Negras
UCL
procedure
steamboats
judgment
inconsistent
Costa
upright
yeast
Chaos
syndrome
optimism
quadruple
Rouge
inclination
perfection
Supporting
stipulated
transmissions
Antiquaries
extraterrestrial
extraterrestrials
eukaryotic
Gruff
mimic
##pherd
##xd4
##hello
##electric
##ucleated
Middlesex
Cinema
Jamaica
bicycle
disgust
feminine
authenticity
Lofty
Bessin
IBM
Triceratops
easterly
etymology
feasible
gesture
emptied
Flagler
Cristina
derivatives
Update
fluorescence
Lexington
SPECT
Zimmerman
viaduct
##cephal
patriotic
Cromwell
Ernst
Cornwallis
Rouss
Winslow
habits
nostalg
tablets
befriended
Chaykovsky
nocturnal
disciplines
detonated
Swansea
nominee
extravagant
Ethiopia
Yahoo
splend
peripheral
regeneration
Scratchley
typewriter
Maclagen
goalscorer
reinstated
eclipse
Counterfeit
Jovian
Kressenstein
Lodge
reefs
##text
subgenus
Phonographic
volcanic
Steffy
psychiatric
Nantucket
##orporated
spruce
incapable
Heidfeld
disqualified
Calcutta
nightclub
Presbyterian
Constructors
Restaurant
overturned
Kaspar
Language
Mekong
Piedras
Zygoballus
libraries
backstory
Simultaneously
Patricia
frescoes
Kovalainen
Trotternish
Yucatán
##pendicular
forelimbs
shoreline
Stolac
Hebrides
Thursday
Adorján
Moscow
Matagorda
Copperfield
AQHA
Bédard
Ginsberg
Hitchcock
Ickes
Kesteven
Mfume
Oshii
Riedesel
Sognsvann
YMCA
##ārya
##imierz
##plechase
contexts
Asclepius
Centipede
howitzers
Malcolm
Jeremiah
undoubted
Mesopotamia
LucasArts
SPECTRE
AC
A3
Ath
Ayl
Ack
Agar
ACC
AOL
BL
Bent
Bag
Bott
Brett
BET
Bachelor
BAFTA
Cos
Cord
Cust
Coin
Caus
Cities
Cope
Cerat
Cosm
Cogan
Did
Date
Daly
Depend
Does
Drey
Durga
Ez
ESA
Fay
Few
Fok
File
Fars
Facing
Fraz
Gann
Gale
Gives
Gilda
Hes
Hers
Hath
Husband
Hersey
Ig
IF
Ione
Ibar
Jall
Jerm
Jude
Junction
Kip
Kail
Kee
Killer
König
Lay
Loc
Lund
Loss
Lacy
Langer
MC
MW
MK
Mif
Mud
Mik
Making
Mama
MGB
Nice
Nors
Nights
Niger
Nuclear
Oc
Okin
Pi
PR
Pon
Pere
Pant
Pound
Papp
Pius
Pawn
Porter
Puma
Pencer
Pitchf
QF
RC
Rated
Rour
Rising
RML
Rules
Rommel
Sg
Sain
Suc
Soy
Sury
Soci
Sully
Sask
Sinner
Tin
Tou
Tol
Towers
TLC
Vit
Vess
Vance
Visions
WB
Went
Wir
Wass
Wign
Wings
Ware
Wives
WDTV
Xia
Ys
aak
aide
ahi
bout
bree
bug
bike
bah
bored
brows
bachelor
bizarre
bricks
cite
cull
cured
coven
d6
duel
drif
draught
fus
fade
fare
fits
fidelity
gent
gru
gull
hats
joked
jumped
kin
krypton
lac
lays
lamin
lounge
mall
mouse
moss
makers
nour
niches
ore
pic
pess
pear
pix
packs
pads
pagod
ra
rally
rides
ruf
ridden
riffs
sob
sars
sinc
sorts
sago
sapt
twe
tapes
tuber
ug
vars
vector
vandal
vaudeville
vineyards
wards
wires
wiped
wrapped
zeal
Éd
##aan
##rak
##door
##gus
##gling
##mus
##mod
##eated
##cely
##continental
##cārya
##hin
##haul
##haska
##sā
##sed
##sil
##sbury
##slides
##oj
##oitation
##lash
##uition
##nas
##notes
##nagar
##TT
##TM
##PL
##yeloc
##vation
##vik
##vius
##bin
##bes
##beth
##bishops
##pec
##person
##f2
##fere
##fax
##72
##70
##76
##wal
##was
##wart
##āk
##zak
##OW
##AP
##AR
##59
##MM
##UR
##US
##VA
##Vall
##ʻolulu
##IT
##ICE
##íb
##ña
##ël
##რი
##ṃsā
##eroy
##inth
##inwood
##inwall
##atts
##atae
##oramic
##arely
##enus
##anaman
inactive
##alc
##alis
##alem
##alach
##ithe
##itism
##ingdon
##isode
##isław
##asis
##asers
topp
##icemen
##ionation
##ilic
##ilations
##iliar
thres
##sthetic
##amics
##urious
##adal
##olation
##acies
##acab
##acios
##acrosaurus
##acerb
##ropt
onward
##lem
##leep
fores
##idging
##igua
asleep
##oway
##ithm
stink
stint
##eme
##uta
##utational
beams
reused
reacts
##ulse
##ulative
##chi
##chief
conning
##verts
##osal
franc
framing
anterior
##avers
##avorable
##uming
##umann
##umption
##opold
##opao
heating
203
dear
degraded
##istration
##illet
##illtern
Inez
##ifully
##ewell
##ortals
##abel
##abies
##ablish
##ateurs
##ardom
##ocative
##ochem
##ocolate
orch
chop
chast
exter
exits
exacerb
plut
plank
##arthen
shy
shores
##antom
spind
spends
sparrow
spoof
Sta
Stor
Stru
Steg
priced
##astopol
notified
trag
trash
trigger
##mental
##ishi
##ueger
Chir
recyc
##ighton
##plan
##pless
##plane
##ogamous
intest
##rail
##soon
##quay
claws
claret
##ructs
resent
resol
relics
relinqu
reliability
unint
uniqu
unjust
Heyl
Hebe
Threat
##reeks
scouts
scenic
compelling
compressed
compassion
compendium
computational
##ucent
##ucius
disk
disob
alloy
##angling
##achandra
deserves
desirable
manpower
##prises
sergeant
overb
overp
overrun
##ikov
useless
outward
outsk
upro
upward
##eason
##inders
##nderland
sheets
commend
committing
##ampire
workplace
##olds
##cester
##issa
##athi
Frame
##icky
##icked
feast
Arcade
##epers
flats
flax
flashes
Marx
Marj
Marco
canvas
##area
##hness
ende
regroup
assort
##alsh
subterranean
retitled
indef
Newsp
interfer
interchanges
interfere
amids
amusement
Aten
Atkinson
Anch
revive
Ascot
Shoot
Shadows
epist
##aneous
monogamous
blessing
Bris
Brut
Brilliant
Bridg
##ebu
severed
Scouts
##roned
##alez
Leopold
addict
additions
goats
transp
transverse
elastic
invaders
emit
##erty
descriptive
##yloid
##ermost
polype
showcase
branded
branched
bridging
parcel
obit
##ahi
signings
compliment
##llier
Index
Indoch
##ypus
##auer
discography
Isid
carc
carvings
##ittac
Blanche
Austen
finely
provoking
##engers
slipp
simulate
passer
passport
countdown
Septim
headdress
Cliff
Claud
Cleland
neural
Troll
annular
Allan
Plans
Platt
Herries
impose
implying
##utionary
Collegiate
##helle
147
144
Eurasia
drilling
Pract
Christina
restr
detract
redevelop
redeem
classics
classrooms
254
Grad
##echt
Flowers
Flags
Andorian
McLe
McFar
visually
Prob
Prohaska
crested
Beaum
brethren
powerhouse
furious
##asteroid
##amba
convex
sentencing
makeup
engages
mediate
antique
antelope
demos
democracy
reprint
Orch
##incible
viewership
localities
Barack
Manufact
Manila
repel
reply
repelled
Abingdon
##into
Weevil
solemn
takeover
avian
Elrane
twigs
215
Amor
Amla
Amnesty
leveled
Permanent
Edgar
proponents
Accordingly
##iterated
confession
Pola
##appiness
263
Generally
Georges
totaling
firepower
281
##apeake
infest
infect
infested
popularized
equality
pressured
Daven
Simón
Suv
Sunderland
ordination
Evaluation
glor
glory
gliding
glowing
glossy
announcing
socio
catap
catechism
Except
presenter
Blackley
Coron
travers
admitting
Glaston
Palacios
tenor
insec
insists
boating
booms
needing
technological
##regn
swung
procured
casino
nationalism
predation
Hampton
likeness
31st
holders
holdings
superhero
Bills
commentator
goalball
##married
sexes
Monaghan
projectiles
Harford
Presentation
separating
inspection
specialists
Roberto
Madame
Florence
creativity
biology
Antony
DuVall
motions
Myles
hostage
misses
Revel
reboot
Gala
Capel
Drivers
Walton
Macrian
poorer
multin
reneg
treats
dissolve
##urbation
tribbles
Sunshine
threatens
purity
flyby
Presidential
Neill
Neoc
hardest
internationals
Varrick
embal
expressway
graded
Appalach
Scientologists
##quarian
Boogie
1843
certainty
apric
potatoes
dispro
disposed
Resour
##guana
Donn
Angela
Schumann
dioces
##zzar
Artificial
Strateg
38th
Telescope
Telecom
Student
priorities
Sammy
Laird
undis
undist
##romatin
keeps
morally
Milky
Beno
premium
Osaka
Entertain
ultraviolet
unsatisf
layered
Solo
Solitude
473
Salem
cathedrals
Twelve
Tennis
Treasure
pilgrims
Outworld
curiosity
pathways
translucent
policeman
enjoys
harb
strengths
44th
precision
pursues
kilometre
Petro
digest
taxon
spiral
handsome
Alexandra
Braathen
767
Ava
disappro
questionable
Greenland
Juliet
controversies
vocalists
chemist
punish
inhalation
thriving
##roads
recommending
Illinoise
Castile
overshad
Clarke
Halen
sustaining
1810
Known
1804
1809
messenger
incorporation
pleas
